
/**
  ******************************************************************************
  * @file    network_data.c
  * @author  AST Embedded Analytics Research Platform
  * @date    Tue Oct 11 10:08:00 2022
  * @brief   AI Tool Automatic Code Generator for Embedded NN computing
  ******************************************************************************
  * @attention
  *
  * Copyright (c) 2021 STMicroelectronics.
  * All rights reserved.
  *
  * This software is licensed under terms that can be found in the LICENSE file
  * in the root directory of this software component.
  * If no LICENSE file comes with this software, it is provided AS-IS.
  ******************************************************************************
  */
#include "network_data.h"
#include "ai_platform_interface.h"

AI_API_DECLARE_BEGIN

AI_ALIGNED(32)
const ai_u64 s_network_network_weights_array_u64[ 67365 ] = {
  0x6935da81bf091e0fU, 0x3cde88be0a220f17U, 0xf6eaed0402ff1769U, 0x481fd603f0060a12U,
  0xf9f70afa567f6b2dU, 0xec13020a03240fe6U, 0xabcf0d100d041104U, 0x11f2cbe7df81bbeaU,
  0x81e0e0e3d110e35U, 0x161c185432103822U, 0xaU, 0x0U,
  0x0U, 0xd11c6f3200000000U, 0x1f7f44fe0804e9a5U, 0x171b000d05e8a0caU,
  0xfffdfdfbeeef0cU, 0x0U, 0x0U, 0x0U,
  0xcce051eef9150000U, 0xd47fc9f440c8ed48U, 0x40c8f83dd3f13ea9U, 0x70deecef3U,
  0x0U, 0x0U, 0x0U, 0xec09f4f3fbfdecf1U,
  0xfad681bed499c005U, 0xfbe8e1f8d2d6f5e6U, 0x67e4126fc004070aU, 0x4081ce9e3d74bc9U,
  0x23cf05e5a37fdc30U, 0x19f90fb04502f70eU, 0xe8e23ce2d454d9efU, 0xe235e7c07fbee039U,
  0xe70de436e2e62af0U, 0x10U, 0x0U, 0x0U,
  0xd3eec9e100000000U, 0x18602af8e7f0edb2U, 0xceed0d28201d7f40U, 0xfbf3f7f4c3e4f4U,
  0x0U, 0x0U, 0x0U, 0x216f3cffe1ef0000U,
  0x7f48fde5f206070aU, 0x17ff00fc080b0d22U, 0x62d110406050c1cU, 0x81840306fe02e702U,
  0xd9feff1df8cdafe4U, 0x20216f1d6f1be97U, 0xffff8a210000f0ecU, 0xc00000000000c5f9U,
  0xc00000400000e1c7U, 0x40000000000153f5U, 0xf31d000177f1U, 0xc0000000000130bfU,
  0xbfffff8000005dc2U, 0xffff68e00000fa8aU, 0xeb2821fdccfaf6faU, 0xfdf4adeebec3cffaU,
  0x155a9604e27ffe01U, 0x7f02d07fdce2ac7fU, 0x54818e02b2f6f006U, 0xf509c6ec945a7cd6U,
  0x3928fb05ccfb7f7fU, 0xf372a6f281b281f3U, 0x7f61da77cc87498eU, 0xf910c5dc89b7d319U,
  0x1f68181a204eeefU, 0xf481ddf6b0160305U, 0x59921efedb00a2f0U, 0xeee88d00917f4af1U,
  0x40eb04f8bd07d40bU, 0xe9fcbaf4af0f49ccU, 0xf303e10b81ffff07U, 0xeb1a8104f3f308f1U,
  0xfffff8aa000011bfU, 0xffffffe7000024c2U, 0x1080000396bU, 0xffffea3100002c9bU,
  0xd6300003312U, 0x7700001abaU, 0xffffff7600001513U, 0xfffffb020000217eU,
  0x8100f600eefcf4U, 0xae7000100162212U, 0x1300090081f0d7U, 0x10600e600fff6fbU,
  0x16003700080605U, 0xfe740004007feefaU, 0xcb0038000708e8U, 0xf77f000200a023edU,
  0x1008100f20008U, 0x633000500fff103U, 0xfc000900c70075U, 0xf901007f00fc07e1U,
  0xfa000e0012fa7fU, 0x804008d00ff1224U, 0xf700f200182b0dU, 0xbff800e700070381U,
  0x2d9700004240U, 0x2fdffff75ddU, 0xffffe625000047dfU, 0x374cffffe8fbU,
  0x1ae7f100818ff81fU, 0x84181e10903cdf0U, 0xf0f6fa00934b1981U, 0x1f7d7f06bad0dd03U,
  0x16fbfd028e7f062eU, 0xec0d1608fbfb7f11U, 0x8106010aeef8f50aU, 0xedfd0002e2fd0f81U,
  0xd7f5c3ad5e5c4f5U, 0x156c81070ef899e6U, 0x1800fa0681b8f90dU, 0x1ed9e5cc818e071cU,
  0x2807070241eafb7fU, 0xeac0c9811b0f250aU, 0xfc7f3742695fd5dfU, 0x8105fe00e3f6f9d9U,
  0x11dce7cd818a0522U, 0xf48166e9000d9915U, 0xf10507ff5f8108b9U, 0xb78188e1d6cf0446U,
  0x7c4c67ff8f21109U, 0x7bac67ff0ed090eU, 0xfdfaf3008177168cU, 0x1f7f684dc9e1c9f3U,
  0xf83431810d10fcf4U, 0x7ffdff01080913f3U, 0x811dee05e8f62317U, 0xe0703031804f07fU,
  0xec92819e3b2101f4U, 0x83e2d7e28196db3cU, 0xa103fa00a862e47fU, 0x117f880201f436feU,
  0xfb8b957f13ff2106U, 0xfa9745ec000581f4U, 0xf18f7f01fefc2f0bU, 0xe5ff2e0802f47f11U,
  0xf6e4d8811d152900U, 0xf7a87f11fb032110U, 0x7fed0cfa1206e9e6U, 0x81fe0005030ae1ffU,
  0x16fae3f9060381f0U, 0xf188819e3623070bU, 0x811ff910bed30715U, 0x7fea03094b33bce4U,
  0x7fe3ede01211af0aU, 0xe41c150d7f7007e4U, 0x9d9dd7ffbf70608U, 0x810bff0607eaf026U,
  0x11460000002eU, 0xa00000051U, 0x2500001ea4U, 0x473c00000b09U,
  0xfffffff5ffffff1aU, 0xb6000038b3U, 0xffffffa6ffffff90U, 0x3ba00000365U,
  0x27f2000004b6U, 0xc2c00004881U, 0xffffffa80000199dU, 0x2b0000028aU,
  0x158000003080U, 0xaeb00000dd7U, 0x667d00000e45U, 0xffffffed00000371U,
  0x1f00001d0fU, 0xfffffff000000013U, 0x2c36ffffffdbU, 0x106600002247U,
  0xdca0000001eU, 0x80200008d70U, 0x11d00001920U, 0x33fffffffc6U,
  0x1cefaeff3e5c59c6U, 0x2269c21b0a1855f1U, 0xd8016105b80a05eaU, 0xf48b60817f6cc9bU,
  0xecdb1456405119bcU, 0xe1a9b74890631d88U, 0x33c1aa37717f7f8eU, 0x245b8f0caf6674adU,
  0xabde675edd340306U, 0x1f5955183c03810cU, 0xf07c236b577f1fb5U, 0xf59c967cfa0d9c83U,
  0x2dc8e33a233d43d9U, 0xf2fed091ac2f2cb8U, 0xd4ed05045649fc18U, 0xd0b06a23905c7feU,
  0xad1909194a03e2U, 0x19d4e82584b905d7U, 0x28f1840a446902b5U, 0x517aa628181e5bedU,
  0xc8d67bfd990e30f7U, 0x575c87052d660481U, 0xa627a766504e6694U, 0xb891ac8c9d732c87U,
  0x7fa3817f7f281981U, 0x7f7f8151817f7f81U, 0x81817f7fcd7f5871U, 0x7f7f7f3e7f81f21dU,
  0x8181817f7f777f81U, 0x8181818161568181U, 0x36a5b46c22c70fb9U, 0x46f1a69083522c9dU,
  0xb8ac0e007f693d7fU, 0x3d30ea815a19f203U, 0xd755bc13333e39c5U, 0xcdccd79f49810db9U,
  0x2b06a4151a23edfcU, 0x1e2ad53d0715030dU, 0xdef02df7c417b8efU, 0x4021b60b24ae04beU,
  0xc5070329161d45d0U, 0xfbccda201ff322c5U, 0x327f864d28bbf1caU, 0x4838a410b61a0ed3U,
  0xb4a82648fa4f8161U, 0x5d2c3d3143714920U, 0xa5fb03332c3366c3U, 0xccc3c72f2203adaeU,
  0x1a7cc8360a8ef1e8U, 0x2a06d4818b1effd8U, 0xe1c0fefb4c2bb57fU, 0x2d060ab719de4c09U,
  0xc6ff0a09131c2ee7U, 0xdbe7f91b7fde0be0U, 0xffffa25e0001175bU, 0x1b60000169dU,
  0x8dddffff4c92U, 0xfffed28b0000224bU, 0x7089000082acU, 0x38f3ffff87b8U,
  0x6ecbffffffcdU, 0x1e1b000001d70U, 0x1fa80000417eU, 0x97bfffeb1a6U,
  0x335effff986dU, 0x2f070001cc62U, 0x428e00008dd5U, 0xffff8a070000010dU,
  0x8000004515U, 0x11d0ffffc4f7U, 0x1ce0000d610U, 0x21b800005af5U,
  0x7e8600002392U, 0x10a72fffffe89U, 0x46f700006474U, 0x10af6fffffcd0U,
  0x110d300000070U, 0x1ee530000addfU, 0x7ffaf90dfb2901f3U, 0x6e00faf8fb26fe02U,
  0x3bafd02fd0ffdfeU, 0xd7fc038f010b00U, 0xcf0101fffffffcfdU, 0x250202fffffb0106U,
  0xfe1af71b81021519U, 0xfd0924e4ed110636U, 0x25f68913e5e1221fU, 0x715dc0bfde9f516U,
  0xf7ea29ba260d2ce2U, 0x542071b020e09ffU, 0xf40400496f1c4e0eU, 0x5d7f4280df0c635U,
  0x1efd66e37ba4ed1U, 0xea3f4b4eeec20c7fU, 0xf1c47a0b00fe203aU, 0x14d82c4432ec4e0aU,
  0x70ef78e1bdf3510U, 0xed0e040d011f22U, 0xfb1dd738117f3de4U, 0x349d1a260ada1941U,
  0x2fd74bed3935771bU, 0xeaf4163623f627e2U, 0x1c09200e0a060012U, 0xe8f20b0218c60101U,
  0xfafa020401f700f6U, 0x203e6faeaffU, 0x7ffafbf8ee030009U, 0x41f401030fe804eeU,
  0xf9e3e5370921e3edU, 0xf8e405fa14fd7fddU, 0xe2f14abfddccd9e5U, 0x7b2eded7ff1a38b5U,
  0xd14b4f13f5d76ffU, 0x24ed0ce7fe16dae0U, 0xf535f8fd00fcfb9aU, 0xf90ef8fbde7e04ebU,
  0xf402faf7ef051348U, 0xe90709f90d12d60cU, 0x3f0a09010bfa0becU, 0x15022a09d87f01e8U,
  0xc52d016cc0800d8U, 0x97fcdfcd0eefcecU, 0x2f5f3ff13f62a50U, 0xc90511eef627d0feU,
  0xb29254e33e31dc7U, 0x1b228414acb5efd6U, 0xfffffe4cffffdfbaU, 0xffffab6effffedaaU,
  0xffff856effffd529U, 0x1ea2ffff906fU, 0x1df67feb60ee67f9U, 0x1b3b81c7ef204c10U,
  0x7f24fcbc06fc0c09U, 0x7f4dd2cdfa041a05U, 0x4781f30b01f113f4U, 0x33fd70ed7f394afdU,
  0xfbfef03509fc0081U, 0x810142ee1234cd08U, 0x3a0d63f463037ffaU, 0xd704811189d4cf02U,
  0xcfb4e05b281c200U, 0xe4f7810822714effU, 0x81c1fcd1cbf2b508U, 0x8e7f05f0f5fc1410U,
  0xa97f04e8fde45518U, 0xc5250d81204ec31dU, 0x22cbee7ff2cd214dU, 0x220707f71449810fU,
  0x227ff0a80715e80eU, 0x37016ce37f2957f7U, 0xcf81bd60fc0e3fedU, 0xd17f16e10215f311U,
  0xd57fe72cccc41802U, 0xf0fc22fdee967f04U, 0x1af1051ef805e17fU, 0x10de20dbef18100U,
  0xd5321081ec05f417U, 0x1e8110d90206f2fdU, 0x4c82027f0b0eebf7U, 0x7cffa81ff1a0817U,
  0x7eef3150bde0a81U, 0xb1add1a581d8bd22U, 0xa97f1400ebf9fa17U, 0x2705f4fc0b4d81fbU,
  0x4209507fab5020cbU, 0x401d7fe44629c400U, 0xcdec1c0310d37f00U, 0x60ffb781df27e11bU,
  0xfeeff8e5fc030181U, 0x8812bdc11e732eeU, 0x8164fbebeeeb4710U, 0xdfdf57fe9e8f3faU,
  0xf5273e7f2f0dd6daU, 0xff061081e709fc9bU, 0xf4d90281f004f923U, 0x8171e3dbd8ea1a1fU,
  0xb810a0ef5d326f9U, 0x112a857fcde8fbebU, 0xfffffae3000011ceU, 0x1654000097d6U,
  0x8481fffffdc5U, 0x69a000023b3U, 0x14c00002ec8U, 0x1060000013fU,
  0xfffffaa300000d81U, 0x1901fffff98fU, 0x1920000030b6U, 0x11c5000054feU,
  0x29f80000a1cbU, 0xfffff81efffffad4U, 0xfffff965000022e8U, 0x1962000003d8U,
  0x1d3100001a9bU, 0x20700001c71U, 0x10cc00001d62U, 0x1dac00001211U,
  0x51bd0000068bU, 0x4f0000121fU, 0x8befffff8bfU, 0x2a9b0000211cU,
  0xfffffc0c000008c3U, 0x2afffff92fU, 0x7f0206f79a71810eU, 0x540f6a50092eb28U,
  0x252064f1dae50281U, 0x398fea1cf6102546U, 0x49297b2302f7e4faU, 0xd3070ceced5b0996U,
  0x2674d7267f8134dfU, 0xf1801acfdb3e8f2U, 0xb28f1cc83dfacc7dU, 0x7f7f81674cdc71a7U,
  0xb98a76ef3619bb70U, 0xa8d5c7b58181455dU, 0xeb3a0f021be31715U, 0xbf9fbf5fcd1f61bU,
  0x22e030fdd3f01320U, 0x2015fefefdf60c22U, 0xd908280eedf8e9b0U, 0xee0304ffb502ee13U,
  0x1eedfc1b5685480cU, 0x257fdf5ffaae13b4U, 0x817fc7c7bfc7145fU, 0x1361067f81bcd147U,
  0xd781b6172b212619U, 0x67f67ea1fa7f87fU, 0x90818181ef30b981U, 0x819b7f7f817f7f7fU,
  0xa511817f7f7f81acU, 0xb19d6bb0cb7f1b81U, 0x307d818181817f81U, 0x7fcf817f7c788181U,
  0xfaafff3fd619f81fU, 0xd6f9ee5531ccf2faU, 0xd908d8dfb40027f6U, 0xece700bf2d24f113U,
  0xa01bcf3c63ff175eU, 0x5f93fcf4bfc24f1U, 0xf8f5040516cf1f0fU, 0xe27fbd8fbc3ee24U,
  0x41a9f6d6ebd81528U, 0xcc110be113e2084bU, 0x5510e5fbef00e5eeU, 0x33db201f12fdfc0bU,
  0x1038f62ad22efaf4U, 0xf1f2febe30bed947U, 0xed28de051b0538d3U, 0x16e804deccf97f93U,
  0x8113322c66ffb20cU, 0xd801b602db033dfdU, 0x260d0afa09f0ec0dU, 0xf7f901e7f70ff71bU,
  0x250603f6e3f71decU, 0xd803f6eef350e815U, 0xd010eceee2f6ecf0U, 0x31e1105fb05effaU,
  0x8e79fffffe28U, 0x46800004033U, 0x800100007f43U, 0xfffff971fffffc94U,
  0x36eaffffb1bdU, 0x179900007f51U, 0x26b200000a68U, 0xd2e000015a8U,
  0x178afffffdb3U, 0x100000832U, 0xabbe00005002U, 0x44fc00000fbeU,
  0x69c200000fc3U, 0x7efaffffe833U, 0x1447000087aaU, 0x682fffffe3fU,
  0xfffffff800000169U, 0xd89000079feU, 0xfffff5d2000052deU, 0xde0200008604U,
  0xffffffe500000002U, 0x586000000dbU, 0x41e000055baU, 0x63870000163eU,
  0xfffc04fcfd07fd05U, 0xf2f20bfdfdfd0901U, 0xfef70afcfd1afff7U, 0xf40c12fdeb080502U,
  0x1281f5010b120001U, 0xef110325faffff01U, 0xfe2b8f5f05f0f4c2U, 0xf11fca1dd50bd38bU,
  0x96f809421eef7bedU, 0xd7f0dd1006e853f3U, 0xafe14897feaddfeU, 0xfffde0e532f42befU,
  0x362dc901efdbfa0dU, 0x70be931a67ff7daU, 0x48dd33936321b9c1U, 0xf6c3e90a052f9847U,
  0x5fc31f7f09173d4U, 0x1bd4420b3dbce7cdU, 0x1221b309fef10ae3U, 0xff03fa12ed2bc9d2U,
  0xf9fc00cd2d0dffeaU, 0xfde1eef107120206U, 0x5f301f5c17f1debU, 0x800091325ed02edU,
  0x1502f51fd6170108U, 0x2d5406eef70807f2U, 0x1d16cb3ce9c204e7U, 0x52f9c68e21c8f5faU,
  0xa2de07e40314e8efU, 0x57e90481f9eddfedU, 0x602e2f8f60f0befU, 0xc0c15ee2fefd2f0U,
  0xe601f7eaf8f50307U, 0xc1303fcfc0c21efU, 0xf402e41781dff7faU, 0xc0cf1130003f409U,
  0xf3fa02f3bd49d8ffU, 0x403fbf90afd0402U, 0x4e37ff003f9fc0aU, 0xff0b07cfb3ee0501U,
  0xfd11fe040a0a081bU, 0x30d0006f800040dU, 0xb208168321ecf0f9U, 0xf8e49b0b1302d30bU,
  0xea3b055c4c81fc20U, 0x51cabbd4b01f80aU, 0xe026c31b506383dU, 0xdb2f51b0b5e3434U,
  0xfffff60700001b51U, 0xffffe5b6000064acU, 0x372e0000a5e9U, 0x48b300000bafU,
  0x106cc0d7fb8df03U, 0xd7ffd115cfbb7ffeU, 0xdfa0e6fcf200f81U, 0x7f10cde7e1eb0dfdU,
  0xf700e9c80cf00b7fU, 0x5f81d95f01dd0de2U, 0x9d8116acebd2f20cU, 0x5281ee5cf9cf08e5U,
  0x8b7f28b9ebeefe1fU, 0x85812097120ae712U, 0xfa0c0981ef0a07a7U, 0x1dfa063513f1f57fU,
  0xe00df181fdfa02b0U, 0x13ffe9e1d31981f6U, 0xf9ff1c0cfeb47ff6U, 0x837f38ab1825fd23U,
  0xebffb304337fc802U, 0xf5087f10f80319U, 0x2b68f17ff0da11e8U, 0x4b0c7fd8750e7c06U,
  0x450a5c811000ca19U, 0x21f7fe7f00fc0844U, 0xf5fdc40cce148107U, 0xbaf88119ea183d07U,
  0x177f16fff7f50509U, 0x1fce27fe9e6ecdaU, 0xd060f110a05e881U, 0x21fa617f3523bbceU,
  0x30f5697f441db2d6U, 0x10074ace732c7fdbU, 0xff001c7f17faf3caU, 0xfdf4130caa2c247fU,
  0xb020c32dd120381U, 0x8f81228a161fe60dU, 0x3f077fe711ebbaf9U, 0xafd107f04e3fed0U,
  0x12033df87f5e59f2U, 0x4f937f381442006U, 0xf002000b25da7fefU, 0x4fe29eb497fc20eU,
  0x81f13b1b13fdf5fcU, 0x18f80510f408087fU, 0xf60718810713092dU, 0x9050f81061c0524U,
  0x58027ffd394e9109U, 0x4873dc7f07ef15eaU, 0x3b81ef66ddb507deU, 0x1d0546ef32e67ffcU,
  0xf900000004U, 0x26500000597U, 0x325000002f1U, 0xfffffd4ffffff710U,
  0xfffffc82fffff728U, 0x1500000a17U, 0x3d0e0000017cU, 0xfffffe9f00004490U,
  0xd51000013e3U, 0x3541fffff89dU, 0x263fffffcc7U, 0xfffffe9d0000013eU,
  0x3044ffffffd0U, 0xffffed7b000011cdU, 0x3d46fffffdc8U, 0x274c00003805U,
  0xeffffffeb5U, 0x3b440000020eU, 0x4c00001c22U, 0x1e0a00000f84U,
  0x1004ffffff4eU, 0x305f000022b5U, 0x24000001344U, 0x234fffff525U,
  0xe81aeed232bca128U, 0xe8a5a931466dba35U, 0x2d362f4c5e2266a7U, 0x43b9abb944a143dcU,
  0x28d93aac0534a12bU, 0x2f2fb257c6ff962aU, 0xc051bab851a09042U, 0xac811f485c7fb74bU,
  0x48514c657f49f98eU, 0x6254faa2598116b2U, 0x47545495ae54b346U, 0x3f48bc05810d0b4dU,
  0xcb39c7e01ecbd825U, 0xaa9f2b212c49ee1fU, 0x261e1e2b4433bcddU, 0x2bfd58d020b5e9c7U,
  0x1add2dc5492bed21U, 0x1e1af0a9b3f93c2bU, 0xc150cbb246a48847U, 0xb410815663f8bf47U,
  0x4853505ae14d7f82U, 0x518a8e9b5a1681afU, 0x43ce569b0951bc53U, 0x533fb57d25bd814cU,
  0x817f81817f81817fU, 0x81172b7f7f03817fU, 0x7f7f7f7fd77fef81U, 0x7f7ff6817f08e781U,
  0x7f7f7f81817f817fU, 0x7f7f81087b812c7fU, 0xb246bcc238bfdd4fU, 0xb010333f3e03b157U,
  0x48363b41e64a90d6U, 0x3cfa7fbf3f0430a6U, 0x37ca49b97a41b047U, 0x3a48ae8145ca4e3dU,
  0xd237c9d81cd5d12aU, 0xad5aba313ac3ec18U, 0x232c2632cf3255bfU, 0x21bfafcf24443fcbU,
  0x20eb2cdf0526eb31U, 0x2c0bea492244a61dU, 0xb946b4bd39c1d252U, 0xb0761c4c4481ae45U,
  0x423c4241be49eab8U, 0x383d01bf385e039fU, 0x3f3e4ad2bc3fb650U, 0x403eae070372223eU,
  0xda14e0de1ce4fe34U, 0xe355292522abbb35U, 0x281a221bcc1bbae3U, 0x1c0054e42046e3cdU,
  0x1eea2ceb3b22ac2dU, 0x1c2ab3b604352c20U, 0xe5bf0000048cU, 0x47d0000759bU,
  0x41040001152dU, 0x37c50000035aU, 0x526c000022a8U, 0x314fffffc2aU,
  0x1df6000004f1U, 0x5eb0ffffeb96U, 0xfffffc590002495eU, 0xffffe377000001b2U,
  0x99300000498U, 0x21a9ffffffd1U, 0x43c2U, 0x7500000797U,
  0x378000057cdU, 0xffff304efffffb11U, 0x33b600000c1cU, 0x24600000300U,
  0xb100030400U, 0xffffb6c5ffffec16U, 0x9d3fffffa5dU, 0xfffffcc900000201U,
  0x6165fffffcc2U, 0x280000013aU, 0xfec0cfedb0a1208U, 0x10d270e10f801f2U,
  0xee7fea2c0ed7ed21U, 0x4ec1213f0fc02eaU, 0x2f15f651ed7c06feU, 0xede21a0ff6fb0104U,
  0x201070fdd07fb0dU, 0x104f54f7f12fc00U, 0xcebd3f00504fff0U, 0x95f1f9e4120f0105U,
  0xecf16a0bf1f40409U, 0xe90208fb0a040613U, 0x2c650e211e3809eeU, 0x3a39d1400c3eca9fU,
  0x72122e9267fd6e2U, 0x14c0f0e41a3225f4U, 0x1fd6dc1bc803dfb3U, 0xe6b4bfcd4136daceU,
  0xee080cd9260c7febU, 0x8174a260e0c0001U, 0xc117e6a92af53f4fU, 0xb5d44ac3a17ecfdU,
  0xb127fa0a50f10edbU, 0x40ed0a2b130c3929U, 0xffff050fa3fc390fU, 0xe5f91805e217e403U,
  0xf11c2c6f03082518U, 0xf80bf36d81071a0cU, 0xda07fc0207bffbeeU, 0xfdf2f2fe35310c3fU,
  0xfd03fceb07fdc6feU, 0xf11d100c010df610U, 0x330eea3a2602fd0cU, 0x3110afd100ff8U,
  0x212fb0003ecfaf8U, 0x7f0c050e0e0d02feU, 0xc3a3df177f113a03U, 0xde3fe513fb084f3cU,
  0xe7611aca2492b911U, 0xddd90f4cca1421d1U, 0x15ef2fdae6d30dddU, 0x554531bd2129d199U,
  0xbbaae935ad41cdfaU, 0xb8ebf16a0c152471U, 0xfb84236eade22dbU, 0x21f6f5cf2dfafa23U,
  0x1ef4a41ff31515b9U, 0xba7f260df8eefd2aU, 0x16e70b55aa13f40aU, 0x260af6e511f321d3U,
  0xd1d442d414d2ee3aU, 0x1d8fb040ef6fbfaU, 0xf6fee1dd691d03U, 0x7fc818f7f6f9eb0dU,
  0x8f5ffe9e9ec0681U, 0xf00eefed0c0fff01U, 0xe9e0140df5100704U, 0xd5f21d15eb090001U,
  0x5f3090bf1faffbeU, 0xe10d02e608070b02U, 0x272201317f1fdcf6U, 0xccc2d41209ee3d6U,
  0xfde13c38b3372906U, 0xd454416bae9bc1ebU, 0x333c1ebd5103e5c7U, 0x3bdfdf298f983becU,
  0xf5f8f910fafd120aU, 0xf80401e4fe07f701U, 0xf6e9110c040b0ed7U, 0xf60bfb07f1020412U,
  0x7f07f1b60705fb1dU, 0xf10ef10a100e050cU, 0x405fc7fffcbfbe9U, 0xfa01056f9403f607U,
  0x204ab10020f08fdU, 0xec05010603000003U, 0x2fb0b0418fc63U, 0xfa09fc050400f3ffU,
  0xf706fef8040800a6U, 0xfaf705021004f407U, 0x4001312010507f4U, 0x3f0aeef30afd0302U,
  0xb057f030a0afff0U, 0xee0ff91206050406U, 0x19fb078af4181304U, 0xf2f8ea6ae5fdeff2U,
  0xca9881d1f5e20ceeU, 0x18f9f2ef02fbf202U, 0x2df205c1f839f4abU, 0xfdee1efaf0edf700U,
  0xf00bf60d20f5080fU, 0xf7f8eee90809f916U, 0xaed20823fa1bfe0aU, 0xfe07f31cdc060bd9U,
  0xebefeefe087ffa1dU, 0xf31bf2fa0b0dfde6U, 0x380fffffa6e8U, 0xffffed63ffffc8f0U,
  0xfffff388ffffdb9aU, 0xffffb3d1ffffe07cU, 0x4fabffffca70U, 0xffffeac0ffffd996U,
  0xffffc7e1ffffa13fU, 0xfffff7b2000096b6U, 0x81850c13f96d0023U, 0xf7f2fafed242e537U,
  0x604ffe72f0d013fU, 0x25532b2819170b81U, 0xbcc920f2b13f20b2U, 0x6b53f6f99300077fU,
  0x5dd7fc0908fedc7fU, 0xb8552ef3d1534e23U, 0xeee1f9fc14d81c0eU, 0x222313e87f0ff6e6U,
  0x81c23ecbee881021U, 0x54bb8ce747a3efc5U, 0x12f4b50bf11f107fU, 0x4eb50d0f95e1e5bdU,
  0xea04fffcf8f207f9U, 0xfa027f19f4f91311U, 0xf2f6faddeb0ee47fU, 0x211ae7f72d072943U,
  0x81d924f308a20c0fU, 0x165bdbc3059a19b5U, 0x11daa20457bdd431U, 0x810b120e455dc7eaU,
  0xddfb0501f6e501fdU, 0xf912e97f00ea0df2U, 0x10d3e003e9fcd781U, 0xa8840aea93cd39daU,
  0x280017fb1a09d5eeU, 0x814ee7eaa9ee0d19U, 0xf704f429e4f6dddaU, 0x478119db4dd7dc1aU,
  0x130861ff020bfb87U, 0x7f2df403deff2063U, 0xdf1d7f01fe0e08d2U, 0xdee9dcf00c0e0d03U,
  0xefef447f10f30451U, 0x62f5000162d928f8U, 0x8dbb90d2fd5d84dU, 0xbca6f1fc194d1f81U,
  0xe907431eed18cdU, 0x1281feef2ee8e015U, 0x2fb05f30206ec03U, 0xe4fc4f81f2fa590fU,
  0x10fcbbe72ceee969U, 0x2cadd9fdc7552481U, 0xdc20704c6e00971U, 0x7f2630076f09ed17U,
  0x777febdeec900a07U, 0x3d0e0604d7cf09f8U, 0xb6da1ee6f6c3b818U, 0xfc7fcd5fd8bc29b1U,
  0x2afb40e11d1b310fU, 0x1c7ff316f70202c9U, 0x2169fcfb81d90df9U, 0xf335faf4f58b0b44U,
  0xfe07fa192a0d1881U, 0xeddb0306f1fffbb2U, 0x5011ddd0c0cff06U, 0xfef2c0070d0f7ff5U,
  0xa9ecfa0d817c07eeU, 0xea30f3fc01b80657U, 0xfb1eca2b181f147fU, 0xa2c201f411cbd8a6U,
  0xc481f1023162f4f2U, 0x10d111190242f3cbU, 0xd6ba4c090c1cfd9bU, 0x1e44f1000c39267fU,
  0x7031eeb3f394932U, 0xc47f1920ce2cd5f1U, 0xd60f0006e4e27f09U, 0x6f2d2e41817f1fcU,
  0x240cf40f0bedd3dbU, 0x170e907fe8fb02e0U, 0x1fecb5ed24061843U, 0x65ce0310811915acU,
  0xef0e7ec1105f04cU, 0x60ffede57f17d621U, 0xd1acb054feaf469U, 0x86bd14087f7bbd86U,
  0x14f3d745f42c2300U, 0x60b0bf905810718U, 0x19d4fefaf8f481ddU, 0xf50fb65000cf17d9U,
  0x2326e40f292d25ecU, 0xe51f787fcd1aea32U, 0x8f4fa08eff8f300U, 0xdfe812d080bc2f3U,
  0x2bff06f91e20cd03U, 0x180981e2160b00e3U, 0x12c9e905cdf41cf0U, 0x5a0bf4fb81e9181aU,
  0x28fefb05f914170aU, 0x5efa981fa27acfcU, 0x81cd07cad797d7f8U, 0x23c8d1dd3eb44fdcU,
  0xda080206e3d47f09U, 0x5e9deef1315fb01U, 0xdc0802faf1ed0afaU, 0xfffb7f0ef1f52711U,
  0xe01ebf68d6d700e1U, 0x9b37baf881064829U, 0x1afd02f41818b2feU, 0x160d478108f402f1U,
  0xfe09f712c0f7f6f8U, 0x2781f1f43e0deb1bU, 0xd3ec24e5ffd7220bU, 0x4e1bd011af97fe3U,
  0x30357fbd20523a33U, 0x5cdd03fa600ae3cbU, 0xfc2604c5ab0c0d17U, 0xd87ffefeb432eceaU,
  0x1dd1f3a07f1a13ffU, 0x1dc1b153ab8d62bU, 0x1424db070c010f05U, 0xa289f7f1101be03U,
  0x2281dc1eaedaa492U, 0xb9afe7fc84c00df6U, 0x1c1388eac321f72fU, 0x81eaf70657d42f9bU,
  0xdd1d070bfbe47f09U, 0x4e9131a03190710U, 0x4d8335177fe60cd6U, 0x1ae93417faffb699U,
  0xd41de9039e22ecf4U, 0x813cf50868b4d765U, 0xfa1446da23f8f900U, 0x229be073d2c7f2cU,
  0x3a08ba011d292a30U, 0x72274cea7f02b5e3U, 0xe51700ef01f4d5f2U, 0xfd0b7f40fe0623fbU,
  0xa6dc81ef1592c500U, 0x97faa9ddf8051e29U, 0x84fd12e3b9aae410U, 0xf37fec2ed5cd0bb9U,
  0xc5a81621267f07e8U, 0x5ee0fc0cea2cfee6U, 0xf6f2f306eff60112U, 0xf618cd7ff9f5e012U,
  0xf80ff8ff01fffafcU, 0xfa077fe6f2020213U, 0xfef320cdde0c0e5fU, 0x613e13fd7fefd1f9U,
  0x2121b2f31140e81U, 0xe4cb0001baecf9a2U, 0x28e61509df190333U, 0xda2fec81de191d0fU,
  0x1f82123f2032115U, 0xd87f1010c0f6f3e5U, 0xd2d8c4ed85cdcf0dU, 0xd6c0ecfb8ec70e7fU,
  0xf015e5feefec2bdbU, 0xa959efef81192205U, 0x1efb11e9301e81f9U, 0x1407e7221efd43e3U,
  0xf5db2ee5f701aeU, 0x811ffefd7af914efU, 0x6f2d52093e2f5a0fU, 0xca7a3960ec2ae781U,
  0x41325feb059e05afU, 0x2039f60711ef3a7fU, 0xe82615f6d60eec7fU, 0x1d0dff0715070035U,
  0xff941fd1d1432f4U, 0xd97f03f3cc14f695U, 0xf5e05d0323db04b3U, 0x7f2bfb09a0101274U,
  0xa1abd104e47ffef3U, 0x2a0e0205e53cf218U, 0x148ebf0f5181f0d1U, 0xf73606f2e272f32bU,
  0x333fbee6d881f41eU, 0xb80ce7f90b1e0aefU, 0xd02297f62dfbe4dbU, 0x87f31ed00e10204U,
  0xff0c05fb07f804f8U, 0x100e07f0d0505ecU, 0xeb021fe9ffee3106U, 0x9f52f81151766f8U,
  0xd90303f7fce40df9U, 0xed05417ff9f74904U, 0x81c911dce093c406U, 0x1b20d80f129f3dc2U,
  0x3f31b250c0f37f0U, 0xd57ff6ffa2e8e2bbU, 0x3eaeb0a00fbffecU, 0x1881e5ea2def1f0eU,
  0x19e9fdff0f07e505U, 0xb0a810a04fbecf1U, 0x1f0fed220a07eb11U, 0xe57f09f2d9f60901U,
  0x7c2eb5230a60cee7U, 0xe4c40a7fec4dde68U, 0x312efffffbadU, 0x1a5d0001505eU,
  0x8688000015d6U, 0x2f3a00003bf2U, 0xfffffe9f00001a94U, 0x79500000629U,
  0x93f300005c03U, 0x38ea000014a3U, 0xe5a0000354cU, 0x156a00002120U,
  0x42de00000561U, 0xfffffd6a00001794U, 0x3ad5fffff21aU, 0x23c7fffffd4fU,
  0xfffffab10000085fU, 0x1a9900002092U, 0x2e91000028b6U, 0x9d240000095cU,
  0x401d00001b9cU, 0xa8000026ecU, 0x2c9f000023e9U, 0x5400000101aU,
  0x220dfffffaa2U, 0xccbfffffabbU, 0xffffddca0000292aU, 0xfffffc20000006d2U,
  0x39a300000e71U, 0x146a00004048U, 0x5faf000014dcU, 0xb0800002595U,
  0x19ea00001a76U, 0x327600000e22U, 0xcc000003adU, 0xfa00000186fU,
  0x34000002118U, 0x7bb00002838U, 0x354400001f4cU, 0xbcb000016aaU,
  0x426900000cb8U, 0x276e00002723U, 0x26dc00001a70U, 0xfffffc2d000070e8U,
  0xffffff4000000bb8U, 0x11d00001d9bU, 0x7a2000011a5U, 0x28ae000005f4U,
  0x27110000129fU, 0xfffff26200001721U, 0xcdd0201f5befb73U, 0xd200e6e5f007ff0bU,
  0x7fdc30e028a0092bU, 0xce23fe30080eeff7U, 0xf7211e3c1338d4U, 0xe3ef030a1504e223U,
  0xfa03f30cffd3fa07U, 0xf6e3e8ec1c032f14U, 0x9150bfc03fd01e9U, 0xe0f7f97f3811fc14U,
  0x3838dc00e13f2ce7U, 0x72ff4270c09e0ebU, 0xfb0d0116e608e3aaU, 0x450edb6503810f65U,
  0x1aca667feab9d57dU, 0x817f3fbda91c1ce5U, 0x1ed1d71cf526ee38U, 0x1703b3ff3efec781U,
  0xe116e8cd00e41c3bU, 0xff1effc9bedf2954U, 0x137f17a3d21743bdU, 0xba78fb6cdef0e18bU,
  0x28817f1b04a6fe81U, 0xd7afc7f70027f81U, 0xf6140009e534ff9bU, 0xda05f74f020606fbU,
  0xc7e02af9eda8ff23U, 0xf70ceffd1ced03f7U, 0xfafbff15bcdbf636U, 0xff01d3052607e0f1U,
  0xf707fb08fdcef411U, 0xf50425efd302f0e6U, 0x81811fdf30105deU, 0x1d1dfcfe3d1a1cffU,
  0x36d70ff55a12e7f2U, 0x6e8fc24110e19cbU, 0x4810128e31141a4U, 0xbd07d38503171581U,
  0x5bd81717f70e1f0U, 0x45e55c7fd035ecf5U, 0x22f57199f5af038aU, 0x1a08f2023febd38eU,
  0xbffffcb7fbe624f4U, 0x209be8ea0eeb7f7fU, 0x104fc63da0501c7U, 0xaf810c57c5f0047fU,
  0x1961062115597f0dU, 0x87f0af3fa037d0bU, 0x81628181ae7f8181U, 0x7f817fc97f067f35U,
  0x687f8826a49b8181U, 0x29b77fa0af7f817fU, 0x7f7f81817f7f81e2U, 0x7f7f7f7f81767ff2U,
  0x817f7f817f7f8181U, 0x3c7f9f7f7fa0b335U, 0x7fb47fe17f7f817fU, 0xfc237fc2818181c8U,
  0x81216b7f7f81d579U, 0x810ba0d58181777fU, 0x13140633e6c843ecU, 0xd408007f2013123eU,
  0x23d28607ea7fdbe0U, 0xbbf7372c7f1be4f0U, 0x7ec1393e12e0c7fU, 0xa9f6a0edee6bfa66U,
  0xc513dbdff60126baU, 0x16e77fecae09bf96U, 0x4f30681d40f0529U, 0x7f5103a5c8017a99U,
  0xe8a8ed150725b104U, 0xbbf7ff6fa19c6edU, 0xf7f3fc0014160b94U, 0xeb16ece6f60d02c7U,
  0xc3de3b0223b6f2edU, 0x33f7f422f1ff1ff2U, 0xf6f81f3cbfd4e8e7U, 0x7ffe30b29eed715U,
  0xde00f70c01ccfdf5U, 0x1e2faf0d90a0c22U, 0x2ea1048f00900d8U, 0xe2c1fdeb382ef83eU,
  0x33ff15eb404f2704U, 0x9ef01e5f0131401U, 0xfa09fb167f01e79fU, 0x4840e7ac269d1bc0U,
  0xec03ff0e8c4ddecU, 0x4ac81be2251060eaU, 0x1cd0e433e48f1aaeU, 0xaff00401e27f0674U,
  0xd229bdd6011d2941U, 0x811503e00a7fc7c2U, 0x15dbe277d30b3122U, 0x28ac019ee406dd59U,
  0xdd497312ef94f309U, 0x785aaaf112ec406U, 0x30dfb0831e2095bU, 0xdb17f40eef03fd0cU,
  0x65cc30bdecb2f3f3U, 0xaf8eefa2bde10e8U, 0xfbf8fb2c47033c30U, 0xe5da2404ef5c0c03U,
  0xf50ff319ff01fffbU, 0x20a11f512fcfb9cU, 0x8e505dc04150016U, 0x170b02c53e3b24e6U,
  0xeb17e2efdb16db03U, 0x8ae00e2f105b11bU, 0x63500010270U, 0x80ffffc8e3U,
  0x279500000eeaU, 0x2ed0ffffffc4U, 0x17db00000356U, 0xffffe4610000489fU,
  0x2a60fffffdb0U, 0x7778fffff942U, 0x3d7a00000699U, 0xffffff7e000034a4U,
  0x2aa6fffffe64U, 0xf4100002d69U, 0x25400001ee2U, 0xfffff995ffffe44eU,
  0xffffea71ffffefbcU, 0xffffff9100000368U, 0x4fe000002eaU, 0xffffea43fffff918U,
  0xfffffffd0000029fU, 0xffffe958fffffd93U, 0x29aafffffcbcU, 0x7bb2ffffaa0eU,
  0x1c5effffefa4U, 0x1fb0000262dU, 0x47a000025cfU, 0xc7d00005008U,
  0x465e00005703U, 0x50ffffffb8afU, 0xfffffe40fffffaf6U, 0xffffffa7ffffffd6U,
  0xffffefec00005e93U, 0xfffffae3fffffa10U, 0xffffffd500005589U, 0xffffff76ffffa402U,
  0xfffff1df000000ebU, 0xffffd36d00000003U, 0x4afffffff47U, 0x1303fffffc39U,
  0xffffd91bfffffd23U, 0xfffff9740000006fU, 0xfffffe16000004b7U, 0x63c000006c8U,
  0xffffd0deffffdabbU, 0x8e6affffef35U, 0xffffe1d200000d79U, 0x26d0000011bU,
  0x201400000009U, 0x472100000156U, 0xc325feecb7f665cdU, 0x2ece9319e22b06fcU,
  0xe9ed12c786f6b4fbU, 0x3240b06fb1a00f4U, 0x9d0e361af20f1040U, 0x1401052df2f3fe1cU,
  0x36f1c2f921390af3U, 0xdb08f6b90b0311fdU, 0x816bf3f5fe07ef0dU, 0x2f105b060e9084e5U,
  0x231220cad94d89efU, 0x2dc51c99bef8ccfcU, 0xf1f6c4ec1e0bf5f3U, 0xf3f5d61697fce1feU,
  0xcee0bcffcfcf7f6U, 0x180f03fcf90a09f4U, 0xb05f2fcf225f202U, 0x45c3020139d2104fU,
  0xfa2c238164e92714U, 0xef307da280021f7U, 0xd917f6ff09e3051dU, 0xfc01eaa2dee9e8fbU,
  0xd80609e402f3e807U, 0x1eea020e1837f933U, 0xfbf518b40a38deceU, 0x16ebfbabee09ecaeU,
  0x4f5def26c900db1bU, 0xeb2150030ce500faU, 0x2815bc19bed245c2U, 0x23f314f2ac0ccd2fU,
  0xf42a63ff52f4112eU, 0xf5e0ea3acb142e1bU, 0xef2d0b9d2c3226cfU, 0x2db7fb43dbf39f9bU,
  0xe4babed281edb92eU, 0xda289d2d2e354d29U, 0xc73e6c9f6f010c7U, 0xfdd98122debfa41cU,
  0x5a4d291c3c1b1210U, 0xe3b081838160710U, 0xede52114e2f1ff3eU, 0xfed1f62cfe0deff8U,
  0xdb2760e4170e1bebU, 0xf11e3824fe3b261aU, 0xeac7f01cea150707U, 0x38042e16f1132d17U,
  0xf9df261b3f5b2447U, 0xedf721f8f61d1e01U, 0x1a101d6ad61d15dcU, 0xeed1c042612641eU,
  0x76bc13253912af20U, 0x150f28f3152154b6U, 0x4c0cc62c070a080dU, 0x1608fd21aef6f60aU,
  0x7fc01225c2f4b80eU, 0x22fc1ee2041e0610U, 0x16f92bf410f921c6U, 0x273219f52d1134f3U,
  0xdf00f2848213834U, 0x1d17f4611b0e2d08U, 0xd414f2b906302dd6U, 0x30f681130f14e9f0U,
  0xd42be5e9d4e69a75U, 0x13519f0e81457fdU, 0xe75b11430e131ff6U, 0xc07161e18d4211fU,
  0x70c0108ed30db3eU, 0xeafef6ad1f3600f5U, 0xee65250920fe2d0aU, 0xf3183b2528c5e8f4U,
  0x2412cfa2d621fbeaU, 0xcd3e4dbf9ffeb32U, 0xaee9ecb3f4dee82fU, 0xfa04ba2813300816U,
  0xd03a06cdd4fd2903U, 0x1b14f6fdc23515eaU, 0x1816c0272820d420U, 0xeee723e7ea0dffebU,
  0x20143e0926d9ec23U, 0xfaf0ea6d1601adbaU, 0x7ff0c81ed91f14ecU, 0xce2e42fa0f19c90eU,
  0xed031bf65925c1f6U, 0xf1cce605fd05b61cU, 0xf2f12fe5decf1d40U, 0xe6e6d06eb8df084bU,
  0x863d221cf4ea93d1U, 0x3de7b816db1ff305U, 0x90b01e0552bbc29U, 0xe50943ed9504a4d1U,
  0xf42f500364041de2U, 0xed010fe61ae109b4U, 0x81f0f255fe332bbbU, 0xcb52b40cd3e9e348U,
  0xf62b26f847ccc9fdU, 0xeded04eb07483103U, 0xec00fa41ed56b9f7U, 0x13182eee1e046f00U,
  0x31b6e6e8d3d14a3dU, 0xef197b08065dcc15U, 0x4de7f50ef507d6caU, 0x2709f8f8de0be203U,
  0x1d781f428d91008U, 0x708de70180efcccU, 0x9bcfcedccf02c0eaU, 0xbeba57f2bdd6b5fcU,
  0xd6fa330906f19807U, 0xb22b9a7bc1bead7U, 0x1c02e6f9f700fd05U, 0x1f3e4051b0ff30bU,
  0xf808fcd4f706f0f8U, 0xff01fe0303ff0bU, 0xaf7fcf8f7f203fbU, 0xef04ddfe7fea1504U,
  0xbfceef5253cfe17U, 0xfc0500040b05050dU, 0xf9f71905040d0264U, 0xfd06f40d1302ffffU,
  0x12f5ff02fff1fa0bU, 0x30117020501e912U, 0xfcfdebc7b6f32fd5U, 0xcdaced0f000719b8U,
  0x122324d4f3f4e8d2U, 0xa5a0d523fabcdad9U, 0xa7fb26edccf525c4U, 0x33f1dbf2e502f822U,
  0x47137a027ff5e795U, 0xea25fdf3ebc45121U, 0x52a5bdcb082002e4U, 0xf7070709e9d5d3U,
  0xeb05e707bf040696U, 0xf9fd3c9b8805ecb7U, 0xefce15e8f8e80b2eU, 0xbff3f32f218eb0dU,
  0xeff4f30c22f0d401U, 0x1f200f901f506f7U, 0xf85f3d3ce8fde1efU, 0xf810f781f5ed2df6U,
  0xee06ec056b273117U, 0x6e2d3d0f2e4280dU, 0xa94a3002e50f2701U, 0xf8fa06f81b30f80bU,
  0x240dcc11fefbe80bU, 0x282913f6db091d12U, 0x1200d7fb0cfefff9U, 0xf8f6e307fefb22ffU,
  0x5070629ff00f503U, 0x30201ff00000653U, 0x3fe030009090502U, 0xebee10600db4208U,
  0x102ff15008103feU, 0x6fe01fe12fe08f0U, 0xf90b03ed0326ff09U, 0x203020c05ff040cU,
  0x94fe02ff05ff0200U, 0xaffdfa0008f3e8f2U, 0x4e12f505f7d2f52bU, 0x63ffcb1c163d090cU,
  0x8117abf60b26fe02U, 0xe5f305430dfafc01U, 0xfaeb01d2150102f7U, 0xfdf30df7e532060bU,
  0xf7f720f806f0030fU, 0xe6400e1805021508U, 0x1f6aa03210007e1U, 0xee04e3fefb0a0f08U,
  0xfbfde407adeb030dU, 0x903f505faf7f5fbU, 0xeed00c0ded1b2e1dU, 0xf895e41bf3f7f71dU,
  0xec0bd925d8eb2af3U, 0xcd125f814146b05U, 0x48e9ddf40b053cdcU, 0xeffffad30ae9e7feU,
  0xf67fa81fd2d310fdU, 0xf8f9f815f6061204U, 0xd01820efe52611e4U, 0xe556cbfe2df1fff2U,
  0xddccfd28fad84605U, 0xaaa06f718ff13f2U, 0xe7151236e22cdfc3U, 0xda12a303d82be8f7U,
  0xb81efff8ee14f8cfU, 0x2609fdd803faf2edU, 0xc9b1feda12ead905U, 0xfe0d1b50e0ec1003U,
  0x2efdfb062112170eU, 0x25de283ffe4710f0U, 0xf73b32f14c021fecU, 0xae681f8d2daebdbU,
  0x230b0ed8b3f1df1eU, 0x3a0ee6fe04f3f819U, 0x7dc00002492U, 0xffffb388000025aeU,
  0xfffff268ffffddeeU, 0x5acafffff32fU, 0xffff6f7900003123U, 0xffffc0f800006a5fU,
  0xffffc2d30000804fU, 0x41e000064c0U, 0xd7324a22ef16f5f4U, 0xf9f4f20ae8d6f37fU,
  0x2cd0851a48b0f17fU, 0xeedfbe029272f39bU, 0xd58e81f51114fe37U, 0x1101f308c040edcdU,
  0x7a7f01ea128e1911U, 0xb02f6fae4da12fcU, 0xafc442f312c41b5U, 0xb339c20e3481ef70U,
  0xf41914042ef50c56U, 0x7fe20408abe9f81cU, 0xd053daef171aef51U, 0xe6c711021007f481U,
  0x3b12320ada2932fbU, 0x1846431e473d3381U, 0x5aff81f3f3a0144dU, 0xa02f4fcb803ffd7U,
  0xe6dde081341216b0U, 0xf19e0dfb35c6eb12U, 0xc3e600f8dcad47e1U, 0x1d6fa7f1fd8b3dcU,
  0x90ac518ea10e96bU, 0xde41bfb00217fU, 0xe512224aa1d9c805U, 0xff811500e534061bU,
  0x113f1a07e5e0d0e4U, 0x9f0102ff7fe5fdf5U, 0xca1cff070ae87f14U, 0xf7080cd8030c04ffU,
  0xc5eab8fcc916d0f8U, 0xeaf50ff181ec0266U, 0x502ed8cc32811725U, 0xffc50d04e233edb7U,
  0x140be5e11e00f21eU, 0x181f7060d370a2eU, 0x17f6f0021d05e933U, 0xe57f0505d64017c6U,
  0xee367ff0f927ed86U, 0xe6fac0fa45ddfa42U, 0x1ddb5e0566ef57e9U, 0xefda1d1246fbd281U,
  0xdef3e6e7ecd56ffeU, 0x37ec03ff77f57feeU, 0x1706ff1f0a21f3fbU, 0x1fff681f20aed0dU,
  0x2111338120340bd9U, 0x35b4f80a30dfec2eU, 0xe402351902f30c49U, 0xec7ffc9cdffa5ebcU,
  0x744b04e02b811d23U, 0x310a01faaec00c12U, 0x707f55fc1aca26f1U, 0xf202a509ea93002aU,
  0xfbd1b1fd44c2e35cU, 0x81c90f090653dfa6U, 0x14b936fbe6e10941U, 0xf77f031ec8e3f9cfU,
  0x13c0373011cd03aeU, 0x22d819fa81f7fb54U, 0xe6121f1367fafe30U, 0x61e1810abfecdc1cU,
  0xd76c5fe00237f5b7U, 0x226e84f47f090866U, 0x7f041e7d023b2e29U, 0xd6200c461b323718U,
  0xfa1a6e06e03b1dc6U, 0xf2124fd4781105bU, 0x25ff0581421b3caaU, 0x3ea41c0647d5d6f1U,
  0xd9447f214a1df4ceU, 0x3cf822f21ec80522U, 0x2b0a931a060104c5U, 0x7f10e604b4031f1fU,
  0x26fa41e32b250d13U, 0xcf7fdfeca534fc93U, 0x4cf811b5bea0f52U, 0x920c97092f3fdba6U,
  0xf913e41359eb1251U, 0x81eee0095d4fe8faU, 0xe3e4e81f07e9f4ecU, 0x3af6f2811fd6c7e2U,
  0xe3e7caf5f1e02840U, 0x42400bea7feb1619U, 0x81960322497f19fdU, 0x3806f402ee1cf510U,
  0x24f8cad9e2598310U, 0x2a0f0e5c7f259c37U, 0x36a40a121f04227fU, 0xd231101000d0136eU,
  0x1329c0efbd1e7f31U, 0xb80c1091d7782559U, 0x24e581f0f1ebdc2cU, 0x290defe2cd4c06e6U,
  0xe2e75c0522352115U, 0xfe7fe917d12efe8bU, 0x3b1ce6d22023c7e9U, 0x5e27e6157ff9e500U,
  0xf4fef47feadf13e8U, 0xb2802fada0b16e2U, 0x152b57040b14de37U, 0xe47ff7f7e026f8abU,
  0xf5f7c9e1e0f9ef36U, 0x3741f5017ff0fd23U, 0xf90943e6f97f27c7U, 0x28f5dd0b172c03f7U,
  0xe7e721f2eced36ebU, 0x1ffdf5810c0a00dfU, 0x24c5470d7ff4085aU, 0x4f0cee1b52ba0febU,
  0x250a3b3aff290719U, 0xef7f03c6d0028fc9U, 0x16bc69ee4e034bf6U, 0xcad51c195518d581U,
  0x2daf1381ef0921e7U, 0xc236f001d5ceece3U, 0x29067fee4b382710U, 0x8cb4eb15cf1d2705U,
  0x58f52660ea26e128U, 0xd47f0399d003e6b3U, 0x387fa3fbb6d28b22U, 0xf2f70dfae7f6164aU,
  0xf859d0059b34c103U, 0xafcf904e6001a7fU, 0xd44711e9dc1ad002U, 0x2916f47f02d6152fU,
  0xbddf0916f230ddd9U, 0xaf0c01027f13fdf8U, 0x8eea1300edb0a26U, 0x81d7f902ae3806e4U,
  0x16c2b2fc16da0e15U, 0x5af42407812108d3U, 0x1ccfb942ddf7b80eU, 0x494106fd61812a06U,
  0x7fbde0deef310f8U, 0x39ee008b3ef781f1U, 0xf02f525081411f1U, 0xdfb0281f907d4f9U,
  0xdde1d22ef9c1ac52U, 0xbc9efa158106e4dcU, 0xc8cd1beee0b72dfdU, 0xe3e1e9810ebef5cdU,
  0xd9119302aad58866U, 0xd4ce17048117081fU, 0x84ffedeb009a3208U, 0x550a32e97f1844ceU,
  0x2fca320742e31ab0U, 0x7e7fba000723fc12U, 0xecfdef18e8e4241fU, 0x24ba02bb22028122U,
  0xded8ca9efa01127fU, 0x6513f4167ea1d29dU, 0x21a1721e9180f9eU, 0xd90fe5f9c4e9147fU,
  0x35d781fa310d3954U, 0x4e1fbf13bffb079dU, 0x4fd9772d1624b3e1U, 0xce3f1f2c09013181U,
  0xb2dd36082d7f4edfU, 0x10bc002d1cfeb38U, 0x9f078149d43fb8d6U, 0xe9fb01faee3e182aU,
  0x100c0f01da2e1cd3U, 0x7f2902fc07cc0c14U, 0xf2268113a9efd7fcU, 0xe1621faee071b3dU,
  0xbb6c81ea430919b7U, 0xf37bfcdaeeeee610U, 0xd4b487fa7ef04a13U, 0x44ee1bf3f87ffeceU,
  0xfeaf12d08f2fabcU, 0xf681fd0b17f50a10U, 0x1d4e7f1e0bac06ebU, 0x5a07d6f5ae8df62aU,
  0xfefa81fce106003bU, 0xf7c50d05b6f7009fU, 0x11eaf9fedaf210e6U, 0xeef2f215dceb81fdU,
  0xdaa0811f03bddf02U, 0x4026f63bf8f42fU, 0xf9f8b2eefbe8e71aU, 0x81fcf6f81e3df8d1U,
  0x83144229cf8cd416U, 0x6fe6087f41abd4e9U, 0x42cbbf59c1cc4c1U, 0x7f54fce70dd60b3fU,
  0x40432ac0e675bc41U, 0xee51d1de970e7d7fU, 0xab81f1062d7613f6U, 0x38260106c92a0311U,
  0xc62cab32f9e60f0cU, 0x553811f614048100U, 0x1cf300000c6fU, 0xfffffbb800006839U,
  0x4c2ffffffb2U, 0xc5600000910U, 0xfffff97800007f6bU, 0x26d6000009ceU,
  0x194700001d16U, 0x1caf000007dfU, 0x6c6000017c5U, 0x1339000004fbU,
  0x13ff00003037U, 0x4dc00000ba3U, 0xfffffff300000371U, 0x1a9f00002c7cU,
  0x242f0000232fU, 0xffffff72000018d9U, 0x1113fffff60dU, 0x247c0000194fU,
  0x11e400003f65U, 0x138efffff758U, 0x13f600001535U, 0x15dd000007a0U,
  0xffffed0b000007afU, 0x293600000b75U, 0x174c000022c1U, 0x140600003056U,
  0x120d000008f6U, 0x1e5700000bd8U, 0xfd00003641U, 0x2d32fffffff9U,
  0x9159000011e8U, 0x17f100000864U, 0xfffff7dcfffff510U, 0xf1f000026d5U,
  0x1a8c0000175aU, 0x5d69000005ffU, 0x222f00003c45U, 0x2abd00003c1bU,
  0x4ee1fffff688U, 0x158400002e4cU, 0x10cb00000fa8U, 0x1e550000156aU,
  0x60600001d28U, 0x48900000e89U, 0x24f7fffff998U, 0x3c8f000016f2U,
  0x17a400000e95U, 0x33a0000048eU, 0x3581c6df7f9ad22eU, 0xd4e437c7eb2fec3aU,
  0x310d1d09ad3e0de9U, 0xe4f112edc5137fdaU, 0xf1b0f3e7dc1b3668U, 0x9f2031fca681a60cU,
  0xfbe8362af8551281U, 0xc50ff92a9ffb9818U, 0x22c1a05dfecf604U, 0x99ce2a08863d4b1cU,
  0xda0e1ad9e03b8901U, 0x752080a62d857d2U, 0x5adc8121221fbec2U, 0xe3f10392e127a0f7U,
  0x97d77ff07f7f2d81U, 0x613f54651bb2ddd2U, 0xa5b5e4aa817f0a96U, 0xfb52210c15ba92a5U,
  0x4de060e9ea81ea02U, 0x18af366c8118bf10U, 0xf4215f427781063bU, 0x98f38103b422cc09U,
  0x817f24b4e28d097fU, 0xfc29e7d0815af8fdU, 0xf9eebae5b736ee2eU, 0x4decc2d9f430ccbaU,
  0x27e73004ab2811deU, 0xd7df03f450d2b8fcU, 0x1c8e735ef122a8eU, 0x6f1d23f556e90a43U,
  0xcbe70681e40e064fU, 0x2124f7ef13f3a40fU, 0x125ff0c21ea0407U, 0x26d51f06aef0d7f3U,
  0xcfe225b015164ffdU, 0xf8810d11fffffad6U, 0x4cc98fba300c7f17U, 0x69e61481ed2a57efU,
  0x323c8c34c3c0bfd1U, 0xa54dcf1f2870ee81U, 0xcc7ff6dac4f281b1U, 0xcea51819f9b981e2U,
  0xd5d6485cf4c42d15U, 0x223ffe5a9010adf7U, 0x4118c2db812b11fbU, 0x2efae82b6b36817fU,
  0xa971508db8195a8U, 0xb032e4381d97ffbU, 0x3da337f7a7ff781U, 0x817f81247f812a7fU,
  0x8181e981f8b0811fU, 0x7f258128817f48aeU, 0x7f56938eb69fd802U, 0xfa812e7f81365c7fU,
  0x7f7f11517f5d8145U, 0x81818181787fce81U, 0x81818181f8097f81U, 0x7f7f4a81268156a0U,
  0x77f981dd81ec21b7U, 0x7fb781810f77a07fU, 0x819f9ab448e95e20U, 0xc7dd3081e41e810eU,
  0x3f204fdad2ffc327U, 0x987fe304332fea97U, 0xd5680d21cbf29131U, 0xfcc61a0e16c35eacU,
  0x9bdfbca6eff2fc07U, 0x1c5f2ace7004d319U, 0x4218d7db5ed9fe0aU, 0x57e3e5404df84403U,
  0xa330e2c52427f78U, 0xc52139596681baefU, 0xe4ceaaf09330e905U, 0x1ee8b8dbf22e06c3U,
  0xbfee007bde21c16U, 0xdfde140556d8c4e3U, 0x2c11930f7f51581U, 0x7f1f1df95de41d12U,
  0x4edcdefe5d9e842U, 0x1ffe00f8160981f4U, 0xfa2e11070941f808U, 0x45d8ed0d8ff818fbU,
  0x17f52227051fa030U, 0xe79a170708e906d9U, 0x8dfea1041212bffeU, 0x47d02984ea1922f9U,
  0xc1db9a3048e94b53U, 0x55773f8113b7d4deU, 0xc8be7f11b9f20040U, 0xd55422f804b155f4U,
  0x28d78124ee305e07U, 0x18ea2ecb4dff9edfU, 0xd1a54378c38e741U, 0x9cf82efc810ae5fbU,
  0x15c9177f5858309cU, 0xb61ef6dc573fe0e3U, 0xf2c1ece560bdda15U, 0xf5e319f7f628ca2cU,
  0x1906fd02c3dd192eU, 0xdedc09f8b53967e7U, 0xfbc0207fe5e61d39U, 0xb40481f3a2eb05f4U,
  0xeceef707e3fc079dU, 0xc9faf745ccf9bd16U, 0xfc300b02fb1bfb0fU, 0xd4e9f312a327f8e5U,
  0x14d42615f9174709U, 0xf54d1006cc1bfcb6U, 0x227f00000873U, 0xffffc94cffffc347U,
  0x7fb900003113U, 0xfffffffc00004bc2U, 0xfffffffeffffda68U, 0x20c900001da2U,
  0xfffff4ce00008d65U, 0xfffff84bfffff87eU, 0xa92fffffe61U, 0x1ee8000002c8U,
  0xfffffd51000001e3U, 0x929000013b3U, 0x8d1c00004191U, 0xffffe1adffff6c4eU,
  0x6d1fffff837U, 0x38aaffffcc10U, 0x270cfffffff8U, 0xa50e00000005U,
  0xfffffd2ffffff92bU, 0x1ccf00003efeU, 0xfffffe1effffffcaU, 0xc13000047a9U,
  0xfffffff2ffffdd0cU, 0x7fbfffff0f0U, 0x1ccfffff8a8U, 0xffffffee0000005bU,
  0x302fffffdbbU, 0xfffffa2a000085feU, 0x7f5700000883U, 0xa59fffffa14U,
  0x80cffffe12dU, 0xfffffbacfffffab8U, 0xeb6fffff698U, 0xffffff3c000000dfU,
  0xffffff3c000009fbU, 0x47100000ed5U, 0xfffff9e1fffffa55U, 0x637afffff5b1U,
  0x12ffffff96aU, 0xffffad47000007c4U, 0xffffd67fffffeba0U, 0x735fffff62eU,
  0x3a3fffffa76U, 0xfffffe5400000015U, 0xfffffc1900005796U, 0xfffffc12ffffe41aU,
  0xfffffffeffffeff9U, 0xfffffff00000a20eU, 0x29d81f0ba255dffU, 0x131a1dc3c3cbca2bU,
  0xd1f4f4ffc4a7e7eaU, 0xbe2fd05e7f113fbU, 0xd52bde0f39c5c70bU, 0xdff0e2f04fa18ffU,
  0x9edebfc66f6fd13U, 0x1804f71fedb9edf9U, 0xef2131f4f3f1ff05U, 0xe5033c39161033f4U,
  0xc08d1ec461bf33aU, 0x1314de2cea03f713U, 0xff9f208eaf903f6U, 0xf97f0b07efef0902U,
  0xfdf82b12040c000aU, 0x1060e1ff80a11e6U, 0x7e9f202fd2be2f5U, 0xf1100bf601f215eaU,
  0xfa1700f8070705f8U, 0x1306160a1adbf30fU, 0xefd8011304f401f4U, 0x704f0f80efa0a0bU,
  0xfe00ebfbf1f5e700U, 0x12fffcf826eaf12fU, 0x6bf2272e660004ffU, 0xebcc14ea4b0109a6U,
  0xf3e4a11a0f23297fU, 0xede441fbfeeafc0fU, 0x36b53d11e337c7daU, 0xed143a13c8c6160eU,
  0xb1dc3eb0e4f20738U, 0xd5e14a155eb3f613U, 0xddec2638ca0f2b1bU, 0x432ad4eb2f232096U,
  0xe8caf1f1fa4ad4c2U, 0x203bdd73df4edc4U, 0x12d9e7e9e1152bf6U, 0xdf07f20a26f4370bU,
  0x3921f1c4120321f4U, 0xbc6f50ddbf715eeU, 0xc0081f110b35f7f8U, 0xe902f811ffedde16U,
  0x1b81ec16070d30f7U, 0xec2ba3fa1ebd43c6U, 0xe2d6e50e08f512f8U, 0x14003063bf5ecefU,
  0x2b09f3c9d4ef05f5U, 0xf215191c21e20bffU, 0x27eef004ee0a1ff7U, 0xe5fe0468c802c11eU,
  0xebf8f1f908012735U, 0xf715f9b2f1fdc109U, 0xf3cf55eee8a0e212U, 0x19ecd6f309e705e8U,
  0x188d09f7eb2ee4e8U, 0x3f6c4eafffc56eeU, 0xc207e30d111affe1U, 0x22bebde283107dfU,
  0x2521810bfbea10d2U, 0x2e44f7f0d5191cccU, 0x1406da3bd4c4bc25U, 0x1e0b1fba81e0e9c3U,
  0x1fd09122bf410f5U, 0x23ec06f2252b09fdU, 0xe914c41aa8f8fc11U, 0xed44eab607060902U,
  0xb7a15e6f3e0e6fbU, 0x1ef02d2601e7d907U, 0x7203214f3dd5233U, 0x23121520f3fe2315U,
  0x3e2dd3fd3a2dde29U, 0xd06f914e5f9cf16U, 0xd6d1f730d7e015faU, 0xeafed81e7f40ed1eU,
  0xe2d80efffd0e01caU, 0x4f31bc5112ed3ffU, 0xd7f803fee8fdede0U, 0xf9140d33172cbae0U,
  0xdfe0cf071ee2e7d8U, 0x2ed0cc6cbfa09ffU, 0xd4f0070efe153207U, 0xf509e8f0f7f41afeU,
  0x2429112ee5c001f7U, 0xd1cdeedeb02bcffU, 0x162427c6a4c2d803U, 0x6093f09d32ef2a21U,
  0x720f93cf9270adeU, 0xd600f7094629573fU, 0x4ac510e1f1461ddaU, 0x55e540bd2e2d8117U,
  0xe403af66b42ffbe2U, 0x3d115cdeb0b8e71aU, 0x4cd8f92c7248ebf6U, 0xc64415f63b180b9dU,
  0xb34bd83b0c030738U, 0xcfa6fafd35f404afU, 0xed2ad5f6f3e6d9d5U, 0xf2f0e7f5141e02e7U,
  0xefd3f2030029d213U, 0x29ea13f60019e41cU, 0xd0be2105c410fbf6U, 0x12221a5cf4ed03e6U,
  0xc8a5e4051f01132dU, 0xf3e8fdef0f07f907U, 0x9ede9e9f4197f13U, 0x2be310d10f252ccfU,
  0x3f124e211cedf5feU, 0x929ced828081e09U, 0x500f606fa05f2U, 0xc33f4070814f7fbU,
  0xf8ee3201ff06f50bU, 0x10020af406feecc4U, 0xef221f1fffe07feU, 0x1202e9fe1b02f208U,
  0xdedf0f0bfc0b0415U, 0xf6fb14f50beef406U, 0x23bf5f5e218f7fdU, 0xfbf5020007b5ff29U,
  0xf60408091101f7f9U, 0xb414e6f7fef7fd7fU, 0x29f31ada294b1029U, 0xe11a30d57f01bc25U,
  0xea27c92ab19daae3U, 0xf0e9c6bedabe0111U, 0xbb1da80917c378dcU, 0xebd035f2ebf4fa04U,
  0x1f60d80bf304b026U, 0x113ffc0e1500ee3cU, 0x75e5e2bceb95ced5U, 0xe30e5e0ce223ef0dU,
  0xe9df05b4091a36d8U, 0xa132c103a19feU, 0xde433311d3cb39U, 0xd142cc0cede4ffe0U,
  0xc2723130b220af8U, 0xeb7fcf9e12171c27U, 0xca0eeb26bb163008U, 0xcf23ee09e8271fe1U,
  0x14e0121448bdcfd0U, 0xd228c4ecf318281eU, 0xe2e72732090ce81eU, 0xfffec0a30eaef16U,
  0x6de230df2fb0ff8U, 0xe9c41117df290215U, 0x50003fbfe01ff04U, 0x4ea05fbef7ffffdU,
  0xd8fb0700f90205U, 0xfdf4010900010a1fU, 0x6030901fc06faeaU, 0xfd0d21f7f9fa02e9U,
  0xfefbd8ff0209f308U, 0x5f001040904f604U, 0x7b204d7ec0704fdU, 0x10900fded0101U,
  0xfbfdfefe050302feU, 0x4fa0c060700fefdU, 0x13f4f22f16ef20f2U, 0x120fc921070606e1U,
  0x150106ea3cf5fee3U, 0x4c6833f2dde586fcU, 0x9580909f2062302U, 0x6e2ff09010b06fcU,
  0xaddf207240a13f9U, 0xcdfcfcfb0dc20bdbU, 0x8e5f7fe06fbc034U, 0xe00ed8350b1bd5ffU,
  0xf60af3ecff03d606U, 0xa7f01f8fa011808U, 0xc2e3eff16e7befdU, 0xeedcdf345418fdedU,
  0x240cf7f5fad20f10U, 0x608ef4513000edfU, 0x3dfe80de8d628fdU, 0x16f3f717fe0afef9U,
  0xaacf400211628eeU, 0xe0f5f30102e4f3ffU, 0xeeeeefff0512f008U, 0x37d6e303e7fffaU,
  0xffff8113cfecfafeU, 0x15e3eed60bf611e0U, 0x121db304d2ebe99bU, 0x27f8531c35dae7efU,
  0xcafe01ffe6e4d404U, 0x3a960dd702f71907U, 0x5cf1faa01e042b0fU, 0x2de5e0ec17d01e46U,
  0xd9b710c51c45fef3U, 0x47d7211cf2b23816U, 0xd4e1b50507ebf107U, 0xf8bb00f3370f122fU,
  0x91217be12089e15U, 0xe14dedcf681dd01U, 0xffffeb5e00000b19U, 0x34c400001fcfU,
  0xffffb91700009e3aU, 0x4954ffffe098U, 0xffffbd4c00002526U, 0x24f3ffffad06U,
  0xffffa986fffffce3U, 0x1a7e000051ceU, 0xcf4102176a1ae37cU, 0x81a8fdea29ede2a2U,
  0x34e1f8964c1a47ecU, 0x3f9793017ff1ee2dU, 0xfade8a0c03fbf9b8U, 0x3677febaccb42bbU,
  0xebe1b7811f0a13ddU, 0xdbd84ef2f3a7f319U, 0x770a1e7f0b4c48c7U, 0x1a9e2832515a11ebU,
  0x7ddd6147ff91340U, 0x453d201d76d31932U, 0xf410f12825fa7f18U, 0xea1bfcd7ce08e918U,
  0xf1257ff822213be2U, 0xf6fe300b16ea16e5U, 0x1111f201fd3702b2U, 0x3b59810e33c71053U,
  0xebec087f1acffdedU, 0xecbc1608b2de1c0aU, 0xf7122eea30fd0b78U, 0x53d90a0881f4f745U,
  0xbf3f408170e8100U, 0xf0f0ff3f8e126fbU, 0x12dffc050ff219d9U, 0x7f09060a9de60d1eU,
  0xfbfad70ddff6f8e9U, 0x1e810afc39ef9836U, 0x11f3e21b04021281U, 0xf9f3fdfbf3ff0dc8U,
  0x8027f13fc2d3af7U, 0x19defa07faa4f307U, 0x718b74dbf2165cdaU, 0x81ebe100ddede1cbU,
  0x6c701af91781011bU, 0x1cfbfdfce5b70209U, 0xe04b05e23111d581U, 0x16ef07e9c71903a7U,
  0x5da68ff32f57ffdU, 0x5dc310948d7e4a4U, 0x5090705fe04fefcU, 0xfd3c0a78efee81e8U,
  0xba2204fc10d934fbU, 0x4fafe6600047fe8U, 0xd031a62124f910f4U, 0x2a867fe02102245dU,
  0xf73e04b8cd2813f6U, 0x2a1d7ff6153c1cc8U, 0xf51ef50c0604fbdfU, 0x81070ef448fd03fbU,
  0x3162311090b1603U, 0xf77fdc07e616fdbeU, 0x310b7f373a2a2545U, 0xe3525429e52f58afU,
  0xfff104fe0afd0809U, 0x4f1fb810bf71f02U, 0x2e6d8f80702d1U, 0x218100f541faf328U,
  0x46160a0f744bfe06U, 0x1fc219812e1c5f03U, 0xef1adc00e603fbcbU, 0xd58107edc206f5efU,
  0x43dbf790df31151cU, 0x393b6b037f1010cbU, 0x3cd8e89bb827fd18U, 0x1f444ffa7f1a0ff7U,
  0x2bc48c13c1150c21U, 0xccf8211046d21b81U, 0x7a6fe9fe41811120U, 0x1e18e002e2c81223U,
  0xfb12ec1ee6fbf601U, 0x926112aeafa8104U, 0xbded25920f4f5f5U, 0xb2c7edec81cb113cU,
  0x43313f1ec28130fU, 0xeb037ff4e2331903U, 0xffe28b1515a8d1c3U, 0x2c3f21f4167f1622U,
  0x306e108e616f6fbU, 0x2233c701fbd0067fU, 0xe57fab1597710ce1U, 0x302f10eb0fac2824U,
  0x1e9637f37fb2125cU, 0xf5c7060cee34e19bU, 0x7fd2059d584a41f5U, 0x2924d1f6d4282efaU,
  0xc47ffc234504e32cU, 0x51d7e7fb0944002cU, 0x7417590721810af7U, 0x94e7e5ed479602ccU,
  0x216a61ce83c196cU, 0xcbb70107d6b40f81U, 0xdb00150d12e52e15U, 0xfc2af9b1f3037fe8U,
  0xde1681eb0dbec717U, 0xfe3414e9e37a0324U, 0x2ad405f42003480cU, 0x7ff8f923d1f21cd1U,
  0x18e608350806ffU, 0xf0e147ffcf7f815U, 0x7f4f2f7f90514feU, 0x7ffbfa04bef002c0U,
  0x801d10d46041881U, 0x18f6faf1f7f308cbU, 0xd73e7f193f02e3caU, 0xe7ffebe826f9ed4cU,
  0xf009e811e1f017e8U, 0x1d8102002a0de922U, 0xde6ccdcc72372bcaU, 0x7f67f7e26514ef8bU,
  0xf1fed1ea0aef12cfU, 0x481ff6525f2423fU, 0xf7faa01ffe03190dU, 0xa5261201dee2177fU,
  0xac91d1e12e1327fU, 0x1b3c0016650bfee3U, 0xf6458135b50db6acU, 0x49321ae417303017U,
  0x9487110e197f0902U, 0x13f6f30ede35f020U, 0xf30927081ffb7f0aU, 0xed0214de0e1a0bf9U,
  0x219d2fea7fa7fe2dU, 0xebd7e60fd25beabcU, 0xfc132000190d1d1aU, 0xf37ffbd7d80af8c7U,
  0xfc0d37fce9f907bbU, 0xb4cd06fd8124f507U, 0xc9e9e6e0dbcb15f1U, 0x2681efb131eb2128U,
  0x81ebfdc4e89821e4U, 0x21b0fcb212b5b40eU, 0xeb13ecd0dcfff7b0U, 0x1aa8e4fef700fe7fU,
  0x1bf6812bd92802f4U, 0x383715fc77cf19f8U, 0x18b22e06f3d80e81U, 0x1c4e29014a0d103aU,
  0xfb427ff20f3f21faU, 0xdf8dd00e6cbf22bU, 0x1df3f7150713e20aU, 0x16ee068108f4b20fU,
  0xec0d5f1044ee11b5U, 0x4326eef5d001fb7fU, 0xf3f103e83bf67ff8U, 0xf8070b86131748e3U,
  0x14e7e6e80e0b33d7U, 0x168113244dd3e628U, 0xde7fd1edde52ef0eU, 0x132004f2f0f41720U,
  0xeff40d813d031cf5U, 0xec2d0f06d5d1e5ecU, 0x6e681dd5adc0b64U, 0x4f29601d228ebadU,
  0xe9da1e812900e30fU, 0xf7ff2cf9efaaedefU, 0x1ad6487281eb1d28U, 0x98cf61552280410U,
  0x1303eb100e10f70aU, 0x1df809811207d017U, 0xe4c7dc3ae735caU, 0x33aa227f55e6d70bU,
  0x22f57f4d3113453dU, 0xd275593ac7224c89U, 0xdd3f7521cc45e781U, 0x1f52080a47c01370U,
  0x1ec67f3b021e3f44U, 0xcf2fe50f23b20e06U, 0xdfe9896a7fe3dbc0U, 0x13f61de00fa71b25U,
  0x16efd8050d0b24dfU, 0x7f13f50795e610deU, 0x21d91f191c0de7fbU, 0xd1bdff0c81e014a4U,
  0xe0f581654aefd2beU, 0x2c0220f206b51f09U, 0x9b8fcc1a3e7f090aU, 0xe0ed410e83f0330U,
  0xe8f21f7f21ecb1e5U, 0x3440af0ced62baaU, 0x42e10fa6192f483bU, 0x3c7fd90e791e22c1U,
  0xe41e2cdd7f0f404dU, 0xfb8f1d06b3e0e4a8U, 0xae9d1f82908fb34U, 0x227f0e1a2ded1dc9U,
  0xa42be10a2fb9da69U, 0x81ee1de8043bd9caU, 0x6d7ffdebff89ff1fU, 0x5020af8edd90909U,
  0x22027830070ef294U, 0xede9fdec81f50700U, 0xfffff50300002514U, 0xfffff2b3fffff27aU,
  0xdd300001b54U, 0x2b580000209cU, 0xfffff8a1000005d4U, 0xfffffea500000430U,
  0x92300000b5aU, 0xc8800000092U, 0x8b7000001b0U, 0xa4e00000d10U,
  0x298000005adU, 0x8fffff813U, 0xfffff6d4fffffd38U, 0xffffff3dfffff9c9U,
  0x42e00000e1dU, 0x35e00002cc2U, 0xb17fffffb50U, 0xfffffb8dfffff790U,
  0xffffed230000094dU, 0x187800000503U, 0xb210000002eU, 0xffffff83000003b4U,
  0xfffff9a900000c25U, 0xfffff66efffffe2fU, 0xfffffe2500000d5dU, 0x127b00000871U,
  0xfffff61700001610U, 0x5500000061aU, 0x213afffff589U, 0x5dafffff762U,
  0x32400001784U, 0xfffff2d70000003cU, 0x5b300000c5fU, 0xfcb00003c77U,
  0x45100000920U, 0xfffff1c9fffffefaU, 0x128f000008cfU, 0xf7cfffff3f4U,
  0x55cffffff0dU, 0xfffff99200001156U, 0xffffe59a00000d20U, 0x24cc00003321U,
  0xfffff975000014a5U, 0xffffff5e000025b9U, 0x26ebfffffad5U, 0xfffff39fffffeebcU,
  0x29f000024e8U, 0x2939000006f8U, 0xa03c44bd494e2cadU, 0xae4ac6dfacb04ed7U,
  0xb44d46cf32adc63fU, 0xa1aa46ac9fb1354aU, 0x58c665384d383db6U, 0x423c5d164ac396c3U,
  0xce4158bec7425393U, 0x664731779c4b5958U, 0x37a2374a8fa9ba3fU, 0x44c64c41b7525f5fU,
  0x405f40c59d3a4162U, 0x5664b4a55327d044U, 0x255055a66661429dU, 0x985aadc9a19b56c3U,
  0x9d605ab74e9c9967U, 0x908162268196505bU, 0x7fae7458665b4e9dU, 0x5c566fa463af81a5U,
  0xb558669da9586688U, 0x5e60547f9865df73U, 0x4e8949659481a659U, 0x5bb35e71a86d7fb5U,
  0x5cdd5bb081cd57d9U, 0x7f5ca011674bb65dU, 0x402a20e2372d25dcU, 0xd22dddedd5d019ebU,
  0xdc242be328d0b02dU, 0xcfb12f3fc3c12525U, 0x47d9432b2d2c22d9U, 0x2923248123d5add8U,
  0xd92c36cad7262fafU, 0x242d203bc92ebd3aU, 0x1cd11531c6cad427U, 0x26e51b35e4344cacU,
  0x27c62dd6cbb337baU, 0x321acc422b1bdf2cU, 0x815c65a761655f95U, 0xa25fa3af929e66a0U,
  0xa0645fb1539aa455U, 0x87185b818b955b65U, 0xe0a26f516655639cU, 0x59516ba560a185a8U,
  0xa76064a6b45d6587U, 0x715d50c89b6e7f69U, 0x60885f5d8118a158U, 0x66a2624da160ef7fU,
  0x597f61a2107f5f7fU, 0xe4538e81654bb051U, 0x267f7f817f7f7f81U, 0xa77f818181817f81U,
  0x817f7f817f81817fU, 0x81337f2a8b817f7fU, 0xdb817f7f7f7f7f81U, 0x7f7f7f987f819781U,
  0x817f7f81817f7f81U, 0x7f7f7fc6817fc77fU, 0x7f817f7f8216817fU, 0x7f817f7f817fd9c0U,
  0x7fd07f8114e57fcaU, 0xea7f81287f7f817fU, 0x5e3f32cd433e46c6U, 0xd23acad5c5c63ccfU,
  0xcf383bc43dc9af39U, 0xb1153c59beb73d32U, 0xe9c2433a444737c8U, 0x424329cc35b891caU,
  0xc0353dc6c33a43a8U, 0x253931f8a63cb63dU, 0x32c62b3cb215bc3eU, 0x3dcc2e35d24beba4U,
  0x36b042be0bb644a3U, 0xfd51c262322fc441U, 0xaa2e2fe02a3240b7U, 0xa333d2d4c7d83cd4U,
  0xdf2e2cdd2cd8ca22U, 0xc13226afc2c6302cU, 0xbed34325332138d3U, 0x32243f9c20d4add5U,
  0xd0372bccd62f3ab1U, 0x2d302bb7c3352c30U, 0x2bce382ac84dcd28U, 0x35d91e1fd92bbe4bU,
  0x243438d1613e3347U, 0xb41bc4b02d27d727U, 0x103d3cc53a4655afU, 0x8140c4c2bbc959ceU,
  0xce4142bd44d2bb36U, 0xa05a3a13b8b74832U, 0xb8c24a364a3c48c4U, 0x524a4cd133bba1c2U,
  0xb84037bdbb3c4fa1U, 0x294235b0ae3ff441U, 0x33c14f37c960b13fU, 0x49c72f2fc54092e7U,
  0x31fc4bc2610c43e2U, 0xa041c6163637be39U, 0x4c1f1bef1e1f28d7U, 0xdc23e3e2dae432ebU,
  0xed1c23dd24e8db16U, 0xd0301c32d5e0261dU, 0xcce21519292a20f0U, 0x332b1d0815dfc2e4U,
  0xd61a1de0e11a29e1U, 0x5201bc4db1ad819U, 0x19e21f1fe025d723U, 0x25e41510f31acbc4U,
  0x15d325dd2aef1fcfU, 0xc734ec370d1cdc1fU, 0x4a60000d4beU, 0xffffffec0000007dU,
  0x66e0000b594U, 0xfffff91dffff95b5U, 0x131300010246U, 0x124a00001723aU,
  0x21a400000c5b3U, 0xa87d00004c3fU, 0x1243900006c3eU, 0x3bb0001e34bU,
  0xffffffa6000147fcU, 0xb9ae000000cdU, 0x15d6fffffc31U, 0x783d00004dbfU,
  0x1e1fffffae3U, 0x5e8a0000002aU, 0x15f00006841U, 0xb4d0ffffff5eU,
  0xffffffe40000167eU, 0xffffff8500016ed5U, 0xb03b0001658eU, 0xffffff2f0000a03fU,
  0xfffffed200005875U, 0xfffffacc000005bcU, 0x7500016279U, 0xfdf10000b623U,
  0x15e0001bd6bU, 0x300cf00000b65U, 0x3fd000004cfU, 0x1457b00000332U,
  0x306e000001e5U, 0x16a000052b3U, 0x940e000004e9U, 0xce81fffffcefU,
  0x2fdd00001934U, 0xee00008883U, 0x8d000002fbU, 0xaf91000013c3U,
  0xa18b000002e3U, 0xae00021358U, 0x50000012fU, 0xfd000083d2U,
  0xffffff950000bb09U, 0x61b5fffffa9bU, 0x18aa5ffffffa1U, 0x1b4ffffffceU,
  0x2a752fffffda5U, 0x47efffec1fbU, 0xf8f5d4e60afbfa1aU, 0xba0804cc06db2eb2U,
  0x460eef01341ef6e5U, 0xf8130eeaebf80ff4U, 0xc7fe62ff6fd85eaU, 0xe412ecfbe3ee1cf1U,
  0xfdc4f2cbe0d6fbf5U, 0xafcf90ded0b1819U, 0x390261541c06ed23U, 0xf3bf139efcfd09fcU,
  0x12fbfce4231b00f2U, 0xafc33f4021be2ffU, 0xa0fe8de100ffefcU, 0xd3cc16f0150ff0e7U,
  0xd92905f3adf5e107U, 0xf8e4e5f5ec08da0bU, 0xe08108118511203U, 0x211ce1f5b7cdc9e7U,
  0xedf8dde9faf9e1c6U, 0xe49935f7e637e7ffU, 0xdaed22dfdb03f0d6U, 0xf7f00007d00dd7fdU,
  0x4110ce5ff1300fbU, 0x13f1ccf7f4fbf54aU, 0x140dd5e90ffbfacfU, 0xfc0df81cfae13a32U,
  0x100907f071c900daU, 0xde04130301f417fbU, 0xff40071dfbf1c5d3U, 0xfcf822e2f2edc97fU,
  0x12fdfbd803d405e8U, 0x1f136313fef52be8U, 0x2dfc07da1ff9e6f4U, 0xf1bf2941d9f00011U,
  0xee17f1f7ff10fb0cU, 0xfc00dc0e2b35eaddU, 0xfc7fff0411f9f5f6U, 0xf5ff120929f413eaU,
  0xfb0d1bf1f719fef5U, 0xf80d08fbf30d02f2U, 0xe14060904f11df5U, 0xfe131b000308080cU,
  0x5f21201071006U, 0x60ae61a07ef0701U, 0x1090ddaf0fbf1f1U, 0xfd15f1e20b08fb07U,
  0xfbfb000803fde7f7U, 0x90515ff010bf6ecU, 0xb107f03161d0900U, 0x1448fdee0b03e6U,
  0x4dfa07fbac1f54e7U, 0x515f21a00fc0523U, 0x21ff025fdc60dffU, 0xf9fa0d19010ffa18U,
  0x17ec02fcf6bcf70fU, 0xed3f1e02d4f21200U, 0x70f2600061618d1U, 0x32e2e25e5eff604U,
  0x3a0600e10205110cU, 0xbcf0916faf1be59U, 0x1e3bcb0008b8d919U, 0xf6642926101ae9c2U,
  0xb381c336fb000a95U, 0xe4f4e4cb20c0dd31U, 0x2e4b4d7de24e66d0U, 0x2cc7b8fd27f4e22eU,
  0xeef7ea0af6e71c0bU, 0xdebc1f1d130be036U, 0x1e03ff3b0e222400U, 0x130bfc32191bdeedU,
  0xd2f22b2ba71c44dcU, 0xdef45eb5fe03a3dU, 0x1bcbe0f7192e1409U, 0x8a518cfedcde619U,
  0xde0a3ef2203e0246U, 0xedf4e70efad9dde3U, 0x9e62e421cf83edfU, 0x2219ce0d81c301d4U,
  0xbdac09162a1822f2U, 0x33dbf309c129004eU, 0xff03dd05f103f1fcU, 0xbd81af2cc091c1eU,
  0xc12afef6040f2925U, 0x16c0f90e39195b36U, 0xfe0cfdfff81600feU, 0x7071602fff208e5U,
  0xffbf00315020505U, 0x110240c0cfe03edU, 0x14fefdf2f204fd10U, 0x10f2f612f4031113U,
  0x60807f1f90909f4U, 0xeff0ff1201f81903U, 0xfefa050b10eb10f9U, 0x30005dcfa0209feU,
  0x803eb07f6810304U, 0xfa1402f80f031410U, 0x419e80a18f4ffd0U, 0xeff3f224092d0c15U,
  0xf2090003f61e2c03U, 0xfcfdfefd020af647U, 0x315071205ef1af3U, 0x16fff9010113fdfaU,
  0xf6cef5c31081f63dU, 0xffedf80235f8ff05U, 0xfb0d11f101faf116U, 0xf70209e6f7020b05U,
  0xfe07b9e807f6fd00U, 0x1fb12fe040118f0U, 0x2e7f67041a1d1123U, 0xff4ab600170ee007U,
  0xd91418e5d6f9f6dcU, 0xfd01fd1efcf2dc0eU, 0x603272b350cd5feU, 0x6f4def40a0dfa12U,
  0xd12827e9c4cc1ffbU, 0xfd12e160be6f904U, 0x10efcf711e10f607U, 0x1360f830efff0226U,
  0xa29f6f3df060929U, 0x100c05100ad01afdU, 0xff1420f93afff220U, 0x12f4f51e2a070ff9U,
  0xeef2cf37e032149dU, 0x9115020808ef0b8aU, 0x75924b5eaae2f98U, 0x9cccdc17e4020977U,
  0x2b14f203f129ca0fU, 0x8faf6f93dba1ac4U, 0xd40bc231cee3e90bU, 0xeaee2fecd2c6fcfbU,
  0x4ce0c5afe4e5f7f5U, 0xcf0c7f0dd53a088cU, 0xf47bece7d03053f9U, 0x21e5450100f4d20cU,
  0xebc7efdefbe51413U, 0x9e853eeffccc6daU, 0xf1fefbd826b6c41bU, 0xbec80e07f0e10503U,
  0xefd2f10c1efdff30U, 0xe81defc1727fcd5U, 0x1fdf2ed181625b5U, 0xe209f426fad6f6f5U,
  0x5bd0f0e41e0455efU, 0xc5f8e4d2fee739b5U, 0xf80f81fc081fd717U, 0x116a02ec05381012U,
  0x2912fd0415c10023U, 0x7f90f13f703fad1U, 0xfbedf10402ee5a13U, 0xe2100002d5050013U,
  0xe5b9082d8e15fdfdU, 0x6df1b020716faf7U, 0xc1062ddc1504ff16U, 0xf8050c08fee6010cU,
  0x32fee7de02fa0509U, 0xfe011cfbdfe3e7f1U, 0x3e369c090dbc020eU, 0x306ff0fcef51f7fU,
  0xaf0e204ebdd13b0U, 0x2dbda6e0312fd20U, 0x8617dafeab1236ebU, 0xd0eb36063fdb3ab8U,
  0x151dbee01ed55610U, 0x2d598be091f2323U, 0x32e451fcedd6e4e7U, 0xd18e3ecfd05c43aU,
  0xf01c23110d00fd6eU, 0xab16295ecc47012dU, 0xfa0100f2eeeac50fU, 0xf0e0bef9131b1007U,
  0x4110fae05b240737U, 0xfffcf9062ef92906U, 0xeaf2e4d5211c4a10U, 0x5c8cff0f0e4e1f4U,
  0xf251f080be617efU, 0xe5f4290118181dfeU, 0xc7d62526e9052181U, 0x1a4cb121bf9fd00U,
  0xdfdf204160f0bffU, 0xed0d140bdf0bc90fU, 0x13190cf90acac70bU, 0x90517ffebf11c1aU,
  0x962c6dd0c6cb0cf2U, 0xebf3e5f52af657dcU, 0xa2236f91fd8ccdfU, 0xf1d90703111c0429U,
  0x81c101e70c0a3b02U, 0x5bffefa02d302f1U, 0x1435f4f705ff04acU, 0x9cefbef93b0ae9f3U,
  0x1319f3e804f60cf2U, 0xffb20fff4efb4e2U, 0x1ef1e9e41ef6eeecU, 0x6f281fadcdb0a1aU,
  0x8838a021b7fd0b10U, 0xf6f91d1d0cd507dbU, 0x25075c3d16dbd1deU, 0x17fc0d03d3190bfaU,
  0x66c81df61827e406U, 0x830f3efe6ebe92aU, 0x27bf00d3040af1beU, 0x4bf2ebde031f0f00U,
  0x53af6e101ec2205U, 0x2fe0190925d89705U, 0x103bce05e1dccd35U, 0x29d67ffeffff0c55U,
  0xf11af50efa13fc35U, 0xf4f13f06c50812f1U, 0xe3b71be6cb05cef3U, 0x86bb804e5f8ea11U,
  0x17c5bcf020e6f8f4U, 0xe92d280e06161a0cU, 0xfb1ea26d08f0ff40U, 0x9d4bf3c3006d728U,
  0xf320f110f607f108U, 0xeff7f80ae728ccf6U, 0x2cd0490634240319U, 0xe0eb24c569efe019U,
  0xe91ccdef4c120212U, 0x5b259f1020c02ffU, 0xd101011c533b28faU, 0xfbc9cffdfcfcf7bcU,
  0xf2ea220627f08106U, 0xd723f3dafb16f807U, 0x14564aeafdf0050cU, 0x9ced1a3ff4e1b218U,
  0xcffecffed1601U, 0xbaf4f7e308e10b40U, 0xfc064bf2e3d3dafdU, 0x23d4d4fbfdc9081aU,
  0x3f1fd30bfb4607e3U, 0xfff47f0f6061feeU, 0xeef4ee2fe5f506ffU, 0xfff72807391cf81dU,
  0xd7bf0c12f10b0401U, 0xe1b31b05ddec1a00U, 0xf9020ec6d807fd7fU, 0xe8ffc74d3f0eff05U,
  0x36083bdbf50fedf9U, 0xfafdf102fd000821U, 0xf70502222d000c1eU, 0x27e4e4d9feb4211fU,
  0x3cf5f5059e2e8102U, 0xa07a0023827f9ecU, 0xf1ebe5740d6dd5e9U, 0x15d2e9d1060a0b1fU,
  0x1592ec032bf2f203U, 0xfa131dec21f00b39U, 0x2107dc0e0cf2eeadU, 0x9371c24f1f5f8ecU,
  0xf70518e4f5e9d7f9U, 0x150e40a2e0528b5U, 0x10f3b03073d12f2U, 0xd5f7fe1f07dd16a5U,
  0xd91edd4d7ddc0922U, 0x21e4d80c1dfff3acU, 0x37dc33e381fb2a38U, 0x571ce0eeec4ef734U,
  0x17e7d9eb0e52450fU, 0xaed43c061cceb82bU, 0xcffb530219baedf2U, 0x2cd922e7fc26eef2U,
  0x3ee89212140ed603U, 0xdc132be53db3d4f0U, 0xdfd0cfcda052d0aU, 0x8e5c0ee180aec09U,
  0xf8b8ff47fdf80de1U, 0x1e281f5e5b6d306U, 0xf90a02dff5160804U, 0xe70fee04fe2c06fdU,
  0x1602a1fc16ffda05U, 0xd48f1fc0b170de8U, 0xf20cf903082adf2eU, 0xf7cb252cf5f4f302U,
  0x3a031ae4f8eb59fdU, 0xfd04d5e8eaeba814U, 0x1bc269e1ef1c0de3U, 0xf6fc3d0bc618e3ddU,
  0xe9140600d80ca503U, 0xff093b1cd6bdfe25U, 0x1b182b0df67f2902U, 0x2a22c7d9fe02d6U,
  0xe7131c0cf9ee1011U, 0xc13e708440bf40aU, 0xf7fa30d7e527192aU, 0x1209fff5f9101311U,
  0x162002f102084511U, 0x3038111206e4c4c1U, 0xd462ffffc00aU, 0xffff9993ffff79d7U,
  0xffffab9affff2f88U, 0x171d000065eeU, 0xffff959500000b50U, 0x3400ffff5156U,
  0x58edffff959dU, 0xcf66ffffd79aU, 0xffffe8880000c2f6U, 0xffffc97fffff8914U,
  0xffffc5faffffecbbU, 0x2c0300002194U, 0x2aee1723ebdbeeb7U, 0x18c8077f29ffcf3aU,
  0xceec176fffd82427U, 0x3fecbec1cdf844f5U, 0x8f801c4fd203eeaU, 0x351f0a9a7f0ccdb4U,
  0xf1e4aa3e09fa9ce4U, 0xec4fa410fcd9eca7U, 0x537fd9c6ae4a1a2fU, 0x283cc596bb05c914U,
  0xaceaa9250c136709U, 0x12819ea7663194dfU, 0x62805130e22e0f8U, 0x82711811d10c514U,
  0x220add175be125fcU, 0x1503e937ed7f42c6U, 0xef249c2602c6201eU, 0x232cf01707452902U,
  0xd05a04184cf6ba81U, 0x17f479dbba2fc4beU, 0x650f3cea65e3c216U, 0xda19ddf5c6dc9fccU,
  0xf914a5ceaafefeeeU, 0x25e9dbdf0e7fccf2U, 0xfd0fd10131dfe8c9U, 0xeef9ea7f20eedce4U,
  0xe20b134c350ec104U, 0xc00f01fd141e4b7fU, 0xc0f9e4fb0cff12f3U, 0x191ca5ee0d1cade8U,
  0xe44bc7e6e3f8a8efU, 0xed0d81db8cf4e705U, 0xd14c704f55dde0aU, 0xfdae1cb6d97608f9U,
  0x59efe45e2461dce0U, 0x33d1081c9280a32U, 0xf63e181fe9d4fd07U, 0xf91f81571e2459faU,
  0x2b3c273c0412400eU, 0xdffcdcdf622efb24U, 0xa79afd28d2f61316U, 0x123a16b00bfd7fe0U,
  0xcff4dde4f472de23U, 0x29c9275d02f0e300U, 0xfdf381f3c48af323U, 0xf82642abd5219703U,
  0x463bece31e12ecc3U, 0x407fcd810db91e2eU, 0xf22038eac179139U, 0x141ad05bbce2fd29U,
  0xf2c3d8e67f46bdf8U, 0xeb24097f02180db4U, 0x1fefa0cecdfe016U, 0x94130ca13c05ef0fU,
  0x7fe9fff3fdbeed08U, 0x25e5ce2422f5e216U, 0xf606020cf41ee506U, 0xd7ad220f859447eU,
  0xfa37ac137f49c5c6U, 0xf3cf726e41df2035U, 0xc3dc0e7d61eb35e9U, 0x2b0854fe420faae2U,
  0xf4ef385981b1582cU, 0x1204fc0dc00db400U, 0x1bcaca32d5f914edU, 0x2381dbf72276bed6U,
  0x2deb3ee4fdedf9feU, 0xf5d57dd0f9fcfe81U, 0xc92e9b3f36f101e5U, 0x4b63430bca81e8c3U,
  0xdf3efb312608e611U, 0x27ce5513e7ff42f8U, 0xbfbf718e5b7deb8U, 0xe112a081f617fbddU,
  0x3edddbd1fe3ad8eeU, 0x8275a34e130af37U, 0xf4ebcd2905e7cf14U, 0x13da8134f3f805eaU,
  0xb2f01bb7f233514U, 0xe62859f930e75cfdU, 0xc61d0cdc018816e1U, 0xbeb7fc5156fa29c3U,
  0x132e152644dba505U, 0xe732da5fcb387f36U, 0x1481e4db99391ed6U, 0x14c1f235dab9fdc7U,
  0xfeedcac6af27da09U, 0x8113152c0ee70d30U, 0xf9ee0c03090bf7c8U, 0xc5fe27dc0420fc08U,
  0x2e7064c1b2a92eeU, 0x1868fee1e9a9d0a4U, 0x310d04ec816c36ffU, 0x2b0d01d8d107ea11U,
  0xfc25812df34010f3U, 0x13d1c7c9452de0d6U, 0xed3a105ef5d9cba5U, 0xbc92bdbec25f132U,
  0x81f9aa9f12a6192bU, 0x2004ffdef558171fU, 0x15d1080b13f3f8edU, 0x1cf581d2eee0eb14U,
  0x1d30f8140c2734d3U, 0xcd3a1081ee3cf7e3U, 0x190fed10310d13e4U, 0xd91adcb00bed4626U,
  0xf32dcbfac219011fU, 0xeceb81e858d0090dU, 0x1bee10dc7206f319U, 0x81f94b1b39ed54fbU,
  0x8ea38b029e654f5U, 0x1432e981b1f7e62dU, 0xf5ebca19defc342fU, 0xf8ddcbd67af2b1f2U,
  0x16d4eaf1a5010136U, 0xef9efd3fc057ff6U, 0xc71a2415cb0b62f0U, 0x44a73f24cd195204U,
  0xef0a397fcfe257b7U, 0x241ff0afca04cfd2U, 0x3ea5ab19d581529fU, 0xb6374f3f2d691ff5U,
  0x112445acfe8d05f0U, 0xd7e6d9e6e3e4a104U, 0x31f7b814c7e7effcU, 0x137f06e50c2feb13U,
  0xfb1518ea2ee8e0b8U, 0xf6ef0c7ff8f5c107U, 0x2d611fbea17db1bU, 0xc6f68c25dfa9e7deU,
  0xe6be4afe07c54cd3U, 0x2f288415ff81ee1bU, 0xdcf313fa0100e781U, 0x627fe06f60d19U,
  0xde1f210a384611fdU, 0x30afe471e14deeeU, 0xf8110f0205cbdce0U, 0xf7fc0b34811d1200U,
  0x1ada060aeb8104d4U, 0x19fe05e7e053dce4U, 0xaf0e31205451df3U, 0x6b047f02f23acacdU,
  0x66fb87d1102a41c3U, 0x574965b0cd582f77U, 0x1df10921f3fbfc38U, 0x14e50a36fd17f3dbU,
  0x813c1ea3f375eb0aU, 0x2d16f01b0d811479U, 0xfe0a9c3eb03f523U, 0x96f7e488cd9ac429U,
  0x161fe4d4c906f2efU, 0x5621c2f8ff092d0fU, 0xe2dce000303481bfU, 0x15bf31df047fcd22U,
  0x20d5712e12bff81dU, 0xc8f31a05df021d22U, 0xff2bdac1ed81b311U, 0xe719cb540c9dc249U,
  0xa8e9dc56c0f42f32U, 0xf309350ad2b32281U, 0xf3fa39070402d70aU, 0xed15e446362f3719U,
  0xf01c150916e40312U, 0x13250c368109f311U, 0xa9a380c2efb0326U, 0xe9f0d9a7651803f8U,
  0xa67ffee60bf276fdU, 0x8a5e101ed6a0aa65U, 0x7104f824ddcb0021U, 0xf604ba81e72ac6fbU,
  0x16fbcbdad5e4f9e9U, 0x1ad9320fe0e35110U, 0xe5257f07bfd711f1U, 0xea28c70d075215c5U,
  0xe4de2cf0ebceeb18U, 0x37e3e47fe1f01602U, 0xdef8e313c8092a2eU, 0xb6da09fe1481f335U,
  0x1ce4ba1826f4c812U, 0xdfda2b37d7d6ff21U, 0xaf9fbebfb007f13U, 0x14d72f0d1417fd2aU,
  0xdf1c0e1442d3e7f8U, 0x13b2fb2254fd5e1bU, 0x35452e2532f9b6faU, 0xf1060d272a815d5eU,
  0xc898f22c3e122c2dU, 0xf11535fc4915f4d9U, 0xb0d2d472006387fU, 0x12e9f06aec93520bU,
  0x82581a2f92a0f11U, 0x2b01fb375a2a4cd7U, 0x4edecf5aff7f07fU, 0x207edcf1dfd69feU,
  0xd11dfb17d7fc49f4U, 0xe8f5e4c0feac0100U, 0x43bd3b7ff1f9dd34U, 0xd9dab102e6d2091aU,
  0xf94cdb14080c10e8U, 0x7f1246f70cfd1bf7U, 0x1112e22e7a4d896U, 0x2de22625fe2338fbU,
  0xf8e4441b1b2f0f04U, 0x3381dad9243f21ebU, 0xfc17f6c57f0df406U, 0xd20ada080ed04c08U,
  0xd00de3e8f11415f8U, 0xf17f280dcfa3a667U, 0x3d223ce0c83f1837U, 0xb0a641c6647c07U,
  0x130f102f098115e7U, 0xd9371b0ef710f2f6U, 0x10fa0a2627f403f6U, 0xf9d0f4ed35f12213U,
  0x9aba5421f6f80513U, 0xa2a7fb241ce600bU, 0xd80ac2a52008f70aU, 0xcae4bb18c9134808U,
  0xd07ff6d80fe8e307U, 0x19de1c19f00e11ddU, 0xf71c24d0f1df047fU, 0x16fafeea01ff07e5U,
  0x17fffae10ae41903U, 0x1e9dd10e4e41281U, 0xd30b17240c46f413U, 0xc77fa2d45bc1bf05U,
  0xd03921daec9d10dU, 0xcc0e8e44c1b829deU, 0x12091df5406dfd81U, 0xed418f918dc0206U,
  0x6841329f24048b25U, 0x3e3f50c08fa0202U, 0xcf7980312fcea02U, 0x6f0b505ee7f1710U,
  0x21ff2b09e17e433U, 0x34092345f9090445U, 0xed030c0d7f2aee2cU, 0xfa2856dfd96b9f73U,
  0x2e8d19514c81d626U, 0x22e6200106f0f4eeU, 0x210208c8bef8501aU, 0x21acf83fff361a49U,
  0xe9ffd5147fc8b5f8U, 0xe04d0d2d340ac739U, 0xfd1ea781272ae738U, 0x2706587f3b40feU,
  0x2c081531ff7f4b84U, 0xdc16281dd9b60cd9U, 0x1119ef155ef6fddfU, 0x3163b83f1f0e3321U,
  0xdc45aa814566e920U, 0x4046e2297402f8beU, 0xead4e84742fe29f1U, 0x460e81fc14faebfdU,
  0xefe6db35a84d1814U, 0xde6d0b36581d9d9U, 0xfd1cf31b0bf31911U, 0x9016dd2e0845011bU,
  0x2024e681a904cd18U, 0xd7f5b923e0fb4c14U, 0x13c4d4a87357a5daU, 0x18e223250fea2f0bU,
  0xfcfceb7feaf332e9U, 0x1ccd0ad1d8b5ddf3U, 0x2506180cf211f7f6U, 0xe8105cf2100a05ecU,
  0x25d8e9f1fc811119U, 0xe0564207b274814eU, 0x30a570322bd0ec06U, 0x8c93f2ae9d820f3U,
  0xe7f0b661ff5d13bU, 0xf15dade40e56ea22U, 0x4b4be0485e1029f6U, 0xe6ddcee2fdb3f2c7U,
  0xd215a2c8013d1bcdU, 0xcbe41003ce7fc714U, 0x624d5a129aaeb7fU, 0xcf9cb06084a02d1U,
  0x6dff1f42bd91d61dU, 0x2522e0471a20ccddU, 0xc520f320f1b4e1d9U, 0xadbe334812c0001U,
  0xeca224f7f0c6cf7U, 0xd7d6470e3d0a9d14U, 0xf0b6f65c9ef7616fU, 0xd4ebd00b9ca1b15bU,
  0xa0681c5e91a539bU, 0x2fffcfbe7bf3b0cU, 0xeed3efdbd70e3096U, 0x15d513b9ef713bebU,
  0xeca0decca97f191cU, 0xb481bbe6df324cf9U, 0x4ab5e314b03ad7ccU, 0xeb0ab2d6da54cf0bU,
  0xe01215f205c6bed9U, 0xe3c3458f257f07fU, 0x3de28b5bda21ccdU, 0xe80c360404eb14f8U,
  0xfaa7077f4200d725U, 0xbdd1c062b4de121aU, 0xfc13e0fe2d091122U, 0xa81c522e3ebe414U,
  0x4c19ffb5241d5dbeU, 0xe0edeeee192c0320U, 0xb7815735b218de25U, 0x2a784abf08ee7df4U,
  0xf2ec11dbdb38fc00U, 0x14cf7f79edb30406U, 0xf414e5e3c3e0e807U, 0xcbdbeec62b1318f6U,
  0x9e5f19eb05055601U, 0xb33d0e13ddd1c27fU, 0x43f909eb0cdaec33U, 0x13f881def8e8e71eU,
  0x110ed5e6f9ccc610U, 0xd330027301f3711U, 0x734c250422ec3cfbU, 0xdc24ffe781c692U,
  0xf0dc0425d3deb981U, 0xff0d16bf2605f209U, 0xd60a334317735102U, 0x5716677f2279cd25U,
  0x9251cddf6e8f777U, 0x321078545ebdcb3cU, 0x91b42b1c428581eaU, 0x152bd3663e483a1dU,
  0xe8064af10dd30deaU, 0x15feeef9217f1dd5U, 0xe308f33bf8f90df9U, 0x192bfbdb030d02ffU,
  0xdbbc028115f11d16U, 0xf111bdef0f19f01dU, 0x71dc127adbee05c5U, 0x2a9ecc12e14a3c01U,
  0x1736176540240b18U, 0x1ae381dc53c21323U, 0x5061d1fcf0cd303U, 0x810648f02c2708e7U,
  0x78f3579743213b25U, 0xfdea2f1a06d6f9f7U, 0x1ad481544901ce46U, 0xbfe7164d15e21807U,
  0xf5ce07def581ecd3U, 0x270012e614261447U, 0xc6e11c100115feefU, 0x11f92f0af8627a45U,
  0x5f37f6d0af2f31eU, 0xd31cff472093ed17U, 0x84bfb0407ff05f0U, 0x5f1845eefdf6fd08U,
  0xf4e52f17f481e4b4U, 0xb9f7e6d1ae0aba2dU, 0xfa0f7469ea393cf1U, 0x1b4130db7fbed44bU,
  0xfb00eea9fa3015daU, 0xf50c0d160ffa2d05U, 0x5c1be47ff70839f2U, 0x25f01efff9446281U,
  0xe12ae705e3a103faU, 0xdb18d6264cf912f5U, 0x23e9f754304093edU, 0x379bbbbc5c3bca7U,
  0x391ba0e781553dfbU, 0x7f0ccfde031d1ab5U, 0x6f5f53f072bf7b6U, 0x1703d3491f2214ffU,
  0x1eea8127d6d4fbd2U, 0xafebd645522725c7U, 0x1a50d8e7b721c6dfU, 0xeb29e4f11009e2c7U,
  0xed6fb24192b1681U, 0xe3f4fe2d2ce12621U, 0xf219347f0f96f307U, 0xe22df9f0d35d302eU,
  0x200b3b505a491ee3U, 0x2b090c270baf7f01U, 0xea0ce7e964e9f109U, 0xfd5e81a0a0035f8U,
  0x25894ffc43cdabd5U, 0xdedf499c94aedc14U, 0x8139545b4809caa8U, 0x2dc07cf1e042d18U,
  0x812d101c26053022U, 0xc7efd20f200ef87fU, 0x7f11f4fd1ddf0900U, 0x2be3eb19f70e06f1U,
  0x1d2018fe043eeb26U, 0xf746121fea991f7fU, 0xeb0413e3d9201f83U, 0xdeeaf2eb1cf8001fU,
  0xf8fa88272662a735U, 0x38ed917f4b4c17f3U, 0xf2e74a2d153ce816U, 0x7622bf50926b700U,
  0x46e4ebefd6d4ea7fU, 0xe9bdaf4aab571515U, 0x5062660e981dbebU, 0xf10463f2e4ea1c25U,
  0x130f2b654d30f30aU, 0x2a1d16c8c30aabc2U, 0xe5b63b91e2b0ffb8U, 0xd0ad4f08d981260cU,
  0xf57feafd1f063dfbU, 0xfb23f58bcdf8e313U, 0x2717b72129fe1613U, 0xea1af82f0a020e22U,
  0x27e00d160fcee794U, 0x81f20007512f0529U, 0xc9ff01f601c002faU, 0xee205abbe7ddf77fU,
  0x22f5e1b3c441f003U, 0x3f0ccc2fe3361374U, 0xde47baf4fa7fc81U, 0x4376e5879b01607U,
  0xf5e8fcde27061637U, 0x81d62415ddfd0a0dU, 0x1a360fc311f4453aU, 0xfdfb0ade03070ff0U,
  0xb94f6cdd070132fbU, 0xd9002a05ff81cc58U, 0xfeb508fcd9c9e2fbU, 0x3358194e6dd02b8U,
  0xe4fd27b0a8272fe3U, 0x72304431a0a25edU, 0x6a3f6eef36deefdeU, 0x8dc2833c68105dfU,
  0xec0fedb67ff4e603U, 0xf52bcc05f2d84611U, 0xb824ecf6f22c1cfcU, 0x1da3d2b6ae4c11d2U,
  0x1dbf177f19c2f8d8U, 0xdfefffb29ac5d111U, 0x6f190000577cU, 0x37df00003994U,
  0x358f00002f43U, 0x2789000037b1U, 0x2cd60000588bU, 0x3d0600002d96U,
  0x155d00001f98U, 0xfd8ffffde3eU, 0x550300004751U, 0x565e00003464U,
  0x2c9a00004a0eU, 0x3d10fffffc9aU, 0xffffcf380000356dU, 0x5e58000025e8U,
  0xe2800003effU, 0xffffea0f000050b9U, 0x3935fffffa5cU, 0xfffff6ee00005e93U,
  0x303700002947U, 0x574d00001fbbU, 0x6477000046a2U, 0xfffff508fffff069U,
  0x29de00002d11U, 0xcd100001323U, 0x763600001c0cU, 0x1beafffff844U,
  0x93400000464fU, 0x105000002e0fU, 0xfffffe7b00007821U, 0x511bffffe4f4U,
  0x3d4400003789U, 0x3f1a00002ef8U, 0x24a800003f9dU, 0xc1a00002477U,
  0xffffee8600002323U, 0x1b3000019e3U, 0xf910000100aU, 0xffffe6a6000040e2U,
  0xffffef3500001441U, 0x8ac900000312U, 0x1cce000062adU, 0x4c5800008afbU,
  0xfffffdeeffffeb46U, 0x2b0c00004a9fU, 0x5da00000197dU, 0xffffeee4000004a5U,
  0x3046ffffe74aU, 0x4bd400004a5aU, 0x2d39fffffc91U, 0x7ded00000918U,
  0x1fb80000155fU, 0x14f600003459U, 0x320d00001659U, 0x6c680001b467U,
  0x27e1fffff0aaU, 0x219000002b0bU, 0x19f6800002be9U, 0x6d0fffffe947U,
  0x2db300000401U, 0xfffffd980000469dU, 0x1fcb00005f59U, 0xffffefa300000939U,
  0x1d7d000041cdU, 0x588ffffe771U, 0x46da0000077aU, 0x2324000006ebU,
  0x266900003942U, 0x137600004f00U, 0x174800002e8aU, 0x13a8000014ceU,
  0x2c8e00008300U, 0x547900001978U, 0xea0cf6163321ff11U, 0xe324d8cce0da14e8U,
  0x24f1f3e2320adb09U, 0x1502041cee030208U, 0x11cfde8f306f8c6U, 0x312007090c1f0c18U,
  0xfb11020d0d231dedU, 0xe1220313ea1107fcU, 0x98ef051414f41806U, 0xf3f3480612dee8feU,
  0xed05d804d0092906U, 0x16f21d82f6e7dfddU, 0xcff41f390a1c26ddU, 0xe029f01d1dff31f3U,
  0xf9fdf6d404fff855U, 0x3a0edef907baeb04U, 0xfffce10c01e71205U, 0xa10e2d9dae001e2U,
  0x8108c47fbf23ca7fU, 0xf1020681fe137f03U, 0xfbc5c68e1901aefdU, 0x33f4f8f5b2e70600U,
  0xef02f3db13f58866U, 0x7f4901031c7fee8bU, 0xe29af5267f2b81bcU, 0x6a602f70a2d09abU,
  0xfcd50ffd7fe9d5fcU, 0xf80f25a80ce681fbU, 0xfee9e80d98f42d7fU, 0x7f057fdfe4de81daU,
  0x14d0d77fe2550b9bU, 0xa17f0c0bf8d37d7fU, 0x28229dec012f1207U, 0xc0c81d119d41cf1U,
  0x4ae6077f8fc4cbe7U, 0x7f7fd916d7b31d0eU, 0xeeeef31a0d22fe0aU, 0xe41624d2230b2414U,
  0xdce1efe224f8e7f9U, 0x180bd6f2ebf3f5faU, 0x722f9e7f2051114U, 0x2705fbeefb14112dU,
  0xdf10050113fced03U, 0x1e09f8f9151c0000U, 0xf6e300f11a2416ffU, 0x14f51e0e0cd5effbU,
  0x1213dffdcb0c190bU, 0x180b18c8f0e5ede9U, 0x1feaf10d171529f3U, 0xfa312116ed000fd7U,
  0xffeaf1ef0004f2f7U, 0xf0fef0408d5b30bU, 0x7f00210edff312f2U, 0x1015e9130408fd0fU,
  0x37227f77f1ae7f7U, 0xda00cade8c8bd9abU, 0x79dac704fb7f727fU, 0x17f8ef7f08eaf07fU,
  0xe71ae6e313fc8533U, 0xe9547f912149df81U, 0xe6b93464032a277fU, 0x87b27f7fcf2c1281U,
  0x11d8047f08cfaf7fU, 0x812120ad10e6d6f1U, 0x86f0e911f3cd15f3U, 0xec8afe7fdde405e0U,
  0x81ef7fce7f7bf8e3U, 0x9ec81007f04d0daU, 0x23c2b2ec0532bd7fU, 0x911fdb7f39468d4U,
  0xc1f581f88eb3817fU, 0xf702c20ae3f60b81U, 0x220c7fe3a2817fb2U, 0x7f7fb933f5059ad9U,
  0xf7f7ff6818430e2U, 0x7f897fecd07f7febU, 0x8181837f7f81077fU, 0xac81dcf57fbc8132U,
  0x7f818181d57f62c8U, 0xf981d7d2a8817f29U, 0x527f7feaec977fd6U, 0x87f81ca817f1b7fU,
  0x1897f7f7f8181afU, 0xd2faddd67f7f207fU, 0xf77fc2c5ad6281d9U, 0xe2f2457fdf7f81beU,
  0x7f7f818181817f94U, 0x818111817fff148bU, 0xaf8109cc05c100baU, 0xa6bf7f7f81ce7f11U,
  0x4812807bc01dbfbU, 0xd8fd7f327f7fd27fU, 0x81cee0f5fbfa5e9eU, 0x147fce93fed5ee91U,
  0xf22aeacd107f8115U, 0xddcfa17f233de484U, 0xd2cf4574fe3351afU, 0x7f7aa7ad7f2613b5U,
  0x1ad101901d7fb9a2U, 0x792311b720e9c2e5U, 0x7f7fe112f5c4d0f5U, 0xf27f0599defaf8eaU,
  0x7d07b8fcce7ffd06U, 0x1bb29fd9b02f1e3U, 0x26acba0d722bbfb9U, 0x1118f5c6f39095ccU,
  0x4ff665f981bd0bf7U, 0xff05bb13f5ce1074U, 0x100bd1f1522402f5U, 0xf909f412dde303ecU,
  0x20f2f9192319d215U, 0x19f4f31717fd020aU, 0x11d1ce50a00040bU, 0xe60914050d3c14f6U,
  0xd708010602050e4dU, 0xe20f2d1bea100c1cU, 0x6f41d16d80d0e25U, 0xeaf8264e0fd8d3f6U,
  0xeefed706180d0b08U, 0xf4f0e71ce0e11aeaU, 0xeaef12ef08002823U, 0x1405ff2518f3faf9U,
  0xedfddff10304fc10U, 0xe02232411f46425U, 0xf9f1e0fbf1061e08U, 0xaf1de0d011f04e2U,
  0x6107be98e601c7ddU, 0xdc00c87cfaf7f20bU, 0x3d0d97febe981f9U, 0x27eb08ff7fe41502U,
  0xdf087fd600f5e04dU, 0xbbf600fe0b31eaa7U, 0xe8affb31a144ce27U, 0xf62efcf10217004eU,
  0x6de130097efccf0U, 0xf71d287f16d4c2e6U, 0xfae6e0201dedeacaU, 0xaade9b3cf8fe66f0U,
  0xd6e305aee76f037fU, 0x7fa5ea0ef7c0d14cU, 0x131db901f41c12eaU, 0x251779951e81277fU,
  0xaeea02b5998167e3U, 0xbca5a113ee7f0502U, 0xfead0e3e91bfafaU, 0xf208101227230107U,
  0xd6faef2819f5d5f3U, 0x182115e922de12f4U, 0x42329e11a0910c7U, 0xe1f2ec040f451501U,
  0xf3090509f22f11eeU, 0x265dd8f610190e4aU, 0x81ef1ddfd52a04efU, 0x1ff2654612cfcff2U,
  0x121fd118250dfe05U, 0xf12be526edde1bdbU, 0x22fae4e814fa222aU, 0x9e4141af2f3edf3U,
  0xf707e8d50d09efdcU, 0x6d02191f02017f2cU, 0xceb19f7f407edeeU, 0xfee4e9badd130423U,
  0x21f5ffffee1eU, 0xc00000167U, 0xfffffea5fffffea2U, 0xffffffbcffffffd6U,
  0x1f8ffffffefU, 0xfffffd99fffffdd7U, 0x1bfffffc51U, 0xfffffd36fffff8d8U,
  0x1b1000000044U, 0x6c6ffffef79U, 0x23a000000094U, 0xfffffe7100003d64U,
  0xfffff9da000000deU, 0xfffff0d300000505U, 0xffffe4c00000003aU, 0xffffdd25fffffe92U,
  0x6e20ffffeb01U, 0xffffe37600000072U, 0xfffffffb00000d6fU, 0x267d0000025bU,
  0x26b30000328dU, 0xfffffbffffffffc7U, 0x61fffffd92U, 0x7fffff577U,
  0xffffe358fffff589U, 0xfffffc41ffffbde4U, 0x3feffffcdd1U, 0x2d300004fdaU,
  0xffffe1b400002713U, 0xfffff10b00000a3aU, 0x7affffff3bU, 0xffffff1c000000caU,
  0x32050000017eU, 0xfffffa44fffffc7dU, 0xffffebc50000031dU, 0xa46900001d76U,
  0x554ffffff049U, 0x366000040a1U, 0x376fffffefcU, 0xffffff8bffffe035U,
  0x6700000162U, 0xfffff9a200005122U, 0x4677ffffdeffU, 0xffffff4affffffdeU,
  0xfffffd0600003440U, 0x39bd0000320dU, 0x176ffffffafU, 0x553ffffff55U,
  0xfffff6a2fffffed7U, 0x1b2ffffd1f0U, 0xda00000394U, 0x4fd00000e49U,
  0x96e00002792U, 0x8cfffff408U, 0xffffe8f5ffffd514U, 0xfffffa7e0000020aU,
  0x1d8ffffffcfU, 0x155fffffffeU, 0x6c55000053c3U, 0xffffe547ffffe06eU,
  0xffffccf100000059U, 0xfffff17800006573U, 0xffffff4b0000638fU, 0xffffec05000005b5U,
  0xfffff7a30000027bU, 0x87ff0000609aU, 0x1d6000000feU, 0xffffdc9100003be3U,
  0xffffd311fffff969U, 0x3890fffffdccU, 0x2f98ffffd941U, 0xfffffe1100000525U,
  0xe2e8dd2bece834ccU, 0x28aeff0bfdff3507U, 0xf20715da0ab30d11U, 0xe0de01e91908da13U,
  0xc1f40022dc0807e5U, 0xf91b08f2e2f1ea1fU, 0xf80ce8060cfe0ae3U, 0xe8f20cffe0d6d92bU,
  0xe1d351f7f7fd0ff1U, 0xfb08f0df2742f3fbU, 0xea0519032572eae1U, 0xec1ee306fcc601e1U,
  0xf51ef90e29ec00f6U, 0xf11307d301fc2de6U, 0x7ff7f11d11201514U, 0x1df701ea040df21cU,
  0xffbaec1a2ffa2d00U, 0x13f502c2010bb108U, 0xe2f5400edba324dcU, 0x273c080c4cec0d19U,
  0x3decf2bc47ec25cdU, 0xfada0337323281f5U, 0xc7f7d4fa0906e0e5U, 0xfecca14da31ba18U,
  0x19db25453cf6090dU, 0x2a1d1df4fd558f12U, 0x155beb18e406d3f9U, 0x1924fcd3be45b62cU,
  0x1bc80cf8e30bf3bdU, 0xd0d9d30aad060331U, 0x13c80f17d09a2bf2U, 0xea0cc91e54e1faeaU,
  0xda02e3fd0ff1c4cbU, 0xfa3504dad82b10d6U, 0x321d1f5440b21d2aU, 0x290912f2dddfbd3dU,
  0xe7ee3df9f5ea2df5U, 0x2dd911ee13e6eee7U, 0x100b0af3332b0ed0U, 0xeb11120afc15f2daU,
  0xb81af41be6333cf5U, 0xb43c8f0a6e6be3aU, 0x108f6f3c226dbebU, 0x1b08fdf22c13e7e4U,
  0xf4f6a9ee0a18070bU, 0x1a37ff0f1320cdf8U, 0xe2f8ef2d2782e4e0U, 0xe6d1d902e8cf00f7U,
  0x202cfe04d5fe2000U, 0xf9f51a39301804ecU, 0xd60e1320263bf904U, 0x1bfefb00d010180eU,
  0x15f7fa4d7fe5e117U, 0xfdf01eafe4f5c90fU, 0xe7150ef2f4e2d808U, 0xf1e3f715ebf10115U,
  0xfb2a952c14faf506U, 0x2df6030ca76dc90aU, 0xfbcd051ee3ef07fbU, 0x110df4ec4039d30eU,
  0x711d9ed05b8f5f1U, 0x701dffffde003ddU, 0x1a10f2dde8faf610U, 0xf606d01fd1121efaU,
  0xef007fbc1e16071dU, 0x2bf711f1f509f4fcU, 0x1fdff1cf0081007U, 0x2fe0ff5fda918bfU,
  0x35fab03aed24cdf6U, 0xd5fbfcf0f3dee30fU, 0x5fc0bfec7f6f805U, 0x25b8e6f5f600f80aU,
  0xe9ff23ecd7fbf1fcU, 0xfcd4e31f0516d8feU, 0xd8ecb8feef0b5730U, 0x4420110ad2c2ebc4U,
  0xc7f3180feb36ce7fU, 0x3b1e03ff16d4df2dU, 0xe1f10fd8ef483cc5U, 0xfb41d23a09a4cf03U,
  0xfde2f4150421e30fU, 0x1a61cb1565e415b2U, 0x319e36432ecf73cU, 0xdfd209e9e3e7fb0aU,
  0xedd7e8f3f4df1e3bU, 0x1701fec9e7f4fcfbU, 0x1da5bde414f42a24U, 0x9eb06dfe5091418U,
  0xcdd4ebdce9e80339U, 0x8352eee21e70a17U, 0xc2621ecd6e1ea08U, 0x24f1ea21150ef721U,
  0x30d108d31efd0beaU, 0xe3df1b2e22e8e2e8U, 0xb0cecfcecd805f6U, 0x291cd31710f70c26U,
  0xda0d2915ebfe1302U, 0x1110ee702f51105U, 0xbeb02120cda1d0aU, 0xce03072402c1fff8U,
  0x28cafaf0fef012f0U, 0xdf0f7fceefae97fU, 0xccfdeef10cfa04e3U, 0xee14f0fa0099f0f0U,
  0x9f5fa3cff07b407U, 0xf8ff081e1eeaf5U, 0xf7ea1a1bf61904fdU, 0x26000ff901ebf411U,
  0x35e20b3936f4ecabU, 0xd9717f807fc2401U, 0x2016cecf8f325e6U, 0x811aeb1dfc496f07U,
  0x26be0e04df0db0f1U, 0xf5220012db4cba07U, 0xffdd3d061f0c19f2U, 0x2827304c07e22cccU,
  0x2a33030b263b06c7U, 0xf9fadb05da37e211U, 0x2f2619c0f8f0f435U, 0xe00f0cd865f80122U,
  0x2dc61217f8a91a04U, 0x46d60e9a33bb2933U, 0x14d7d8b8450bf7f0U, 0xa62d1e291d001507U,
  0xdbde010f66ec230dU, 0x1ffdf4032c17a8e7U, 0xeff317f81bf6cb2cU, 0xfff7d42a0dfb2a25U,
  0x22105f12650370dU, 0xbeb9c3f2fc6fc1eU, 0xf80cfaff0dbaf104U, 0x438080917e3071dU,
  0xe6cdaafdf4f35204U, 0x14f42403d9220561U, 0xc12f921f9a6f63aU, 0xf04809f70b1627ebU,
  0xf6fbf21a3d4130e4U, 0x312eaf0b6e3ed28U, 0xe6432a08fefc1109U, 0xec810bee0522f8e3U,
  0x2bfc0e09c6fb040fU, 0x817f1d7eb31a116U, 0xf9ec13043cbdccf9U, 0x241202210304e513U,
  0xfef70e0b10f4f7ebU, 0x4eefe04fc181807U, 0xf5bbf82805e0e908U, 0xe503f8f9f10cf30eU,
  0x320171104fa0b02U, 0xf7060af0ffe50a03U, 0x6f7ff06e9fcff0aU, 0xfdff05fbe4e5e704U,
  0xfcf3fafc01070e04U, 0xef04120681beffU, 0x517f3d3fedef2f8U, 0xed120f0106edff05U,
  0x2fa050806480904U, 0xf8070afa02260500U, 0xd2eeed080edf0208U, 0x5ef0124cce8e80eU,
  0x1deafff64723e411U, 0xfcf6000ffc0817ebU, 0xe9dd25ef1f0ebe29U, 0xfb281bf0e3f10805U,
  0xf1f7f7e2f30ae604U, 0x3710fd03325cafeeU, 0xbb56232c1ae7c722U, 0x260c000048b2c611U,
  0x4a0e42e9efcceefdU, 0x2ef040021d90c41U, 0x42331eedf00118f9U, 0x2db2817d3f72305U,
  0x7345e94fddc00dfU, 0xf8ef04df3e36f1aeU, 0x281103fd01072a08U, 0x8d70e1b0328fc03U,
  0x506f0f822bef30aU, 0xe812efc316caf9d1U, 0xb0ff1e381d4ff2dU, 0x1d1fc01d3e924ecU,
  0xfdffddff10eb3310U, 0x1f81e8eedf0dfffdU, 0xf10a143c3100ea11U, 0x2b14e7d901c7e0ccU,
  0xd9320510142505d8U, 0xf3f328f8c73cf63cU, 0xdf8f51a1f38dbf1U, 0xdf713fe1de0a31bU,
  0xef3c2bffdd01fa14U, 0x31170e020b4d20e4U, 0x11f0e1e4022e20eU, 0x51325dcecc30218U,
  0x404f1f3100f03c2U, 0xe71dccf3cb0d25U, 0x2ce4d4032017e321U, 0x352befd9e200f7f1U,
  0x140af1f0db1c06f7U, 0xbf3fcbfe9fad7d4U, 0x3e60e0d3a8102U, 0xfef7ebf40c0cf5U,
  0xf821ee01010beee9U, 0x150eeef2e812eafdU, 0xfde7ed0f0e31fbf8U, 0x70606fbca22e901U,
  0x400ecf5f9e6feecU, 0xcf9fb0a030b0adfU, 0x18f312021e025cfbU, 0xeb5d0ef0081122f8U,
  0x6fe020d46f80303U, 0x317070ae8c7f5fdU, 0x636dbf7f4f303fbU, 0xc08fbe6ef3c0145U,
  0x100719ffe408ff20U, 0x5feeaf0f3e40127U, 0xf202ffef2de9f7fbU, 0xde051615f60628f3U,
  0xe8e6fe1617040ed6U, 0xfde500e4f3fadacbU, 0xecf52f1403e7000bU, 0x1e1204dcf404f717U,
  0x81d43225c2f148e8U, 0xfb0c21ef37040117U, 0xfbdf012af5f8fd00U, 0x12e9f50decb0f0a6U,
  0xecd6b1f4f71a2efeU, 0xe605dbe03c1a1c03U, 0xed3511d31cd4110aU, 0xf51c0c02cae4dbceU,
  0xd551008d6dafe03U, 0xd1082310f20df426U, 0xda14ec0019150804U, 0xf720efa3ffd117e8U,
  0xf6a40edbcb05f30cU, 0xcff7e9e90cfe2e14U, 0xf025f4ee0701fc11U, 0x10416fa2524f72dU,
  0x22fefef9fce90328U, 0x1e032e03000630U, 0x8fb05052103ffU, 0xfffb2a0d0302fc04U,
  0xfd07100202070eU, 0x320c222ce305fff6U, 0xfaff26f91bf91cU, 0x37040003fbff0201U,
  0x2719fa05fefdfef6U, 0xf528f505fdfeeefcU, 0x1f011afc1cf2fdfdU, 0xf706ecff2422f5ecU,
  0xf8fe070717098104U, 0xfbfaf0fe05f609fcU, 0x3fe20fa01f9fb0aU, 0xf9f603fefff7fc16U,
  0xeae11adef8161c15U, 0x2c870212fd03f3cdU, 0x1cec1d43d0600ddU, 0xdfc0cff032bfe06U,
  0xe522ccdedf0ce3f6U, 0xf7f5d7e7e71bee00U, 0x5bddfa151284ebfeU, 0x11d9e7001624effcU,
  0x63fb0be9f1fa9e01U, 0x1fc77fd79e250308U, 0xeedbe1171805e600U, 0xf807e0082be90855U,
  0x19f8f9e826130be0U, 0xeb16efb8244a0410U, 0xf10e550c01dd17eaU, 0xd1628ea07e51316U,
  0x28db08fff1f4ee0cU, 0xf2e236ed95eb0ad6U, 0xf703fcf10a092f09U, 0xff0ee9f90014ec0fU,
  0xfd10e90efae2fe03U, 0xb0df702ecff090eU, 0x161b06d5cdf50e01U, 0x8fb12f509df0118U,
  0xebef0bfaf1fdf803U, 0xf10b09ffe5edf2f5U, 0x34f1faf80300fcfeU, 0xfdeae0071cf4edf9U,
  0xf9fff8f2e5fafdfdU, 0x101803fb080ef85aU, 0xfafdfb000bf3fd13U, 0xea050efee80405U,
  0x3f31081fc0be2daU, 0xba02030df738f501U, 0xf3fffd03e4eb0203U, 0xf9fa0efc1fe108faU,
  0x5e41f00104a10dfU, 0x1c39090b16d4202cU, 0xfb31002301ccfd25U, 0xee21ed0ed011e417U,
  0xe1df52004d32017U, 0x35f2fde02ff90112U, 0x6cce0f00f4bc08feU, 0xfb222f15e7d90200U,
  0xe923f906f7ef3e04U, 0xfbf37f23d201f012U, 0xe5190fe5a907ec09U, 0xfdd14e52f202882U,
  0x11f8170bfadb0b16U, 0xf8d119171cf7eae1U, 0x4e0437d21031105U, 0x6817f524f30eee1aU,
  0xf4f40806e3cd091eU, 0x51108089026cfffU, 0xf30611f7f8f32fecU, 0xbe91bf6170fc80dU,
  0x14fbc538fe05fbf4U, 0x81afc23c80e59edU, 0x3065e027f617ebf3U, 0xf3f5f809cfbdfbfbU,
  0xcee13219eff5ee17U, 0xb0beb13e827ff0dU, 0xb20923fd1d1dd7f1U, 0xfe2581e32ceee3feU,
  0x18032a3505d4da0dU, 0xe4fef70be8f702b0U, 0x9df15fee2fcf7faU, 0x9fbe5cc1466e7ebU,
  0xac152142191f2b19U, 0xf11602eb094818fcU, 0xfefa02fa180af508U, 0xfbedddf54f0df6fcU,
  0xd0d9f5d6ecf02015U, 0x703f5d1dbf6d2d1U, 0xeefcfccbe80a0bedU, 0xf8ecf4e5270c16f2U,
  0x10d3f701f5f302fbU, 0xe507ed0af3050be8U, 0xb1d27e7e4020defU, 0xdbe9e1f108f0fc36U,
  0x8fc07f2f4f0ffdcU, 0xe7ecfce00414ef07U, 0xf6f018f1eff0facfU, 0xc1f3b9ff2117cc03U,
  0xf81becd8f62101f1U, 0xede10f10f67fd939U, 0xfaf9e5f7f7fb3a00U, 0xe02d625080dffccU,
  0xf906e8dff73107eeU, 0xcfdb040200e203ddU, 0x3eefeb505c413f6U, 0x26d31726f90ae3dcU,
  0xf433e657fe1649e0U, 0x1bda1ef039de32efU, 0x25e614143f36ca40U, 0xfaf6f1351d001e2eU,
  0xcdebf4092bdff718U, 0xc4f1039a2ed52101U, 0xb2f6e609e9fad822U, 0xfecde240305d32edU,
  0xf00423f52dafbe85U, 0xffd230bf3a8e9ebU, 0xedf626124ee3ec08U, 0xc521f0811612ea19U,
  0xcd13620113fcd938U, 0x2dd2e0eef6303cd7U, 0xc4c209ef0f1d09ecU, 0x1d06d4083510d4faU,
  0xb04f80e13eec7d2U, 0xe7da10f0ef0cf3f0U, 0xb25ce32cbed9afcU, 0xec0beb2af1f5d8f2U,
  0x171624d1cb13e5caU, 0xc3f8f21b29a50ee2U, 0x1c2ff50de2fdb13fU, 0x6cfd902beea46faU,
  0x2be80008fce2ef03U, 0x1fe3ef318161ce8U, 0x1e15faa540afe112U, 0xfc0506052cdcef41U,
  0xff301e7d5df1320U, 0x610f09a1c51eae8U, 0xdb7fd0f730faf1b1U, 0xee2f71e0befffe9U,
  0x24b7f2c538fce508U, 0x150f1ce6cde7c206U, 0xbc1821b42a14be47U, 0xcfa111218d01426U,
  0xfa3c289a4700dce5U, 0x1b133a03260e0cf8U, 0x1038cff027f8df10U, 0x901ea9c47f5fe2dU,
  0xecd5d7fcfd19dd0dU, 0xc2e34e61e1909dcU, 0xe110f8e4cb09f425U, 0xc038fd01f3ff4916U,
  0xca162f1b25070cbdU, 0xebe1b8e894e4a028U, 0xf0660cfbe6fe3af9U, 0xc50305d4e631d781U,
  0x41419e8f314f7f8U, 0xd81bacd8df07e7f9U, 0x1bf412f60dddcb3dU, 0xfdfce071ee0df1bU,
  0xfe090d11c27f50eaU, 0x1feb0b0f0606fefdU, 0x10022c050b080802U, 0xc23ef051212d3f3U,
  0x2f4d7f31bfee501U, 0x2500fd11e90e0ef7U, 0x4f808060f371e03U, 0xf03fff50109f50fU,
  0xe803060fda05150dU, 0xfffd0006e9f7fa3fU, 0xfcf25170c070604U, 0xea0c0d120eec0cceU,
  0xdfa0e140609f9dbU, 0xf902fdf0172d23f8U, 0x1fd18cb10001607U, 0xe3fc02fcfff40313U,
  0xfd080d0b0505f7fcU, 0xbf9e2f1f60404fbU, 0xcf33c0a102822efU, 0x271b180123e81918U,
  0xd2f639e807f88a0dU, 0x1bf3efdd03bb3bf9U, 0xfcbbdd3414fce7aeU, 0x66d40fd11234dd36U,
  0xf0ba3ad50c27af30U, 0xb03330df7bbc326U, 0xce1bef072fe0f0e9U, 0xf73ab83941f2f5dcU,
  0xf7ffe57fdd09e513U, 0xf6f8f8ebd51f11a4U, 0x408f81e05cb1722U, 0x21f41611e221e61bU,
  0x42681af602f80245U, 0xea160406e943fc25U, 0x5714fc2df1e1ff29U, 0x153a0ee5623a17f0U,
  0x1a1c000001f5U, 0xd0900001331U, 0xfffffd2a00005e75U, 0xffffdb50ffff801cU,
  0xffffb9e600002c84U, 0xffffe4e8ffffeb8dU, 0xffffde7f00005503U, 0xffffe58fffffe743U,
  0x168cffff979bU, 0x4cee000017d8U, 0x619b000016bcU, 0x1d9affffc70dU,
  0xd627fd04bc46e513U, 0xcedf2100810ffd06U, 0xef3a2230ca23d60fU, 0xfed1b805bc0be521U,
  0xe032e1cd0d233c7fU, 0xe3e448d7afdb43ccU, 0xe72dfc7ffaf50b09U, 0x6e9fdfa04fdf205U,
  0x8205168f10f8f71eU, 0xd0aef5f7e0cbe53bU, 0x1dde28cc25b4c433U, 0xa8aa2c373e7ff2caU,
  0xf3fd12211fce1b7fU, 0xf409f0c307bb0a3fU, 0x2fec0aecfb29ea1bU, 0xf3fdf8440f07b300U,
  0x64afef8eff1dacaU, 0x497f10e6caf43f34U, 0xf7fded23f214c10cU, 0xef3f0bec01f6eeccU,
  0x3d7f1ad2dce5372eU, 0x446aae5f87f0a0eU, 0xc82830c7203c0edbU, 0xcc3fbdd8de00d4U,
  0xfce08183eb40c3deU, 0x388a01d838169d2dU, 0x990cc906a5fb0f23U, 0x11e4e9ff02bff509U,
  0xd1b1b0a6239fcf4U, 0x26c581df3de22f1fU, 0x11ce2181161eeb0aU, 0x2217f7f4ed1eef29U,
  0xf1fc0a15c11dc1d7U, 0xf8c9f605ff271f15U, 0x81c4fb13e126de12U, 0xeaf811140e0a334dU,
  0x7f72001c1b483061U, 0xde802fc431222bbU, 0x29f74bfd1d83e4c6U, 0xced9130e048125a6U,
  0xe4c7f60df638e60bU, 0xf3e51c0416251b15U, 0x52cf41df77f1db3U, 0xfbf6082d22f71516U,
  0x2bef340924f1111cU, 0x246534bcece9f5edU, 0xea3706e41f7f1a24U, 0xe10de6ca83051de3U,
  0xcc0003b9f8dde5U, 0xf6fdf77f584815aeU, 0x70f23d4e913f2f9U, 0xfd21f639eeebdf21U,
  0x1a0c047ffd240c15U, 0x18f911340816fd2bU, 0x9c4e264e6aa0ed5U, 0x1fa0c0b487808bdU,
  0x7fdb16a361cb0be5U, 0x10ff4902e1c33d38U, 0x40c4096407f90a57U, 0x81cc16fa3c37f125U,
  0xdccc2412d2f5fea0U, 0x626fbfbeeecf17fU, 0xfd0eeae8fefd16d7U, 0x8132e620ff1105b3U,
  0xd907ff0aebf1de08U, 0x23ef00fa1ffde907U, 0xdfa7d900228de27fU, 0xee20589d1ae5e4f9U,
  0x411dee99e30fa3e4U, 0x3f860200e7888102U, 0x3c3012b1d15a2501U, 0x23fff188b65aeff0U,
  0xf2f9ec33080ec302U, 0xf244f9dc03f8e4c3U, 0x397f17e1d3d62c1eU, 0xe92bf2010d27092fU,
  0xf9133b20eedb0681U, 0xa31e80f2d051805U, 0x34cc150bb1f9e6b5U, 0xb380581edc9cc92U,
  0x440806c097fd3612U, 0x401ee8af9e5302aU, 0xf7f3e6e006244af5U, 0x2dc93131db81f0beU,
  0x1c72f34c1be0151cU, 0xd43000814c41c217U, 0x20122c546d0c32e6U, 0xf6bbec09feeb220bU,
  0xb981fd34e809c30eU, 0x3cdd14d211f955e2U, 0xb32134305351cd87U, 0xd7e9f1f5ffc0a315U,
  0x5b0be20b5e188109U, 0x162e030e1e7f28a5U, 0xf40c1f3804f107e3U, 0xfa20cb1438e71713U,
  0xf517ff13f027f581U, 0xf707181b1cfd0ffbU, 0xf0050cfe1d192900U, 0xea24ed0f0dff0ee6U,
  0x7f0b08fdfdec04fdU, 0xfc23070ad8fff3bdU, 0x4b08f42d1f7038e4U, 0xd120fb4de5021e81U,
  0x220712fb20a8eadbU, 0xe83ae2b907f72721U, 0x2adfffefaffdf224U, 0xf47f1bf24ff11bd3U,
  0x23cfe071a0d01daU, 0x7f2c03e820002fffU, 0xf00df817d9f4d4b9U, 0xf2daff2b81deeef2U,
  0xf70903f5e210be05U, 0xe9f40b51eeffb93bU, 0xaff7e8d5f2b6cc81U, 0xdd18eaa9da260fccU,
  0xc0f5ab7f22ff9faU, 0x7ff2faf427d9fd0bU, 0x7fa0109f00af40aU, 0x20bf4fc000ee504U,
  0xf6a6d41d2597f34bU, 0xf0819df94c24d54eU, 0xd41009c12bb539U, 0xc5182cf91d33422dU,
  0xc221006177f20edU, 0x2427ceba120406e4U, 0xb4982be00d81f5aeU, 0xf6eca4022129f549U,
  0xb16191af45defedU, 0x4c2167f46aa4cd3U, 0x3cf4fee50734ac1aU, 0xfde61665bc2d7035U,
  0x81872afbf0280be1U, 0x1fb10177d6f675e5U, 0xf4b7c5b8a706bb08U, 0x1dc6d11490fee217U,
  0xfcede4982efa3a39U, 0xc3054b3bfe8154f2U, 0x333fe420241dfe00U, 0xea2f04b67f1e0cf9U,
  0x3e20ffda2fd0f0d4U, 0xede84b98a7fffc06U, 0x6addfcdc49478108U, 0xe93e1b0a660f4078U,
  0x50e9f9c027ba0f7fU, 0xfd23560fd2dfa0c8U, 0xd011be3ef7d0d8dfU, 0xee92eabbde2a01ddU,
  0x2ac4017fdfc832e3U, 0xe2dfcfa89608ce18U, 0xe9fe12b416e7d5eaU, 0xee088a91c008d8e9U,
  0x2a17ca81f705e5e5U, 0x135aecf00217efecU, 0xc70c0b9ac17f0c35U, 0xcd5fcf1c9e7d2f4U,
  0xd0f41d0ffc7f1db1U, 0xf3eaf4bdef02f1f4U, 0x1107fbe0d7f3f2fcU, 0x3814251318ff22e4U,
  0x68590de658d409f2U, 0x981c008e311f6eeU, 0xf34338a9dd05147fU, 0x243b037acfdbdb26U,
  0xe6cfec10620af40bU, 0xa7c207fc0af6ea6cU, 0x160aebf7df10bc7fU, 0xe8de10c4b31ce2f7U,
  0xfbf210febff4c77fU, 0xf0af100fc091bfbU, 0xe5050403ea2025e4U, 0xe70217ba17ce1d7fU,
  0xdf001112d3f5efb4U, 0x6f19f16ded0cc8bbU, 0x4ecfe412c925037fU, 0xef0bf7b8f7d64f01U,
  0xf71212faa1d14505U, 0xc9c50716ca29ef1eU, 0x81f118f6d419d902U, 0x2e2708e4f91f3278U,
  0xc18df41d916f902U, 0xc7b306fcfa7f4c08U, 0xffe1173ffef1bbf6U, 0x20ff15fc4359147fU,
  0xebfa10f5cbf106d5U, 0x14cc47dbf71ed220U, 0x261f1403210b7f12U, 0xded1ebff28533a28U,
  0xfc84cffb71ea9aa2U, 0xf202ff502b0814eeU, 0x5327f8fae6eddae2U, 0xe2681948810d0ce5U,
  0xf230dbe57f16131dU, 0x37def022ede92f17U, 0xe73b03defaed398cU, 0xf80a0530230f09fbU,
  0x43ea40edd4812540U, 0x63d040f22db5f85dU, 0x3cf008de0d12d90eU, 0x81ee091a16fef808U,
  0x5d0efdd120b3734U, 0x7f41fb3907f32e14U, 0x14d3dae9111638ccU, 0xd51146cb09b4f814U,
  0x6ae9021f08ddfd2eU, 0xe9051ec7f7f6d27fU, 0xbff90cd6e216e2faU, 0x8b1b6b546cb638abU,
  0x15ce0748b5e1814aU, 0x50ee0c2d54139f48U, 0x10a71c0da1bad8f6U, 0x12ec0213effb7fd0U,
  0xc02b2f33dbfd510cU, 0xd232fb7f0bf5d5fcU, 0x1ee4fc25120d31b9U, 0xb2ff3caa4a23fc48U,
  0xfb67fb4be62e2f8cU, 0xf21ef914e229c5U, 0x8111f5ea50b2350eU, 0x3eb064481ece0f4U,
  0xede2130a001aafe3U, 0x4adb10090410f31dU, 0xdb4d74d3247317f9U, 0x1f0df0af0e7ffa11U,
  0xceff4ccd1353621U, 0xfdd00a7f3076e07eU, 0xeb090070c16f3865U, 0xf8d1855a60cd662fU,
  0x632ed1e4f71203eeU, 0xcc3e03e957c336e7U, 0x4081109c3db71aebU, 0xfaece423ee137fU,
  0x17dd0ee01a12cbbeU, 0x1f8eff7fb0cd511U, 0x924ff41e1f60d05U, 0xa1a3916f0dbe41dU,
  0x81f7b4af0a0b1307U, 0x81db12b0fc26faceU, 0x1e8f115f333299aU, 0x23fe03671cfd26edU,
  0xdb0c06539ef4da11U, 0x4581ea46d150bbf3U, 0x561b2e091c0f14c8U, 0x8ad1afedaefecc3U,
  0xfff1eee4f94ae4e7U, 0x85e021cbee7f0127U, 0x25fa0aea37ed041eU, 0xe481f836d6e9d730U,
  0x932ffef350b7ee0U, 0x121cf967fcdc2c62U, 0xfdfc09d822f5d832U, 0xb9f2e581fd06e717U,
  0x539df34e4331b5deU, 0xc06b1dc7a798c597U, 0x185deefc81f62b25U, 0x62bf07ff4273c3bU,
  0xfffc050d08eddca6U, 0x95ef09b24eeffb0cU, 0x2f0ce4e8f4ab117fU, 0x2b2bb5ffae04c6c0U,
  0xcad815f50f99c0deU, 0x7fdffd38d82a45c3U, 0xeb481938e9142b2cU, 0xf1e6380d0bd135daU,
  0xd41aee04e922fbcdU, 0x290a2f7fc30fd1f6U, 0xd1c81126f3d01d26U, 0x4b39e0ea2a0b0c0bU,
  0xa8381e810e562fddU, 0x1b06dac332dcefd2U, 0x986a7fe9ec2e1bdfU, 0x32cd01dad85c37feU,
  0x18facaf5ca232d4bU, 0x36eede18c8eb233eU, 0x1328072e307fd8c6U, 0xb98b2eaea28cbd8U,
  0xef0fce3ad20934e3U, 0x7ff608fbe319e4ffU, 0xf034274fe702bbd1U, 0xefacfd451e16c7a4U,
  0x812629d3ae0dabe3U, 0x202605fea96c757aU, 0xd15dc046504d481U, 0xed100b2b45538cf4U,
  0xc2232f73724a1e6U, 0xe8d307e2d9dfd5b1U, 0xf0d0ccef7fce97fU, 0xed0617e3ee312102U,
  0xb9ddfe21a0aef7f2U, 0x1718dd810c594020U, 0xbfdb453fddcc7cd4U, 0x28dcf7020aeb0831U,
  0xee0202db09def37fU, 0x150d16fddf00d6f2U, 0xedeaf6e5e1c2127fU, 0xcdd09cf2a201dadU,
  0xeae6eef0cf0c0e06U, 0xfdf2d4ac6c3f3609U, 0xfc7f00d835f37b09U, 0x8a0ccd29e3e2876fU,
  0x17d80df43b6e2e6cU, 0x2943e9480f3981c6U, 0x165a03da33e8f228U, 0x2e5116e5efdb7fffU,
  0xfe28fb001b8efe17U, 0x32fffad8e4e2180dU, 0xfb0811a640161c2dU, 0xdec0c1c076e0481U,
  0x3fb080ee5f1060eU, 0xe31de60af3def8e6U, 0x7f19f604fcf101f6U, 0xef2c2311d203cdcaU,
  0x17f905c6fe07f112U, 0x81e70a012308fc01U, 0xfe93efeb3016174dU, 0x2127f9a52db405bbU,
  0x9b844a4c5a181d5U, 0x2adde6cec2f1cf2bU, 0x559e9c72cd82728U, 0x9bcfeb7fb55aed2fU,
  0xd1470525c20f4352U, 0xd16bf1bda872f83cU, 0xd9372ce0d4a0e77fU, 0x111bba063bdfd80dU,
  0xcb2d235beaf119f8U, 0xf9db1922e4e019afU, 0x81f2e8d81a0125feU, 0xe9fd382c290ff626U,
  0xf5c9f1650affae38U, 0xbf08eb7fc8f3f726U, 0xc9ff03a558f50100U, 0xe95eebf904fb3625U,
  0x810b1d360212d855U, 0xfabafdf0d4bc0381U, 0x8e31cef174c47e5U, 0xa632423535436f05U,
  0xc51688f04e81a29dU, 0x39cb101116204326U, 0xebefa321eacf1812U, 0x2e5510572ce6f935U,
  0xd639f3dd3e7fd615U, 0x122c375959142fdcU, 0xddded3eb34eac188U, 0xe126c3811125c3e1U,
  0x90741d2025cdde3U, 0xf307084135ccfcbaU, 0x7f661fd307d0ddceU, 0x1f39dfeca51f2bc8U,
  0x32713ee26000319U, 0x19e8081a045af981U, 0xc0f80acf04f2f818U, 0xfc15fcf10504fbf3U,
  0xc0d7f0bff03030dU, 0x801d7f606e71501U, 0x13eee75d81fefcf0U, 0xd0d501032d2fddd7U,
  0x71c3fde31bfce40aU, 0x9fdf3f1b12b3237U, 0x2a7ff11ef223a3f0U, 0x1fea00d546122517U,
  0xec21a0cd1a9f661U, 0x29fde7c0fe7f5cbdU, 0xc3f8370eb9e263edU, 0xeec9d77fa7d628efU,
  0xce6efd5d251cad3U, 0x2c4af735b4f0c117U, 0x824f0794425d0d3U, 0xedf8ea811f17daecU,
  0x52bf5ba4fe1e9f3U, 0x4c140a0d097f3ecfU, 0xf7151b200c033bc5U, 0xf22ad14025b52c01U,
  0xf1de043ef10dcdf6U, 0xa25110500d5e8b7U, 0x2e7f12fea2d11f41U, 0x81f400f2e49b0724U,
  0xe82605bc04fee209U, 0xe60dd7fdee240eecU, 0x25fd282cfbfd050aU, 0xaa6010b060cccf8U,
  0x6ea1e0a02bfd7facU, 0xac7e10467065fcaU, 0x61507e5f2cfaa7fU, 0x1d060eca12cd9e0dU,
  0x3c47cfa70e7f0620U, 0xcd361de4082237f0U, 0xa8d079acecbf6f2U, 0x71bec80664b37fc2U,
  0x981d2c7be4fd5bbeU, 0x29d80d8fdad02b0dU, 0x1d28edec363e5a7fU, 0xcd2903f3dcf3b813U,
  0xffe610f7eee3e4ecU, 0x266ceda3ae1fa710U, 0xc5f30313a00e4c16U, 0xeec916d81d0b81b9U,
  0x4b24e8c1ace03612U, 0x1b11c544170751c1U, 0xcbeaf201caf37f10U, 0xc3da41c8e38cc5efU,
  0xcf2d706b3addd1fU, 0xb4eca532f57fedf0U, 0x18be112b390512f7U, 0x81160cf214fbe4f8U,
  0xe1f00abb144d66U, 0xfb7fd7cdc725e612U, 0xf0e5e3e2b229510eU, 0xd609300d080e9498U,
  0xc7280df91c15c81fU, 0xe6318124f72bc4b9U, 0x5c128ffb28ffa32cU, 0x240911e112fd060bU,
  0xd9fdfc0230061c0aU, 0xe81efd535f50e06U, 0xbe1dc4c6fe4f4481U, 0xcf51237335317aaU,
  0x5aff207111d82907U, 0xdcee22ffddd0f001U, 0x23e4ea7fe0def2f2U, 0xdf07fe20c319fd00U,
  0xe1fc010c6d0ed8a3U, 0xe6e8173b0015ab0aU, 0x37fcfcd52511810aU, 0x1d4dccfdf2241721U,
  0xd45f3a1881db01e1U, 0xfccccf0cfce812c5U, 0xdc06873b06dd2815U, 0xfa81f44c8f33e105U,
  0x22503b2a22e93ff0U, 0xce04edcfd8dd160cU, 0xe925fb14c4ef2205U, 0xcc7f1f1f0108b817U,
  0x318afffff576U, 0x57570000241bU, 0x40a800001c65U, 0x40790000289fU,
  0x792ffffe509U, 0x1fa100002bd9U, 0x483c000025f1U, 0x299d000024d5U,
  0xfffffc3bffffffdfU, 0x5b7300002703U, 0x24af00002ce3U, 0x3ccb00013c33U,
  0x298600003cf3U, 0x61f300004607U, 0x1e03000040f6U, 0x5cc1000027f0U,
  0x20b9000038f4U, 0xfffff29800003360U, 0x29560000223bU, 0xa7100002914U,
  0xffffee3000001dd7U, 0x30830000d72cU, 0x6fb8000023f1U, 0xfffffa8e00003b01U,
  0xec300000fb1U, 0xffffd491fffffc10U, 0xfffff96d0000091dU, 0x3e9300004261U,
  0x124a000010b1U, 0x224000003c85U, 0x39f700002da2U, 0xffffd93500004884U,
  0x12470000136bU, 0x466cffffffebU, 0x5b79fffffdadU, 0xfffff13000000b70U,
  0x260a0000476fU, 0x1cd300000987U, 0xfffffcc300003765U, 0xfffffccbffffffbcU,
  0x27ea00000b3dU, 0x4602fffff92bU, 0xd0e000027caU, 0x96400002c03U,
  0x44ce00001218U, 0xfffff4f4fffff61dU, 0x125f00002c8dU, 0x458f00003503U,
  0x92200005b10U, 0x22c700000494U, 0x149000003b71U, 0x195b00002603U,
  0x27a900003598U, 0x487efffffb85U, 0x7ef000000801U, 0x656ffffe7d8U,
  0x576fffffa9eU, 0x25fa00005dcdU, 0x21b20000227aU, 0x34800001433U,
  0x371600005053U, 0x505f0000390cU, 0x33be000025a2U, 0x5b9fffff6f2U,
  0x310c00002c70U, 0x375b00000d87U, 0x106fdfffffb67U, 0xffffeb5afffff1d3U,
  0x14450000141dU, 0xaf82fffffb81U, 0x18300002aa1U, 0xb8900000692U,
  0xc2224f3153fc506U, 0x2c1eeffc2bff1405U, 0x4e817fe0ad9e945U, 0xe5d6991cee090110U,
  0xe80c0ce906f42742U, 0xeed6d71200b9c30cU, 0xed2d0d1420011bfaU, 0x1ef904336807e70bU,
  0x78e5e1d47f0e3ae4U, 0x3680626cbc81ad8U, 0x8c1399f1fe10fceeU, 0xdf4fc262a33fe18U,
  0xf845b1fcc937efecU, 0x16220af50004d4f9U, 0xb3f305d3f7fc811aU, 0xc323fcec162402ebU,
  0x2c27fb2afdfed80cU, 0xc719fe17220a2638U, 0xeb7fe31a7f7f2508U, 0x7fcb48fb7f9c061fU,
  0xe2501af9ba9937fU, 0xe1bccefb0efc02f6U, 0xf7f042f0d0203b4U, 0xd2c792737fe4a110U,
  0x107f1c7f180cf964U, 0xfcd09ee25c9c0f7U, 0xf7d4e9054f397196U, 0x8111fd7fdcbc2e1aU,
  0x9ff8d52ad7197fdcU, 0x7ff57f7f307fed7fU, 0x14eda0c7907fe3c6U, 0x264df881ed0b81deU,
  0x95eee7f262bed717U, 0xc82d26f6f172d3faU, 0x221630fbcd8ae3e5U, 0xa121397f81cfe2d0U,
  0x67f12f71122d2f5U, 0x29150afc1c340e0dU, 0xefd9d9f90fd5f629U, 0x1fde21f37fcdf7f0U,
  0xb120c1dfb01eac0U, 0xec51e70cff60db0bU, 0x6271b171b00b421U, 0x16ee09daf202f512U,
  0x81e0d9bae8264ef3U, 0xe594071dc4c90a0dU, 0x86d600ebecfb4fe4U, 0x7ed2e1e1933f71cU,
  0xbd5a4f5ee1500efU, 0x142b02f9fa02c403U, 0xbe2302414004811aU, 0xd504d4eaf00dfe10U,
  0x310efb3404fdeb0fU, 0xb50c00111bead855U, 0x7fd2f0d0fff1341dU, 0xf86ed2e2ed81092cU,
  0x7fdf7f085d13c236U, 0x11f0815b0b14a87fU, 0x83027f9309cc7f0cU, 0xea91a715fbf98136U,
  0xe1ec150f1a9419a6U, 0x11ef0e7f61d9a4b0U, 0x3ae1e57fa11c6ef1U, 0xe0e614f3f0cc2a81U,
  0xa463a130b50cb8b2U, 0x6dec8f92c68ecedU, 0x25fdb0e7fe1b94f1U, 0xf36df01ce90e21eaU,
  0xb5bb90eed2709b0fU, 0xe43a05fa722ad1c1U, 0x1c1e0843d009decdU, 0x812333f58f7f7f30U,
  0xa982817f9ed17f7fU, 0x1581bdad07187f7fU, 0x827fa7d1c7e18724U, 0xa17f1a81c37fcdb5U,
  0x7fd986eb7f7fc3cdU, 0x7feb811eb87ff181U, 0xa4fe7fed7f7f7fedU, 0x81aa5be681b9cc7fU,
  0xa97f7f6596817fe0U, 0xb97a7fc8817f8177U, 0x9206db7fb77f987fU, 0x977f94ee7f7d950cU,
  0x817fd0bbfe047f7fU, 0x817fa1137f7ffc81U, 0x8ccbfe7f8187507fU, 0xdb7f7f7f81f0cec6U,
  0x8181817fa96681b2U, 0xfd7f7fd066dbe181U, 0xd9f50eac05ed3d18U, 0xfb0a7ff50e6d0e35U,
  0x6c11c0e99efb40fU, 0x7ff159f09bff7fd6U, 0xe7ffdf7f04b49fc2U, 0xe57fc605fcd1992eU,
  0x7ff00d121a92b3a1U, 0x8f9099fd1de7fa9U, 0x21e9ec92051854dbU, 0x3bee0cff0eb6def4U,
  0xc581bd2dcf0c63cbU, 0x11eabf06246fedefU, 0x24f1b2e8df153b0cU, 0xea6afb9dd61303ddU,
  0xb67f81f81d7fc21aU, 0xde5b87ea2081cf7fU, 0x1d19043ac60de57fU, 0x8f3627ff8edd9b3aU,
  0xfee62be7f3d5c615U, 0xcc06fa13dafd1724U, 0x16de2a032829e2b9U, 0xf7c90b0b08c7fd3fU,
  0xebf21ed7091620a6U, 0xefd7f5df0948b90dU, 0x5e426dc35df1109U, 0x1514f52d1e20000eU,
  0xace2e61ae929511eU, 0xf78108ecd3e51b12U, 0xb42e0edf6bff34d1U, 0xf5e9fedf065f19d5U,
  0x16c4b0201fc5fbe5U, 0x1b5e0727ecf620efU, 0x81f4fc4908fc860eU, 0x8114fae73d0b1cf1U,
  0x1e1006163601d5f9U, 0xc01704f527103426U, 0xe9b7011901a32c48U, 0x81e6bd7f8730133eU,
  0xed24fd7f7f7f8188U, 0xd6b93ff1f11001fbU, 0x17be04be21b7efa1U, 0xe4f1b181cdea94dbU,
  0xfc840d9528070e7fU, 0x137f81f3f07f3002U, 0xf0f6fe16fcfc6d7fU, 0x51eb0aa7e7a4d3fcU,
  0x81fda8207f21c7baU, 0xfffd2f8a1d4e7fbbU, 0xf5817f7f8303d9U, 0x16567f5eec2178dcU,
  0x9ecbf6efe093b11dU, 0xdd5e00eccfbc7fe3U, 0xd7283e097f81d7ddU, 0x993e0e9ba34422dbU,
  0x5f933edf2f1d115U, 0xd0020701e7212228U, 0xfae9e7010111ecbaU, 0x17c854f7120d09c6U,
  0x1edeafd021ee27fU, 0xee42ffdf02c8a10bU, 0xbea1ddb1dd8dce6U, 0x2d2bf4d4cd1e5a07U,
  0x5be0ed030b26391bU, 0x5b620feacce60310U, 0xc3df81041d21f7aeU, 0xf2e50cdc106110e8U,
  0xd4eae201ac901e9U, 0x1e55fdf6f1171ff3U, 0x821701c611079e0cU, 0x9d3903e3e9e7222fU,
  0x1e42102223ffc20aU, 0xb92f01f51aadc72fU, 0xffffd70cffffe2e2U, 0xffffef650000026dU,
  0x690fffff9dcU, 0x12000001a8U, 0xffffd179fffff20eU, 0xfffff646fffff485U,
  0xfffffa34ffffef79U, 0xfffffcc2fffff3c7U, 0x6208ffffea31U, 0xfffff6f0fffffee0U,
  0x391fffff9f7U, 0xffffff0dffffe88aU, 0xfffffedfffffff38U, 0x5cfffffe4c7U,
  0xfffff42ffffffc51U, 0xab100003a32U, 0x336000036f2U, 0xffffed450000018cU,
  0xfffff7d700000cbaU, 0x556fffffa94U, 0x5f98000000c3U, 0x24bffffe3b1U,
  0x9174ffffef10U, 0x40f6ffffff84U, 0xffffe00a000029b3U, 0xfffffae4000071c8U,
  0xffffee41fffffd5aU, 0xffffeea1fffffdaaU, 0xffffe8ac00003601U, 0xffffea270000011bU,
  0xfffff114ffffffbcU, 0x341fffffe13U, 0xffff9f24000001c4U, 0xb87000042cbU,
  0x2bdcfffff7baU, 0x527600004c2fU, 0x3aafffff454U, 0x5f4900000034U,
  0xffffe03e000003d8U, 0xfffffb02000032e1U, 0xffffc539000048b9U, 0x3c4ffffc1fbU,
  0x2f36ffffd137U, 0x7dca00000432U, 0x4900000008cU, 0xffffde8affffdf7aU,
  0xfffffdc500000019U, 0xfffff13b000021b2U, 0xfffffa3200002598U, 0x1ddfffff872U,
  0x5f0effffffe0U, 0xffffff86ffffcf91U, 0xf60000363dU, 0xfffffc19ffffd791U,
  0xfffffc64000000fdU, 0xfffffd56ffffe0a6U, 0x44c5ffffe6a2U, 0xde0000117dU,
  0x4a9dffffd2b6U, 0x387800000002U, 0xfffffe5a00000043U, 0x9c9fffffc46U,
  0xffffee9d00000e05U, 0x3f1dffffe79aU, 0x4600ffffff37U, 0x2eeffffffaeU,
  0x788ffffcb72U, 0xc00001bebU, 0xfffffdee00004b7dU, 0x4873fffff350U,
  0xffffdf2f0000032fU, 0xbde9ffffb668U, 0x1508ff0ecd130708U, 0xafb191413f2ead5U,
  0xec182a1df315e90fU, 0xe7b8ef01f6ef15feU, 0xeb2d07f40401f8ebU, 0x705200a0603fcf5U,
  0xdae80404fcf20300U, 0x10f618fefe16f533U, 0x841e4f7e4f10b07U, 0xf700f0f9f60804ddU,
  0xbe5fcfc13ef0dffU, 0x481010f0ffb0d17U, 0x708f5010bf3fa33U, 0x280dfe0619e901fbU,
  0xe802fb0a1a08efe9U, 0xc01f000c70104e1U, 0x1f820d1fe01ff18U, 0x1b04eafc0c01f620U,
  0x36e0c144d426b220U, 0x1712eee7f9f395eaU, 0xeffdf35eaeb9c43U, 0xd949f7e5161017b5U,
  0x36e01626b726f349U, 0xe4cee9e7edfba3fcU, 0x4e9b900e6f2f1b3U, 0x31cc0fbf69d2505U,
  0x220b8302f3d1d300U, 0x17f3e6e4811029f0U, 0xdb1cbc252d0c1ee9U, 0x343af1efb28cc734U,
  0xe11920a230a10dbU, 0x24dcfa291dd531eeU, 0xb701002302b4cdbdU, 0xf1b532f3f308f6edU,
  0x227a2dcd20b401eU, 0x48da1806f70ad5d3U, 0x36070716e807eee1U, 0x3e75904f2e8e681U,
  0x108a0d07460dc51bU, 0x170ffb27eadef3f9U, 0x45121601ce090038U, 0xefeba5d80cfd1c34U,
  0xf1e0efc50e1508d5U, 0xf8de13f61105f8f1U, 0xfcf7230ae6f120f6U, 0xf0f8e8ed061514e0U,
  0x4511fcf8060e05e8U, 0x1536fdf3e6fd10e3U, 0x10020bf80a190ddfU, 0x1119f10111bffafbU,
  0xc2080bfd01cfdf8cU, 0x1bf8f619101ff211U, 0x2b0bcff20ffc161bU, 0xfb14f000fddee6faU,
  0xfff40bfee8f8102dU, 0xf7e70401090914e3U, 0xe042f4260df6e5e2U, 0x130810f30e040502U,
  0xf2f032f910e2fa0aU, 0xcd18c60cdff404d5U, 0xfa072702f6150221U, 0x9f020fe07fbf6e0U,
  0xe4b73dfb14d8e21dU, 0xef0d03f4d9213ef6U, 0x3d05febdf96904c2U, 0x2059f90d15f70806U,
  0xee0606f931d411acU, 0xf3e3f8ffdf1805d7U, 0x1bc3e30908ed0bd9U, 0xf181e6210bfeff24U,
  0xf506e622f6fa1d17U, 0xeb29ffd5c6fb03f7U, 0x2ebf2c16eb0e2de6U, 0xe1decde0d272dfe0U,
  0xdb5eb04ce0b1304U, 0x122037f0ddc7cceaU, 0x20ccbba93fdf59fU, 0xbbf6d518ab37a1e6U,
  0xeef6b1caaef0f40cU, 0x7e20e0d131f4fdfU, 0xb1273a312968e7d4U, 0x3d2de60fcb42c051U,
  0xdeeddcec2ed8ed3dU, 0x3438f7d0bb1223baU, 0xe3d705c5c0d9038cU, 0x1e36cbce1ab5c015U,
  0x2f14bc11c5ed4fffU, 0x543f66be57f1a14U, 0x3e3021d1eddc0812U, 0xad0f54d850c806eeU,
  0x33f2fe3ce4223112U, 0x12f40bf5ec0326f8U, 0x170419e81137f3U, 0xdf2d81735f02c0dU,
  0xe8e7fae00625060aU, 0x2c231cffe2030cecU, 0x3f4d42820f90e46U, 0xf23ef10fd1433edU,
  0xfdf08a2b0ceb2fe4U, 0xe30f52d357f02f1U, 0x63d1b1aebf2181dU, 0x2d26ec010ebade0eU,
  0xeb2c16d6eb14d2U, 0xed22ef49b3f11d09U, 0xe0ec3000f803e6e9U, 0xe3ff8121803e224U,
  0x8de092c11b4f45aU, 0x33ff23eef3fd151eU, 0x341e39f929d8c1d9U, 0x52c103a3019fc40U,
  0x20a5ee07faf3fc0dU, 0xf6022b09f606f312U, 0x16e726150f241ef7U, 0xfff0ff5b631b3061U,
  0x27051dfd36f4f6dbU, 0xef2bed0332bb080cU, 0x38c1ff11541fb28U, 0xf1f2490c16fa192bU,
  0xf3f6ec55e42d0148U, 0xa4e2818fdc527fbU, 0xe00f9b0e0721f0ffU, 0x31c2edf2808eaa6U,
  0xfe0c272bd9ea053cU, 0x16f02b40f61404faU, 0x968fe32321c5e21U, 0x7f1094f5c2eb2f3bU,
  0xe9e200f44420f9U, 0xbf8f5e5051ef50aU, 0xffdb65f60b08e506U, 0x81091206fcfafcf1U,
  0x65fa050000ed24e1U, 0x90604eefbf6fceeU, 0xcaeaf109f820e106U, 0xfe0b02160a131a0eU,
  0xeb0ceab936fdf3faU, 0x11060913ee000d40U, 0x4f6fffe9802fef5U, 0xdf5f709ef02e6efU,
  0x100fe0a00006fe7U, 0x80109e2e90f1003U, 0xf9eff0f6ece7fe08U, 0xf301fafb77f8fc06U,
  0x11f4e9f80d030d0fU, 0xeff91907f9170ae1U, 0xff1a173d15e41503U, 0x1846f5f611f52114U,
  0xfccfe8a6cdfc33ecU, 0x6f1081be10ab024U, 0x2621f80132c518dbU, 0x3e2ef316e0f1f107U,
  0xa70c171e0ae406eeU, 0x1304d7130e180608U, 0x41507f9fdfb2906U, 0xaf384fdfc2002f4U,
  0xcc0a73200e0b10e5U, 0x95061c1701fdfef1U, 0xf796d5f40eedeefeU, 0x1cf406f41a03edf4U,
  0x100f081103b021eU, 0xd8fe24f7f1f81a14U, 0xfa001a0a1d0cfe08U, 0x4609ecf40c030e1aU,
  0xe801230624f117bdU, 0xe62ef701f1f6eaU, 0x30dc5aee05f422eaU, 0xd3cf1bd906fdf117U,
  0x3154616fdf81000U, 0xccf347e207f7fa18U, 0x20010e05eaddf706U, 0xdafcfc10080b022bU,
  0xce64b9240ef8f5feU, 0xf7efc7e629182411U, 0xf20c071ec47f0cc9U, 0x23c31e02e1f40602U,
  0x4df1abc0ff41d5aU, 0xaf3d702ed08eeedU, 0x3beedee01e012e34U, 0x26a7fe1400fce1b0U,
  0xe00c15c8fdde5112U, 0xf42013eb26e7ee29U, 0xe602fcce26d800f8U, 0xefeef1d5ede00fc0U,
  0xbd1503f70ed6bf0fU, 0x1a10000a14c4e30dU, 0xcacae9eddff2e22aU, 0x2ced06fde7dbafe7U,
  0xf9f9eff2dc60061bU, 0x1efe1e1fecf60084U, 0xcdd03218111ae8e6U, 0xed11becdf15ac8efU,
  0x35f60d0ed2efe6f7U, 0xfbffe8db02fa1bf2U, 0xe74311f4e2fc0e7fU, 0xd4f43b01b623d722U,
