
/**
  ******************************************************************************
  * @file    network_data.c
  * @author  AST Embedded Analytics Research Platform
  * @date    Wed Aug  3 17:12:26 2022
  * @brief   AI Tool Automatic Code Generator for Embedded NN computing
  ******************************************************************************
  * @attention
  *
  * Copyright (c) 2021 STMicroelectronics.
  * All rights reserved.
  *
  * This software is licensed under terms that can be found in the LICENSE file
  * in the root directory of this software component.
  * If no LICENSE file comes with this software, it is provided AS-IS.
  ******************************************************************************
  */
#include "network_data.h"
#include "ai_platform_interface.h"

AI_API_DECLARE_BEGIN

AI_ALIGNED(32)
const ai_u64 s_network_network_weights_array_u64[ 64409 ] = {
  0xbc539c643ddb4af8U, 0x3d8ffe1dbed52534U, 0xbe25e433bd025886U, 0x3d13a7ce3c458979U,
  0x3d6bdeebbe307115U, 0xbea9b500be0efdcdU, 0xbe213b093df5cda6U, 0x3e03073ebe97e9aaU,
  0xbe339335bdf28eb1U, 0xbe6a2b7dbd86d93bU, 0xbdadc6f4bee59caaU, 0xbec1f3b3bdee77ddU,
  0xbdc0630ebd9608a6U, 0x3fe99fb3bea29336U, 0xbead436f3ff93601U, 0x402875e940285390U,
  0xbe99960d3e87c46fU, 0x3eb7a26bbde5d474U, 0x402ad58540266b63U, 0xbef9e3d13f618dd1U,
  0x3e0aab63be24af5bU, 0xc03a1e09c0375bb3U, 0x3e2d38d9bf80b1aaU, 0xbe400a30be95918bU,
  0xc051a762c0134c97U, 0xbf62300cbf73a081U, 0x3ea076b0bf4d127fU, 0xbf3a950e3ea34d4cU,
  0x3f42669dbdab20a6U, 0xbf0bc165bed5a8b7U, 0xbf0a31663f325633U, 0x3eaa222abe60ebc9U,
  0xbea80eaebebc98aeU, 0xbe9d37a23e4497f7U, 0x3f436fecbe1e8b75U, 0xbe0e07d0bf4b1415U,
  0xbeddbfd53d6ade28U, 0x3db3be013e9e45f0U, 0xbe62d09bbe934e53U, 0xbf22b6343f0f6c60U,
  0xbee9dacbbeaef278U, 0x3edc1cec3ee5a6d4U, 0x3f006f4dbef3ae68U, 0xbeae67043e78e865U,
  0x3d044d063f0e1e4cU, 0x3f4668a7bf41bcdcU, 0xbf1a6a233e53c5efU, 0x3c3afece3f0f8319U,
  0x3f0e2815bea94d66U, 0xbea87c533e03e1d0U, 0x3e0ab9563f2d804aU, 0x3e056079bec5748eU,
  0xbe524f333ea4e68aU, 0xbb9c2d563ef3ddeeU, 0xbcfa5f92bea56417U, 0xbdfa6db7bb65fb33U,
  0xbdc2df853d8b4c28U, 0x3e88b572bd98ff65U, 0x3e199c32ba2f5488U, 0x3e25bea3bdabd40bU,
  0x3cc065013ec445ecU, 0x3ea3ebb0bd9e85afU, 0xbd017adb3d99ccf0U, 0x395b0e773f3333d4U,
  0x3f1b415f3de27cfbU, 0x3d8423cebe2fee85U, 0xbd15c8473ed129c9U, 0x400bbfd9bd5d267aU,
  0x3cd105e8beddf712U, 0x40198e1b40117648U, 0x4049aa033f9bc6c1U, 0xbfc814653f4636fcU,
  0xbffe0213c026b3deU, 0x3ee15da2beb71c59U, 0xbf5c0734bdc76155U, 0x3f44e906400016f1U,
  0xc064f4a83fc51e95U, 0x3fd1b0cebf3f4288U, 0xbfa15266c085c3e0U, 0xbde7f6c8bfd5c91dU,
  0xbe30432b3f2fa87bU, 0x3f4d48bdbdbb6bb5U, 0xbe3c53a5bf0d9c60U, 0xbed33aad3f361d4eU,
  0x3f27afb0bd253805U, 0xbea83282bec734b6U, 0xbe2150f33efdd2e7U, 0x3e876d573d875a0eU,
  0xbe331911be47f5ddU, 0xbf3447253f727897U, 0x3ebf533bbd0ec678U, 0xbe25aa14bef2e7dcU,
  0xbf08d4203f1ae39fU, 0x3f1ab811bdd64e46U, 0x3dd5684ebefc697bU, 0xbe0986c43d508710U,
  0x3eb1e7833ecfa9e1U, 0x3e13d9c4be44613aU, 0xbe57f2c03a01653bU, 0x3e2de502be1681c5U,
  0x3f2cdf813e12b89eU, 0x3e0136323ee6dffcU, 0x3e8319613f14d5c8U, 0xbe54af32bdd0dfd5U,
  0xbdcd36a43dd28584U, 0x3e5388d93e26df27U, 0x3e88f0debe598f29U, 0x3d133dfa3e7a60ebU,
  0x3f31b21d3f19ba3cU, 0xbf879c503f90d2fcU, 0x3ec14bc43d491280U, 0xbfd507fd3f527be6U,
  0x3de440533da353fdU, 0xbeb7ed0d3d896e84U, 0x3e1f2043beba227aU, 0xbee3b43cbf3ac29bU,
  0xbdb2f31ebe3cc7ccU, 0xbc6bbb1fbed35b9cU, 0xbe3d8a0dbed20e44U, 0xbddca5513f29b27cU,
  0xbda2114f3f2258c2U, 0xbd58b45ebe0fa938U, 0x3f12e921be4a710eU, 0xbe1002653ecc35b0U,
  0x3ebe64a83f0d7cf9U, 0xbb492d72bcea8b96U, 0x3ec516d1bc5abe7cU, 0xbf0e6744bea9430cU,
  0xbea4bad63d714567U, 0x3da24c89bf122714U, 0xbeb8c033be9a28cbU, 0xbf388ff9bdd57adcU,
  0x3d98149bbeef5b42U, 0xbe66a0f5bec81450U, 0x3e9615423e95e18eU, 0x3c4e87be3e934171U,
  0x3f1b66703ecc42e4U, 0x3e285c963e952a61U, 0x3e6947853eaacc00U, 0xbda1b3f43df47e29U,
  0xbf1cb8823d87cb88U, 0x3e3de841bece9441U, 0xbee2f813bf27ae2dU, 0x3d7c50b83e19c1d8U,
  0xbef1eb95bc0b0677U, 0x3d97c36e3ec6eaf3U, 0x3e3e752ebcffb479U, 0x3e9c2e1c3ed56411U,
  0xbac428a03e5f7fdeU, 0xbebd0bcbbef540f1U, 0x3c80f07e3d9e8d6eU, 0xbe000e913de4b7e9U,
  0xbc8b455a3f3131f6U, 0xbddfc799be6f8a02U, 0x3d0723a6be09869aU, 0x3e57819e3f1ebbc5U,
  0x3da976a23d8b8a13U, 0xbd950eadbd80a720U, 0x3e719150bd324e64U, 0x3c992c5f3d77b38fU,
  0xb786b0e3bce25172U, 0xbf0c2e53bec66314U, 0x3d9d221f3eb46fb9U, 0xbe62adc5bea6636fU,
  0xbd8551efbdc9f070U, 0xbda14e54bd795765U, 0x3d4ae7143e86178cU, 0x3f14fb273efee506U,
  0xbd616e78be7070b1U, 0xbc21e3433da919e2U, 0x3df7f4003eb82880U, 0x3e406dae3f2c8860U,
  0x3ec5ad7abbcfe1d5U, 0xbe380351bc82e0b3U, 0x3ed36139bd9e2aa9U, 0x3ed2672f3d5b0aebU,
  0xbf21ef79be08ac17U, 0x3d89d9e73d7a27e8U, 0x3cdc101bbd197bf7U, 0x3e25afe0bd30e525U,
  0x3c5d570d3e4d39baU, 0xbe755e23be8e46a8U, 0xbe0257b9be907bffU, 0x3df03ed1bc7e418fU,
  0xbe42d5ff3d599cc3U, 0xbe1a4644beeea705U, 0x3e429fb23f2668f6U, 0x3e7da64cbe6a0822U,
  0xbc1e447abd065329U, 0x3f6374e83f436e90U, 0xbddc99a5bf1847c9U, 0x3edb4bf53ed233beU,
  0xbf33e299be93fe9fU, 0x3d15d9283d961a90U, 0x3d35ddb6ba652baeU, 0x3e197433bdee63ffU,
  0xbf5b86aabd1ed987U, 0xbb495d0f3c2ba190U, 0x3c547bbc3d307852U, 0x3e4b518a3c4ece93U,
  0xbb58b9d23f03db7fU, 0xbe49d421be921c87U, 0xbc9493073e0e73b1U, 0x3c8bf4233ee1aa2fU,
  0x3c1bddc23d4e638dU, 0x3c5d94a9bb08b964U, 0xbf07fdc43de69b36U, 0xbd0a99af3d6499f9U,
  0xbbf6b7fcbe6e35abU, 0xbe2eb1dcbd777eebU, 0xbe37e7e1bdac9bc2U, 0x3e99fc32bee67eedU,
  0x3cbd95d33e85d3b9U, 0xbe2b495fbe2b9960U, 0x3da9c30cbee0399fU, 0xbd15d01e3dbcdea7U,
  0x3f9086563ffb8a1aU, 0x3fea41d13fb2dfa2U, 0xbf1acb123fb00a08U, 0x3f03abc63eb0e394U,
  0x3f1d37353f19b262U, 0x3ce066c83e34a714U, 0x3fc804ad40417500U, 0x3e9a33c8bee908beU,
  0x3ede0f92bdc0cf69U, 0xbf1c703f3ebc434bU, 0x3f0668f0bdaa3884U, 0xbee4a1ebbe2896deU,
  0xbc7377d5be07060aU, 0x3e837e8e3ea41977U, 0x3ecafeadbea7d868U, 0x3e03ac9d3f1770e7U,
  0x3e4cc8643ddf99ceU, 0x3ea187ef3ee27710U, 0x3ef0d588bdb5ca72U, 0xbf1d4442be43e167U,
  0xbeacc220bd85df4dU, 0xbe8790c0be4bb7c5U, 0xbe1259f8beb8d59eU, 0x3e263c98be2fd87eU,
  0x3e5735cf3e69c08aU, 0x3e328c213eed455eU, 0xbead6a5b3e387aecU, 0x3ebddeeebf003b23U,
  0xbf207a51be431c71U, 0x3ea00f9d3ea87d56U, 0xbd6e52db3d43758cU, 0x3e89eab83e60fc7aU,
  0x3ed8bbffbdb777fbU, 0xbe87fc423eaaeddcU, 0xbde48964beb0a22fU, 0xbbc00bb63b74352dU,
  0xbdf38e92bdbf1e52U, 0x3f27d882be967b37U, 0xbedfbaa83d42b721U, 0xbe5457203d0b7dc0U,
  0x3ea37c733e78b6bbU, 0x3e279074bf17d87dU, 0xbe6110973f326ac1U, 0x3d6b1879be51706dU,
  0x3e6e0e57be227fdcU, 0xbeb273353ef62232U, 0x3f036e8c3e864802U, 0xbdbe5c68be301edaU,
  0x39952385bc191cb6U, 0x3e50ef8a3eb4d280U, 0x3dddda9cbf035d8bU, 0xbebf430b3f1201ecU,
  0x3c9182fbbedad0e6U, 0x3cac52a5bb3da6cdU, 0xbd9ff8313dc81178U, 0xbe9f32683ee07bbeU,
  0xbf0b8b273e4b7a6aU, 0x3c8610643e314842U, 0xbeb5ac5bbe322e84U, 0xbf14341abe0a0b49U,
  0xbe2af745be06027bU, 0xbe20167abe2726ddU, 0xbebb9853bedd6fd7U, 0xbf201bd93dfe2f12U,
  0x3f124ce03d705847U, 0x3ee0efe5bd7bc0d3U, 0x3e3e73503e8878f0U, 0xbe3485a83e344c1cU,
  0x3f19c768bda79183U, 0xbf1385eb3e264c2aU, 0x3ed4e5eebdba3669U, 0x3ee580863e4e769fU,
  0xbe837a8b3e080763U, 0x3e8e805dbdf1d187U, 0xbf2214cebe59b88cU, 0xbf16698cbe0a14f5U,
  0xbd18cd23bf2f205cU, 0x3e128409bd696237U, 0x3e702ea03ea55d93U, 0x3e0333a33ef32a00U,
  0xbdc76fe53e7a6b97U, 0xbe874ff63e5023b5U, 0x3d713031be44e618U, 0x3df82a523d90efebU,
  0x3e12393bbe0456a2U, 0xbec19a9b3c053a90U, 0x3cd64727be92ad00U, 0x3dc2b394be5fe190U,
  0x3fca2ff63f8e7413U, 0xbf5348043e5160d3U, 0xbc9798e3bf7be70dU, 0xbf20a75c3da0426fU,
  0xbef099473e56bc5fU, 0x3daabdd73c51ad82U, 0x3ee93a143e28c477U, 0xbe87a16bbeee9eceU,
  0x3f234a563eef43f6U, 0x3e88b672bf207ebeU, 0x3db178a3be7a2ce2U, 0x3f9347003dd7dcc6U,
  0x3d57e6c63ec787e8U, 0xbe8bff9dbd035910U, 0xbce66c003f57e748U, 0x3f88adbdbf01f2eaU,
  0x3f225de6bfc7e36dU, 0x3eb2e624be299c5cU, 0xbdb14a17bd92528aU, 0x3ccc43013d928d3eU,
  0x3d832ba63cb5632bU, 0xbe8b58b8bcb146c2U, 0x3d6f86b7bf6b13d5U, 0x3ef6070d3ed2f71bU,
  0xbf0d614bbe1f3169U, 0x3e64034bbe97558aU, 0xbe1615a7bb9fcb48U, 0xbf01ebc53ca84137U,
  0x3c1f85c2bf27755dU, 0xbea22b93bde5674eU, 0x3e71bf4f3f1bfb0aU, 0xc01d3fed3e193a3dU,
  0x3f35f5433f0eec9eU, 0x3aeee8b6bad5c1a1U, 0x3d855bda3e3181a3U, 0x3e8e22e5be2cc1e9U,
  0xbd77380d3e333299U, 0x3d8c3dc23ddfd6c2U, 0xbf4458d7bccc5f8aU, 0xbef4d957bc43a3c9U,
  0x3e499f7dbf14b1d4U, 0xbef6d7d5c0199487U, 0x3e521f433fd7cde4U, 0xbf7180ef3dffe4a4U,
  0xbfa76179400d1fa5U, 0x3db4226e3c24ccb8U, 0x3e5365bbbe28d509U, 0xbe1015cc3e64bdb4U,
  0xbd736127bf4706efU, 0xbec779d83e8242bfU, 0xbe5ce06fbdb4c9beU, 0xbf74bc643c7f42c9U,
  0x3f978624bedddd5bU, 0x3e0838bbbd052ce1U, 0x3e89d5313db7869dU, 0xbe3c5b57bed8bb97U,
  0xbe141aa1bf0d9e71U, 0xbeafa45f3f39320fU, 0xbe81de08bf3c3bc2U, 0x3ded81b9bd06c85aU,
  0xbf2a846abdcdcd24U, 0xbdf7bdb5bd2a8dc8U, 0xbea296253e44d752U, 0x3f4bfd05bfaf432bU,
  0xbc2b14df3d0760f8U, 0x3e450c36bd99e10dU, 0xbddfe652bccb24aeU, 0x3d284780bf06afbdU,
  0x3d26635ebdb2ecbdU, 0x3d13bcad40051a18U, 0x3d1f19073c20c8c1U, 0xbd2b14453d88a965U,
  0x3d70e9333e9723e5U, 0xbf843cd6beca497bU, 0xbc2d09f5bc3b31fdU, 0x3f53480b3d915045U,
  0x3d600e373e71247cU, 0xbe62fc63bd41428cU, 0x3e8186b0c0069b6fU, 0x3a5646d7bf08ab2aU,
  0x3e0ea23dbd67b6d9U, 0xbd8b8abc3be9096fU, 0xbe306ec63e32877cU, 0x3e8fd72bbbc26f70U,
  0xbfe1604e3eb859ceU, 0x3d1252b1bcc554ecU, 0xbdb66274be1f4b10U, 0x3d2f0b123f102ae9U,
  0x3f155b7bbf232feaU, 0x3e5d94a83cbcdcbeU, 0xbeb83f563d2c3647U, 0xbf687361ba0e0e56U,
  0xbeca5a7cbe63f1e1U, 0x3d965ffe3d291932U, 0xbf2ada533e4355b2U, 0x3e2bd7ccbf3f135dU,
  0xbe23e6fb3e0c2a40U, 0x3e2ac288bd87b06eU, 0xbe8393193e2cfd3aU, 0xbd7140b040308756U,
  0xbd31c07fbd9b9d3fU, 0xbf6e8b6ebf1659e9U, 0xbe0e82203e52bc2fU, 0xbe4dfab13cdf0636U,
  0xbefc7e76bdebf60bU, 0xbd0d1ebabdb55694U, 0xbfcf8c9c3df4aebfU, 0xbdb2ce5fbe14916eU,
  0x3dca00443dcec6d1U, 0x3d55b697bb96ad87U, 0x3e128115be29602aU, 0x3e71ee683dd556aaU,
  0xbe0cc1d43f0433adU, 0x3f997114be63b916U, 0xbf8d69613eaaae12U, 0x3ecd57963d4330d2U,
  0xbd9741e13ef1ebbfU, 0xbf09d561bdce1233U, 0x3f6c507bbf259e72U, 0x3d46b274be4d88c5U,
  0x3dd76931bd6d79f4U, 0x3dc11a3ebde89246U, 0xbe30bb08bd92a716U, 0x3bce02c6bfa34e2aU,
  0x3dae8dbbbd943940U, 0xbf08d130bff1ef1bU, 0x3e02a2413e1125a1U, 0xbe1712823e040ac8U,
  0xbd30b64e3e891ffcU, 0x3ea324613f8725bcU, 0x3eca61ffbf0d7eeaU, 0xbf28ff763da2783dU,
  0x3e20611abfe39e06U, 0xbef9a90bbda98cceU, 0xbe9b48f4bd32cee6U, 0x3e5bfaa13e2b4bccU,
  0xbe7306a9bca4547fU, 0xbf64c72cbfea3933U, 0x3ba492f9bfb5aad6U, 0x3e14c9bfbd142632U,
  0x3fa916c1bf6c7151U, 0xbe904303bd3cc418U, 0xbe7089513edaab40U, 0xbc48354bbf0f4d66U,
  0x3f2bae6a3df70191U, 0xbe1de775be344a09U, 0x3f902e1e3ec65bbeU, 0xbd9da471be974394U,
  0x3eb0b61dbd457437U, 0x3e5242bc3e36531fU, 0xbcc3d9943cc14b4aU, 0x3f0341523f2f0d90U,
  0x3ec572093e25d736U, 0xbf25bd623e280298U, 0xbc1a9792bec9d962U, 0xbf39060f3d97041cU,
  0xbdaa8b5b3e8d9cc3U, 0x3d85cb1ebc41e25cU, 0x3f58e3123ec25a8aU, 0x3efadf7fbf92f93dU,
  0x3e923e0f3eb88e2dU, 0x3fa6e2ea3d54f5f8U, 0xbdadd6b3c0438c1aU, 0xbf947e223d210ca8U,
  0xbd52cf2ebf2d0b6aU, 0x3e07641a3d0e1220U, 0x3eb901a03ed94afbU, 0x3ec6dd52bc2df86cU,
  0xbdeea0a8befe3f67U, 0x3e328615be1765cfU, 0xbe01b1113f727b94U, 0xbdc3add7be0ea361U,
  0x3ecc0490bceccb52U, 0x3e85eba0bdefd9c3U, 0xc00d543c3deb511fU, 0x3e4618de3efcd6a8U,
  0x3f1933a03df5208cU, 0xbf19b3c93d830d2cU, 0x3f3d90bf3db88a0bU, 0x3e547eb5beb909d3U,
  0xbe21fd62bd0eead7U, 0xbffbce133d88d9b0U, 0xbc453e5fbf31fe17U, 0x3fc642f83d3ed19aU,
  0x3e9c9a5dbe8d5990U, 0xbe15a3c2bdcac56aU, 0x3e6826633eccb969U, 0x3fcdf5053d39a06dU,
  0xbe17cdcfbd44a9e6U, 0x3eea9c9a3dcb8d94U, 0x3c96f81dbe8b3985U, 0x3e9ce6bc3de051f5U,
  0x3e3ce2dabe9760d5U, 0x3f6af7853dd344a5U, 0x3eea3deb3f141564U, 0x3dd9c8853e409ec5U,
  0x3f1be5e8bea55b0fU, 0xbf03da7dbe403c18U, 0xbe76f2d7bf9b43efU, 0x3e31774d3e809f43U,
  0xbd1b50e93e062e22U, 0xbdf989fd3da62271U, 0xbd44a331bb229b0eU, 0x3f84a29b3dc6e42eU,
  0x3e298eeb3dafbaa4U, 0xbe561b7dbc58bac2U, 0x3b99ff94bf8ec05eU, 0x3f8284673e35ef94U,
  0x3d5972e2bf843963U, 0x3e80c7e1bf084e76U, 0x3dfbff7cbcdbb52bU, 0x3dcf10e43d9167b8U,
  0x3f0042513e3f7f28U, 0xbe103b333c1f34baU, 0x3d28f4483f7bfde7U, 0x3f518daabe6b6951U,
  0x3e0e75f73da18871U, 0x3ea04f11bf106c43U, 0xbde6a4383e6b3e5dU, 0xbe0ad557bd841809U,
  0xbe03d316becde796U, 0x3cba2bb5bc21f4edU, 0x3e126c504004e8c8U, 0x3ea6d0f63e0aa6dbU,
  0x3efca7c43f39760cU, 0x3f2d10d63fc934bdU, 0x3dd335bfbf28f159U, 0x3f03a4013d6b747fU,
  0x3fad0575bdec9ddcU, 0xbe76fa3dbc2b89d2U, 0x3de1855abc6761a3U, 0x3f189ea93d5dda2fU,
  0x3deab5f63e1e0fb3U, 0x3e40acbd3e5e32bcU, 0x3e318c87bf08ed19U, 0xbe0a874fbddce72fU,
  0xbdecd33d3eb8a28bU, 0xbfe0f44bbe681851U, 0xbbd8bd15be7a3306U, 0xbf0469993be1a319U,
  0x3dd9ae82bed4c94eU, 0xbe2e92273f425585U, 0x3eb94dedbe09243aU, 0x3e86f4ca3d527423U,
  0x3ec27b47be9f0c96U, 0x3db6e4673c949256U, 0x3e123d133fa3aa9bU, 0x3f6aba273f2cf5a6U,
  0xbf1e88193f38a45aU, 0x3ed57d26bdda0a80U, 0xbe56f3453ea9a142U, 0x3f8ee74f3ddc57e6U,
  0xbe3357c83c39410bU, 0xbd220517be16a294U, 0x3f00d471be5e0223U, 0xbedd1c133f567767U,
  0xbf3faac8c065a143U, 0x3ff8018bbecc51a8U, 0x3edf5a54bea9bbecU, 0x3f2e9a1e3e47f6ebU,
  0xbf006f06bd00731aU, 0xbf026b883d307f79U, 0x3f72642d3ea19ec8U, 0xbeec41dcbf39bc4aU,
  0x3e880cfd3e25036dU, 0xbf926e82bf9a1358U, 0x400a7753bdeb06f0U, 0xbf07eeddbffe4647U,
  0x3dac0510befde68aU, 0x3ef21236bd5588d0U, 0xbf32af51bf4ad740U, 0x3f5808823eebdf1fU,
  0xbe0d430abdf7d0beU, 0xbd90562b3c331d35U, 0xbc49568ebf48fd1cU, 0xbdf8fac53e05ee0fU,
  0xbcea2c873c655d6aU, 0x3dd805a4be6ea8f2U, 0xbf325acbbe7e2200U, 0x3c3f6f743f711207U,
  0xbdb8a4443e1acc5dU, 0x3ede8471be13b152U, 0xbe8b3ae63eb30036U, 0x3f580440beafdb33U,
  0x3dcd59823cb404d2U, 0x3d1597a0beb0a40dU, 0x3ea01ce33e9c03b0U, 0xbeeebec83e8f3a81U,
  0x395013d1bf4c81a9U, 0x3e874ed6be8c1615U, 0x3e51d68d3e1e5969U, 0x3d40b29fbe6410b4U,
  0xbdd3ee9e3f82fef3U, 0xbd6077e63d201c1aU, 0x3d9d17ce3d90bc42U, 0x3c86187ebe82c275U,
  0xbf6e8a7abea7c0baU, 0x3dfe049b3e89f1a5U, 0xbdcd5fb13f03c184U, 0xbe62f281bdb0ce91U,
  0xbd4055503da93412U, 0xbdc5845cbf7fe0cbU, 0xbd333f003d4ef875U, 0xbd3c96283dc5b3c0U,
  0x3f193f1b3f6b6564U, 0xbe66edfbbdbaee7aU, 0xbe183c24bea41ee7U, 0xbe11bc63bdedae89U,
  0x3e8ecfdb3d6e836eU, 0x3e0ac2173dda6e92U, 0x3d2978953f502141U, 0xbc74653fbd5dcc29U,
  0xbda324073c67c181U, 0x3e8d80473f53f17bU, 0xbe62430c3e2ec713U, 0xbd78ac55bf3a2dcdU,
  0x3e041f81be436800U, 0xbf310b45bd9ddc32U, 0xbc4631adbe6d735dU, 0x3cea0952beeacb99U,
  0x3dd8ac433d724eb6U, 0x3e861fc13e535fe7U, 0xbc1125ee3e7295e4U, 0x3e2d57be3eddc328U,
  0x3d8b2046be91bedfU, 0x3ce7de513f06f226U, 0x3e1dcca8bd91bd70U, 0x3d034fc2bd52945bU,
  0xbe1c57b33f8515cfU, 0xbde6dfbdbc5b5510U, 0x3e95cf87bc63fd7dU, 0x3f14516e3e878584U,
  0x3e71d0e73eab6facU, 0x3e5948523df5dd0cU, 0x3e422f5d3db72e88U, 0x3eef4ef03e1b117dU,
  0xbe41cde43e81ec35U, 0xbd95da393ea9790bU, 0xbec39045be227d94U, 0xbd044a30bdbe880eU,
  0x3e4a28a93e978e5fU, 0x3f4c2dbb3df205f7U, 0xbd9b7d41bdbba19bU, 0x3d142311bdb8409bU,
  0xbee72796be919b19U, 0xbeaddef4be81141cU, 0x3e318a26bdcd7380U, 0x3e2d166cbd266a84U,
  0xbd9339bd3d1586f2U, 0xbe840af5bf6a29f1U, 0x3f1053d9bd37967aU, 0x3e004f513e93d905U,
  0xbab7a1273e1c2926U, 0x3e42b3353e98062cU, 0x3e0bb9ef3e86cea9U, 0x3cedb02b3e6e17dbU,
  0x3bc274213e49a671U, 0x3dc65a89bde039d3U, 0x3c29d2e2befe1a8aU, 0xbf087e253e57fbcdU,
  0x3da9f055bf18e512U, 0x3e75b494bcfc2584U, 0x3e59c9fb3e81794aU, 0x3e26902bbe7325f3U,
  0xbecd1b893f5bd54eU, 0xbe14f552bc3fe057U, 0xbca3d587bc7875e8U, 0x3d781961bddf825cU,
  0xbf2c9e9dbebce3f0U, 0x3cbd65243d3e0afdU, 0xbb37c7b1bd484da4U, 0x3d877a193dafac39U,
  0xba4272df3dff4b49U, 0x3df5bdeebf9b5f66U, 0x3e435daa3d85b617U, 0x3c8be70b3d941184U,
  0xbd590ad6bd5ca22eU, 0x3f7b1c733e9573c8U, 0xbdd55f1b3d3cc35fU, 0xbcc707fcbe93151eU,
  0x3dc5a9fcbe0fafaaU, 0xbed972773e6e80c1U, 0xbdac5e6f3f2fce4eU, 0xbe7d81c43d46d82fU,
  0x3deea817be9407ecU, 0xbf4301133d0a1f08U, 0x3f2b99363e04e012U, 0x3a090ac1be73011bU,
  0xbdc65b90be3b3ea4U, 0xbf36983cbdfd1db4U, 0x3c37a014beaa8f7bU, 0xbca8aaafbecd99c0U,
  0x3e015cbd3d43c168U, 0xbd4ea4f2bc5d0599U, 0x3deac3d1bdffc883U, 0x3f94385abe48295fU,
  0xbe03681fbeb92c69U, 0xbdf83521bca869d3U, 0x3da66b4b3e2c214eU, 0x3e8e1fa3bee0cd36U,
  0xbf5094c33e53764aU, 0xbdf879063c35f2b7U, 0x3d4cb2c03e2d30c7U, 0x3d1750873e91f0e8U,
  0xbf80626a3e035ae8U, 0x3ce872393ea5c664U, 0x3e41b956bd8ec86fU, 0x3f0f75bbbdda410fU,
  0x3cceb7cc3e7a6e9eU, 0xbe3411253eeff3f9U, 0xbdebba70bdb393a6U, 0xbdf46afabe3001b2U,
  0xbd9c353e3d6825a4U, 0x3f77c9c33dd4fc00U, 0x3dbd583e3eb55642U, 0x3d5b9c22bc84b5b1U,
  0xbdf088c9bca15c27U, 0xbddc462a3d0b33f2U, 0x3db59e873d2d9ac6U, 0x3cb8805d3d81e123U,
  0xbb8b933c3e17af75U, 0xbc8492a63d285f80U, 0xbd31655b3e58ab75U, 0x3e1eff633d17f868U,
  0x3bf79b9bbcb67317U, 0xbcbae421bd03e238U, 0x3dc9b6433d0a1fdcU, 0xbd2f7b02bddee87dU,
  0xbd4c9607bcb1eafaU, 0xbd0dd6eb3be8a8fbU, 0x3ca0e5913bbb4f7cU, 0xbdda8e623adbf39fU,
  0x3eae7b80bc6a6492U, 0x3e355ad4bbc64434U, 0x3ea8f84a3e51ab58U, 0x3d3594ac3f430dfcU,
  0x3d986a0ebe4924ecU, 0x3d8b1573bdc5b6deU, 0x3efe6d52bc5abb5cU, 0xbd89907c3d6dc9c5U,
  0xbc5cb35dbe546d4bU, 0xbaf50a2b3ed1233dU, 0x3ebdc207be6490d9U, 0xbf077936bd92316fU,
  0xbe216450be776cecU, 0xbf153c7d3e3be11cU, 0x3e0725493d831149U, 0xbf8232073e330750U,
  0x3e2d955f3b9d3929U, 0x3dbeddcabed48040U, 0xbd0621fcbce844e8U, 0x3c5e8ed3bead2bcbU,
  0xbd227747bcc8dc84U, 0x3ce3ac6fbe90ece4U, 0x3e627f96be04cf95U, 0xbd46a3083eb50e89U,
  0x3dfd33c1bdf60dd7U, 0xbec132d03daab9d4U, 0xbedec8b03e8a9fb0U, 0x3dc33ca3bc95b959U,
  0xbdc9df58bdddf6e7U, 0xbe8507efbd28636dU, 0x3ec098723df66fdfU, 0x3e1ac23dbd31a19aU,
  0xbe614180be644f78U, 0x3dbc8441bedd7fbcU, 0x3d12b3e6be1305cbU, 0x3eda0d243ddbe072U,
  0x3e8016c7be12bd05U, 0x3e2f33d83dc12483U, 0xbeb159c0be2bde67U, 0xbe18d778be0c0560U,
  0xbeb7c66d3e4337baU, 0xbe4f456cbe89c151U, 0xbd4f73493d148662U, 0x3eb50fcd3c79defdU,
  0x3e18dd96bd5d288cU, 0xbec8f5823db451a8U, 0x3eb3fd10be5406b8U, 0x3d7195aabf0610c8U,
  0x3f0e01073ecf2b3cU, 0x3ee298cc3e3e5b76U, 0xbd692c23bb49e80dU, 0xbac336c3bd8fe3a8U,
  0xbd2030753d8fd919U, 0xbdb47c173d5c8a5cU, 0x3cf02819bb3ba5a5U, 0x3c81d3703dfd1ebbU,
  0x3c676af3bda449c8U, 0xbd950416bd52f13fU, 0x3df3d9df3e360cf9U, 0x3defec123ea0e73bU,
  0xbea47c05bd83a569U, 0x3e91d4793e6841b5U, 0xbf05e418bdd39b1aU, 0x3d71fd34be8899c1U,
  0x3d5d0360bdb203f2U, 0x3df6ee6f3d5e4156U, 0xbe60761e3ea51d97U, 0xbd0a6ef2bc62a681U,
  0xbe0f907dbf4c1da3U, 0x3e733f89be18c54eU, 0x3e189a29bf2788cdU, 0xbf21cbb8bdc14e65U,
  0xbdb443debdf58741U, 0xbdd9e3803ead7ef7U, 0xbd8a5090bddae297U, 0xbd2b346a3f480c5cU,
  0xbe825428bdb84610U, 0xbc0d4088bd0aebe7U, 0x3d23ba483c75c121U, 0x3d241718bcd0774cU,
  0x3c22eb973d5d3d0aU, 0x3d87b10d3db7600cU, 0xbe61e1e93e639147U, 0xbeceea563de4a8bdU,
  0xbe913f1f3cbd0237U, 0xbe0c7a083ec5cacbU, 0x3df5f4863e04b30cU, 0x3ddd63a03e927261U,
  0xbe80d8e03f0bf83dU, 0x3e0e28b5bd5ece94U, 0x3da09c57bdd6271dU, 0xbe8cd8c7bdfc34dcU,
  0xbce90bbfbe773a3dU, 0x3e39bb88bef04465U, 0xbe68b68d3dc3319dU, 0xbe2291fdbe6986b1U,
  0xbc45e971be2e8eebU, 0x3d2a6e273e46d1d0U, 0x3f2461cabe16b18fU, 0xbd6482a23e1160f6U,
  0xbead03fcbe1e425cU, 0x3aaa544e3e1da44dU, 0xbd42bc5cbe6e418aU, 0xbe63811fbe1f073bU,
  0x3e95aec33da79516U, 0x3dc6be2cbdf4621fU, 0x3d5b2da03ea10436U, 0x3c9c15083d8a11f2U,
  0xbe0dc9dbbd53c06aU, 0x3e0bcf94bc658887U, 0xbdc19bf43d61e501U, 0xbe866942be40e2e7U,
  0x3d4eb33e3d766953U, 0x3e74c63ebe20b28bU, 0xbf1b1419be079363U, 0xbda3e1e63aaa702fU,
  0xbca5efab3d407c3eU, 0x3d3dd633bdd843a0U, 0xbd9ab1df3ccb376dU, 0x3d492aa5bd651f53U,
  0xbea4bf893ca9bab9U, 0x3e1ddeabbe033413U, 0x3d070546be2fc1bbU, 0xbea0b89fbdbf0e5fU,
  0xbe98d2e0be40d41dU, 0xbcebf2773f1ff89dU, 0x3b04df35bf1cd32cU, 0xbe74af173e068ff7U,
  0x3e550ed63e216401U, 0x3c56543c3ea37a5eU, 0x3e128bc93e6b2149U, 0xbe162e45be228a02U,
  0xbebd5f2c3b40f471U, 0xbdf11aefbec20109U, 0xbd97637c3d641a02U, 0x3d4c19753d5b97a9U,
  0x3ebbe480bed238a1U, 0x3e8310e8be1e16dbU, 0x3e874b373e6a59b4U, 0xbedd0034bd95e75aU,
  0xbe818d9d3dca7b79U, 0x3e5bcf4f3d715b6aU, 0x3c33d9683e9d5fc6U, 0x3d8261043ec4a0e0U,
  0xbcd7a2463e1ff1bfU, 0xbf25d6fabd23c84cU, 0xbd74c5b93d4a7430U, 0x3e1476133da25dedU,
  0x3f12a20dbcb586cdU, 0x3cf533663d9e8788U, 0xbea344d5bd4cd6acU, 0xbd2bfb91bdb32973U,
  0xbdcb53edbcacde4dU, 0x3e2b4fe4becf14d2U, 0xbc8d45223c8fe8acU, 0xbd0bcc643ddd8140U,
  0xbea5cafdbd47087dU, 0x3d71e018be0e0333U, 0x3e2517553db99b18U, 0x3dab1d4a3e5a6470U,
  0x3f35d1f5bd412a27U, 0xbc548c3cbefe1f7bU, 0xbdb92c7ebd641228U, 0xbd0e57cabd922727U,
  0x3eeecbb23dec81baU, 0x3d685781bd8925deU, 0xbd5051c33dadce4fU, 0x3db18701bbe75f52U,
  0x3d2ae20abbd2cedcU, 0xbe0f19a5bd3678b5U, 0xbde7a3d3befbe5e6U, 0x3c9e0661bdf43054U,
  0x3e81e8cbbd7b0d31U, 0xbe8e11eabe32f6caU, 0x3e67ca2f3c712f0dU, 0xbbee5238bd48fff4U,
  0xbf7a73fd3dec2708U, 0xbdd32b773c33ba0cU, 0xbe27a0703d144865U, 0xbd43ffa3bc970f82U,
  0xbd13bdc7bd4af310U, 0xbd815c193d283f1eU, 0xbe84d628bd20e0efU, 0xbd9dee963dbbf711U,
  0x3cd1120bbd8dfb17U, 0xbdc61287bd4e243eU, 0x3d896273be10fde8U, 0x3e59e3373bc4a8b6U,
  0x3d1c479ebccc5b75U, 0x3ea70fe13d645a77U, 0x3dc4ba01be79cb7bU, 0x3c9d6815bd5bb69bU,
  0xbebe00ea3efeebb3U, 0xbedcfb36be88ae34U, 0x3ce57416be06c607U, 0x3eafa447bb97f056U,
  0xbf095eb6bcf03f87U, 0xbbfce59a3d0fe111U, 0xbd22e1323e5ec0f6U, 0x3e18a0d03eb85a69U,
  0xbe1f5158bdd312b4U, 0x3ec0b0f7be203df3U, 0x3ef648f73dea2740U, 0x3e04fb9dbf1c92e8U,
  0xbe268e673e9eaad4U, 0x3e8fd51bbe459856U, 0x3e45e9e53d8c10e8U, 0xbe050bc13e9b763dU,
  0xbe0e2fd2be544f0eU, 0xbddd32413f02a8b1U, 0xbdb2aa883f074bf3U, 0x3e0456d0bd6ec5b1U,
  0xbe24d1293bbe2985U, 0x3c657c35bde70245U, 0xbdef0fae3cd4429cU, 0x3c8bbe25bd8d950cU,
  0xbdcdd8223e032facU, 0xbe090b1dbc6e39daU, 0x3d8c993dbe5afab5U, 0x3dbb5b2bbb4966d7U,
  0xbc921775bd26eef6U, 0xbda4b64b3ca18bafU, 0xbb481e493dffbc93U, 0xbdaa47a33d84fbe0U,
  0x3e7b49aabe4b4ae8U, 0x3aeadd3abdc0a99eU, 0x3e29b8933e1108f9U, 0xbdde704fbbee37edU,
  0x3b9020ef3ca075dbU, 0x3cce4132be47e237U, 0x3d3c7fec3ceadebfU, 0x3c3eaff63dfc9365U,
  0x3dd9fea1becd8f7fU, 0x3e4490b93d442351U, 0xbd4f019d3dcf309aU, 0xbe2d850ebc96d742U,
  0xbd7335c1be24ba07U, 0x3e16caa93e38040eU, 0x3e0e999b3dd13f58U, 0x3e6ec004bd562d8eU,
  0xbe19657ebca38524U, 0xbe33226b3e737f7eU, 0x3de254dbbe89d541U, 0x3e59ca283db7427dU,
  0xbe305455be470d40U, 0x3e99b1613e2317dcU, 0x3d6c08dabf008433U, 0xbe83923ebdd4622aU,
  0xbc98fef9bd4d133dU, 0xbdde71cbbdb0855bU, 0xbe6fcac0be0b4dd0U, 0x3e9a1d4c3e76ac9eU,
  0x3ea2866f3e05ebdeU, 0x3dc9d5e0bc772a7dU, 0x3eb0f6dfbd277baeU, 0x3ef090643dea31e4U,
  0x3ce21f7bbe1814feU, 0x3d596d5e3e0480fbU, 0xbe326fe1bc9d5634U, 0x3be7d0613e0df65eU,
  0xbe4332e03e0de9ddU, 0x3d9549413b350984U, 0xbe12f63a3e8f39c1U, 0x3e210b453e08f989U,
  0xbd1251b53ded5bf8U, 0xbe31a0e5bdb0e846U, 0xbe9045ef3edf22a4U, 0xbd9a64b7be91000bU,
  0xbe514f35bc940548U, 0x3ede72ec3e71f3a2U, 0xbefbe914bd9d72b0U, 0xbaadb16fbe48c7f9U,
  0xbd4dd0d03ddaeb2dU, 0xbe0c722f3cc2456cU, 0xbe77ece2bc76e03fU, 0x3d84bb923f2b82e1U,
  0x3cec78543ceb8ee3U, 0x3e4344813de4be26U, 0x3dcba6753dca38cdU, 0x3d97af3b3e830f88U,
  0x3d94cd8c3d398520U, 0x3eda252e3e298a43U, 0x3e69f46c3d557511U, 0xbc255dbdbe4344d2U,
  0x3e0f207e3e15fe4dU, 0x3dd498453efb7d42U, 0x3e39d9f33e727eedU, 0xbcc96773bdd292cdU,
  0xbde355f03f152745U, 0x3dcb152c3e004c28U, 0x3d30cebebe636aa2U, 0x3db32a673f2d30b4U,
  0x3c2ee1503de70652U, 0xbe2c92273f0e7c82U, 0x3c82761f3d883582U, 0x3dd785e1befbee2cU,
  0x3c81c575bd23f9bcU, 0xbe085b543da1c812U, 0x3ec11c66be1bddb2U, 0xbe5a6ed83de5dbbfU,
  0xbda7f4f2bf0dec37U, 0xbe70a0d5bcdcf113U, 0x3e26b901bdb2550dU, 0xbf00bd3e3d99b1e2U,
  0xbd89dc66be4a3847U, 0x3e84c106bda3aadbU, 0xbcc1f58cbd93f0fbU, 0xbbfb6487bd665fa2U,
  0x3cd8388ebf49a2b5U, 0xbe091262bdd4b52dU, 0x3e6ca379bf32df15U, 0xbf59d9bb3e40a378U,
  0x3bdba9b7be10ec9cU, 0xbd1d97803dded85dU, 0x3df1275f3dc99016U, 0x3d6a18fa3e9eafaeU,
  0x3e134cf2bddae380U, 0xbea95d36bb016db9U, 0x3e8571de3c1b7897U, 0x3d3eecad3dd9d937U,
  0x3dce1654bf085e56U, 0x3de0a6233d346178U, 0x3db14f9e3d48f795U, 0x3dbf9d61be16a963U,
  0xbd2a6523bdcfaa49U, 0xbea8ff02bdeb186bU, 0xbe2283a1bd87e164U, 0xbdfb267e3e30cbabU,
  0xbd7ceb3e3dfff9acU, 0xbe390f163dd89249U, 0xbd5dfeca3d466cddU, 0x3c6d88ac3c8a0c53U,
  0xbd4880703e924b9fU, 0xbe3bae1ebdac027bU, 0x3dff66f8bd86c6fbU, 0x3c2309483e395ac2U,
  0x3e6fcf3b3e4669a2U, 0xbd56c3d7be37c62cU, 0x3ed1502a3e4a3451U, 0x3d07fa183c5e28d6U,
  0x3e3b91a13e292bb9U, 0x3e9af5a1bd07a9f8U, 0xbec0f2f83cc91bc0U, 0x3d960b2fbb887f5dU,
  0x3eba2699be15d008U, 0x3f05003cbe0e4824U, 0xbe9828a83cdfb4b8U, 0xbdbb5f573eb9dc39U,
  0xbe3068dfbe2e0b9bU, 0xbcd262b53e48955eU, 0x3d473bd03dd055a6U, 0x3da59d9a3d683bffU,
  0xbe419945be61702aU, 0x3e37967b3eb1e084U, 0x3e03747abdf2dc70U, 0xbe95ff97be32d86eU,
  0xbdb47b3fbde74e4eU, 0xbdf180353e8dd3e8U, 0x3e096e60bdeeacb2U, 0xbda3f7533dc1f087U,
  0xbd580a1d3dd6e624U, 0x3e6d0cc43e140bfbU, 0x3df06a153eac4aebU, 0xbcbfc2b13b84b5f2U,
  0x3d4953ea3f0cad33U, 0xbec9de11be8dad58U, 0x3d12ae6abec8c7bbU, 0x3dfb9d0a3d06d4b2U,
  0x3e8a6871bd68316eU, 0x3e2f08a93e88b6d7U, 0x3e1ee9cfbc3becbaU, 0xbe488988be24b2d4U,
  0xbeb4841f3cd89b11U, 0x3eab01783e993263U, 0xbd164fea3b92a3daU, 0x3c783174bdcec0ecU,
  0x3d3c38b13def8b27U, 0x3de8dc793d0af61dU, 0xbdfac2813d5f45c6U, 0xbe9180b7bd55db91U,
  0xbf0be20cbdafb984U, 0x3e8a92b43eb52e18U, 0x3e3eeeb3be66afc1U, 0xbd8e3a7abe87019dU,
  0x3d318de2bd913c19U, 0xbe2343cf3d8da9b1U, 0x3e816af63effe4bbU, 0xbddf8a303ed3c0baU,
  0xbd5fcec33e05153cU, 0x3f0f27303e20f188U, 0x3d53df3f3dfbc289U, 0x3e06ce873e02646aU,
  0xbe1f47e13e03377eU, 0xbec89d14be373d79U, 0xbda82fadbdf27446U, 0x3e4c369d3d7cd234U,
  0xbdd3f8683d52a96fU, 0xbdbf17963dd5bc9aU, 0xbbf12dcdbe090632U, 0x3e3525f7be131ba1U,
  0x3db26e643e9d7ca0U, 0xbebb4bf73d68a541U, 0x3e1202243ecd0799U, 0xbe407fd43db5f57eU,
  0xbe3470213d284bacU, 0xbea53b0bbd055c0eU, 0xbedaa80a3d101d9dU, 0x3d73c062be908014U,
  0xbd70b2d93eac6bc2U, 0x3f0344bdbd9e46a1U, 0x3d6c1604be868bd7U, 0x3dd760613ead9793U,
  0x3dd7aa99bd87d55cU, 0x3d7dd1073e6a170cU, 0xbcb98463be3683d8U, 0xbd54fef6bdfa8c5aU,
  0x3cc1b6c3be030ef9U, 0x3ebde02ebdf7066dU, 0x3c6fcae9bdc8bb64U, 0xbf121ebc3c84ed0dU,
  0x3e8d505d3dbc80a9U, 0xbdb1a3aebe882994U, 0x3ea13559bd231d67U, 0x3cf216cdbe34a4f3U,
  0x3de15093bc0567c9U, 0xbc95576f3e198b94U, 0x3df3c1433c12ff4fU, 0xbf018e0a3e244e83U,
  0xbe70e7d43cb4388fU, 0xbd39f24fbc067b9eU, 0x3db294783c04df38U, 0xbe97ec0cbd184bceU,
  0x3d6e1cd13ec49369U, 0xbd89c9b7bd9f45fcU, 0xbe10fca0be9cf35dU, 0x3ea6e1603e4887ceU,
  0xbdd6b8673e309c22U, 0xbe8c0aa0bed43132U, 0xbe129b0a3d5c7c18U, 0x3de00932bc6b3963U,
  0x3e3637793d8e4c21U, 0xbe316806be26167bU, 0x3e0c7aa0be682bb3U, 0x3dfbae6a3e32ba74U,
  0x3ec81b79be16bdbbU, 0xbd161719bbbd5e97U, 0xbe320c7a3efe9409U, 0x3d6bd510bdc29befU,
  0x3e7b8aca3d9baa2eU, 0xbdca60c2bdd3a78cU, 0x3ed29ccc3e4f9541U, 0x3e9efee8bde3671bU,
  0x3e98fe1b3d97f448U, 0xbe5d2ad8bd288c8fU, 0xbc93661d3e235f5bU, 0x3de1cbd5bd93e1dcU,
  0x3e95d98cbebcf6bdU, 0xbd86e3a7bdfd1f8aU, 0x3dc6d2aebe2b3d5fU, 0x3d26aa89be76342eU,
  0x3e39e8d5be82b3dfU, 0x3e1e8659be47e06aU, 0x3deec77f3e2676a9U, 0xbd2fa057be42bba1U,
  0x3e9d09af3daee50aU, 0xbd72dd14be9edbb8U, 0x3da4087fbd84c71fU, 0x3ca732f7be321678U,
  0x3ec0371abe965ec6U, 0xbcef29f83e484357U, 0x3e362d9cbf00919cU, 0xbea4fc45be2ca9d7U,
  0x3e28eca6bdaee9c2U, 0x3e596279bd604f90U, 0x3de9699cbe0eecd4U, 0x3dd28ded3eddf505U,
  0x3e2195c5bcda0423U, 0xbddde09d3d4337bcU, 0x3e9736f63dd266d6U, 0xbd0e48673e8343b6U,
  0x3d808de3bc88807eU, 0x3ca18f6b3d640e60U, 0x3dcf838fbd1d78f8U, 0x3f0a6ad7bc439744U,
  0x3d123bc43b34e10fU, 0xbe28f317be319371U, 0x3ca098efbd5f6385U, 0xbd5592bf3e85ea54U,
  0x3f4dc9cd3e0e5638U, 0x3bb6125bbe31dcd9U, 0xbe75de41bd587e6fU, 0xbdb9f6273de27438U,
  0x3ca8999a3e3d4b70U, 0xbd87184abea994bfU, 0xbd96d2bcbcc13912U, 0x3d88c48c3e6df5ecU,
  0xbd5f91dd3e1201a9U, 0xbc5d3a5fbeb8a838U, 0xbe6b89643b0c3512U, 0xbda32197bdb12556U,
  0x3edbc5923d8f56baU, 0xbd8663af3e19956aU, 0x3d342a163d75bdfcU, 0x3d2f61353b1bfa8aU,
  0xbf11032c3e0d56c7U, 0xbe414dc63d277215U, 0xbe1e63f5beb9780cU, 0x3da81295bd96d121U,
  0x3e9158a03ac83d18U, 0x3eb6fe613cede49bU, 0x3d006eaabf04c0d1U, 0x3c89002ebe6ad196U,
  0x3df54c103ee9037dU, 0x3dde0c723ed0db30U, 0x3ebaa0b23f5d0de5U, 0x3d5d78203ed0f777U,
  0xbec7e5a83c40f100U, 0xbe612d383edd09b7U, 0xbf235c00be98aac6U, 0x3ee7c3013f235511U,
  0x3f48e98ebf366d21U, 0x3f82a1983ef7463aU, 0x3dca50003f353da7U, 0x3db58d343eb89507U,
  0x3e8cdbcebf0050a6U, 0x3f0f53123f51e225U, 0x3fae69c03effe8ffU, 0x3ddad327bc659408U,
  0xbed948c9be6d784fU, 0xbecf36ddbe3bdb0aU, 0xbedafcd5bf385515U, 0xbe95a051be3075aeU,
  0xbe251ac2be7cf4ffU, 0xbe45bde4bead9f35U, 0xbf09e175be80f59aU, 0xbdc3d14cbea35e6bU,
  0xbe36c9f7be913cb6U, 0x3e6699f53e25b156U, 0x3e9f5ebc3d8e7538U, 0x3e8bf8e63f0ad085U,
  0x3eb6efa03e428a95U, 0xbe9a6a0b3e41159aU, 0xbe382235bedf4e57U, 0xbf32158cbf09b617U,
  0xbe8e0f01be575472U, 0xbd5f2976beb73a53U, 0x3ef6a92a3ee1ae4fU, 0x3eebe1133da69edcU,
  0x3ea992533f305c54U, 0x3e8e543d3d9f9db0U, 0x3e6684d53e546789U, 0x3d993cf63e886da3U,
  0x3effd0433f0199f3U, 0x3eb67f3f3db44337U, 0xbcaefef73ea1c697U, 0xbee29f94bea81aacU,
  0xbeeec736be3c24d8U, 0xbe4d21c4bf04f967U, 0xbe48a1a4be30405aU, 0x3e878c73bde2b258U,
  0x3db7d9d03ea27be4U, 0x3f1cd2993ee9c65aU, 0x3e6cc7353e849769U, 0x3e6359fc3ed4e93fU,
  0x3eb3c7143e953ac0U, 0x3efca7823e00a3d4U, 0x3e7dd4cf3f220eaaU, 0x3eb6ec0f3e569ecbU,
  0xbe7b31d83e3dbd8eU, 0xbdbcc39bbe9d16abU, 0xbf1de003bf062a5eU, 0xbea9c200be3dfdb8U,
  0xbdb0e87fbebbae26U, 0x3eff6f913e93fc31U, 0x3ed123cb3e67ec77U, 0x3e9076243f220a0fU,
  0x3e847a9c3e3d8e11U, 0x3eaca7023dc76bddU, 0x3e02a2bc3ededce0U, 0x3f153aab3ebf3534U,
  0x3df4f1953e6d5ce4U, 0x3cf017413e371669U, 0xbeb5084dbe7874a5U, 0xbee81718be1ee68bU,
  0xbe3a7a60bf1157e1U, 0xbe916480be8a40c2U, 0xbdf7770abc8e91f8U, 0x3d7ed2ddbd519d2dU,
  0xbf084a54bec7b571U, 0xbe93dccfbe1e2976U, 0xbe83e6c8bf047f5bU, 0xbf033256bea34a64U,
  0xbe5fb59abebdbc05U, 0x3c46d77abd7a0237U, 0x3eda079c3d8ec71fU, 0xbe94d3ff3ea2d25dU,
  0xbde12541bec97f0fU, 0xbf331cd7bee4ac9dU, 0xbe46b9c0be90ddfdU, 0xbe200500beb7d95fU,
  0x3ed706493e79a000U, 0x3ec9dc923e4bf182U, 0x3e9489003f26c527U, 0x3e97602b3e423641U,
  0x3e4978163df37aabU, 0xbe39b19a3cb191b5U, 0x3ed746693ed0c119U, 0x3eb090d23d1a87afU,
  0x3e38c81d3ef5b7b2U, 0xbf2a18a4bee7affdU, 0xbf1c0d7fbe990cb8U, 0xbeaee2f1bf4e1569U,
  0xbe66c538be5b1e37U, 0x3e9173c7bdacc360U, 0x3eab50d13f08bba6U, 0x3f6924673eff2cf8U,
  0x3eaa19a33f07466cU, 0x3e27ef1a3f02ad12U, 0x3ecc3837bddf2e1dU, 0xbe9421df3f0cb1c9U,
  0x3eaba1d73ddf5c47U, 0xbeca93e3be45d1aeU, 0xbeb309c7be9985a2U, 0xbd50215cbeba8e04U,
  0xbf2e68a2beea9ee5U, 0xbe28ecdebe95c565U, 0xbe7f851abebda2acU, 0x3eb2177d3e9d769eU,
  0x3ed6f5b63e166f91U, 0x3e70ace53ef383aaU, 0x3e49ece63df6a948U, 0xbe6bf77c3df43610U,
  0xbe0f08ccbe9bb20bU, 0xbf174c9fbed2aaa8U, 0xbe4fc7bebea5f252U, 0xbe762f4fbeb8c36cU,
  0x3ebf0fc63e217d4fU, 0x3e2ddece3e63cb61U, 0x3ebc8afb3f0248faU, 0x3e2f624e3da01ab8U,
  0xbe60ece23e1b061dU, 0xbe98c6b8bed59f6fU, 0xbf06b0d3be78a309U, 0xbda63e6bbebc7593U,
  0xbe2fd68cbe5bb0bfU, 0xbea216a0be5cd44cU, 0xbef4497fbe21bca8U, 0xbe8b5d0abf267b05U,
  0xbec5ee3abe8cdc3fU, 0xbdbee23ebe2e5d57U, 0xbea6050bbeb313ddU, 0xbf1ee10abeab65f5U,
  0xbe76ed00bea6dae9U, 0xbdb21c1cbea4e0d3U, 0xbe9b6b21be8792e6U, 0xbec7fd09bdf76e86U,
  0xbea4f174bf21437cU, 0xbec1a6adbe1aae4fU, 0xbe8ea6b9be7eccc3U, 0xbe4da383bedbd412U,
  0xbf23938dbee6b8cbU, 0xbe5afd2dbe9b6b89U, 0xbe2a2a24bea4b4b4U, 0x3e64e95a3dfc0250U,
  0x3e66958c3df0855fU, 0x3eb4d3c93f04cbeeU, 0x3ec1d2133e156634U, 0xbe8c119e3e8f4f4dU,
  0xbe1d8e26bebffb01U, 0xbf1dfbe8bee45890U, 0xbe4763c5be8bd2b7U, 0xbe0ecf01bea1bfd4U,
  0x3d1dda673d901902U, 0xbc2393a83cda6bd2U, 0x3d4239eabcb0d414U, 0x3d2565823d1d5909U,
  0x3cd8bc12bcb5e2beU, 0x3a81a3e83d4cc93cU, 0x3db3e546bb7822d1U, 0x3cbada883c12f679U,
  0x3cdc98a4bcdd3e55U, 0xbdb0dab6bbe7e13aU, 0x3d9c291f3c79631aU, 0xbd42c5643cfecb94U,
  0xbd63caf63c62444cU, 0xbc8913c7bbc9ae0aU, 0xbd37d0423d14b3a6U, 0xbdb6c815bd53b417U,
  0xbda1490abe02fb64U, 0xbccb5f7a3db038b3U, 0xbddb4047be0105bbU, 0x3e0aa9e8be045e94U,
  0xbe159bdf3db40fc3U, 0xbe36fc273c95d70bU, 0x3ec10d9c3ea927baU, 0x3e2d7fb0be2fee9dU,
  0x3e5f743a3d5bad41U, 0xbde783093dfa88c2U, 0xbca243dd3de5e151U, 0xbe4f2810be3af2d7U,
  0x3e905699be194917U, 0x3d7964a7be254b6eU, 0x3e18d53abcfa55b9U, 0xbdd974ecbd11b99eU,
  0x3c7ad213bea1527fU, 0x3e8d168f3e7fb501U, 0xbd6c6d3cbec218c9U, 0x3ddb71753e960df8U,
  0x3e5e053fbe0e1779U, 0x3d65963d3de9c32cU, 0xbc8b39583d927a40U, 0x3e8743f9bc88ec80U,
  0x3de12facbdc78098U, 0xbb63e0a83c68ff10U, 0xbc7440c03eece978U, 0xbd5ba604bd93d0ddU,
  0xbdaeee963de36993U, 0xbdf83af73d6da0a9U, 0xbc805d3dbe65e668U, 0xbc65d68bbe1fe87fU,
  0xbe385eb13e1ea519U, 0xbd7878823ccc2b12U, 0xbe8f40bc3ca90fa2U, 0x3cde35ebbcafec19U,
  0xbdbd76493e726c9fU, 0xbd231ac6bdeeb687U, 0xbe2496b8bd2961f1U, 0x3dc5d4e9bed25be4U,
  0x3ccba9a93e72b93bU, 0xbdec10ce3e3da5d1U, 0xbe0e5bc6be14dc3aU, 0x3ea454e2bceb4d85U,
  0x3db8f00a3dfda063U, 0xbdecc6efbdf5a9a6U, 0x3ddfe0d5bcd0ccaeU, 0x3e359a3b3df69b5eU,
  0x3ea38eb0bdbf8349U, 0xbce0c4a13d839cacU, 0xbe1f686d3b988292U, 0x3e0f5734bdb6ff72U,
  0x3ebe3dfebc18a7d9U, 0xbe15f26c3d8ea8cfU, 0x3d9a41783e3d1f07U, 0x3def851bba91d981U,
  0xbe1f854ebedab225U, 0xbd4bdc71be34e23fU, 0xbd2817523e818e36U, 0xbd119e47be453b18U,
  0xbe9d5f10be6a9ad5U, 0xbd9a65493e7e753dU, 0xbecdadff3ddea629U, 0x3b18fce6be1fa484U,
  0xbe3ee3713bc90008U, 0x3f178b96bcb867d4U, 0x3e21cd96bdd1728fU, 0xbd99b5c0bdbf45e8U,
  0x3ee0beec3d9c61dbU, 0xbd8ef4743da5f58fU, 0xbdc071aabcd81d5aU, 0x3dc1c2ecbc8f642aU,
  0xbda58aeebdeca1a6U, 0xbdfb16a2bd856e7fU, 0x3e408f2c3e8f6779U, 0x3e9cd5a5bbbd62b1U,
  0x3ca51c2cbe68ba43U, 0x3e5771033e460c72U, 0xbdc1c5dabda3b5afU, 0xbdd96d183d05b7a6U,
  0x3ec291e0be987fd3U, 0x3dc228a7be18f506U, 0xbe809027bec8e9e7U, 0x3ed9e4fbbf15007dU,
  0xbdb55b69bdf43e77U, 0xbec41fd1bd0901f6U, 0x3d6578afbde92a5eU, 0xbdc0473bbe9a4eeeU,
  0xbcd1bbcf3b0aec49U, 0x3d989babbd825cb5U, 0xbebf51b63e266d19U, 0x3f08a773be4b870cU,
  0xbe3b894f3db57844U, 0x3eb038d63e877c65U, 0xbd7d01a7bd528e69U, 0x3e3e53273e7ddc77U,
  0xbdbe8eccbcf4e35bU, 0xbe261cb0bd0fbd05U, 0xbe72c32b3c8317cfU, 0x3da43f87bdbd533cU,
  0x3eb630d2be1e21e9U, 0x3e9a9e6fbce52e35U, 0xbd4908163dc024e3U, 0xbd9d36b9bda62f94U,
  0x3d42fe043cd90235U, 0x3d1c89b13e369d5cU, 0x3e79eb9f3b17ae7aU, 0xbe1d9b48bd9c8f62U,
  0x3d97fd9abdf16bebU, 0xbe75ae363ee30e4bU, 0xbeb0e8fbbd225804U, 0xbd8232babeb43378U,
  0xbe2b6e3cbd9a96b6U, 0x3d94f27abe3bfc94U, 0xbdc117b3bef5d076U, 0xbe1e828a3e319a76U,
  0x3e4dca0c3ed20f7fU, 0x3e11ea87be99b3e9U, 0xbeae59cf3e5de4d4U, 0x3e8587ac3f06721eU,
  0xbd2ca084bde9aa8eU, 0xbe03e0323df00bdeU, 0xbdcda526bd92a1ecU, 0xbdad8ea9be15bcbbU,
  0xbe8367053e8b7de3U, 0x3d0c746fbeb774b4U, 0x3da47bd6bcdfb0e4U, 0xbc60eb6dbdfb2f57U,
  0x3d96c85a3dcea62fU, 0xbe298233be473182U, 0xbe18c98cbd399737U, 0x3c99b10c3e8c3223U,
  0x3e145e693e6944abU, 0x3e00284f3eb2a8deU, 0x3e10a1643d8ba009U, 0xbd90aec53da8c7b8U,
  0x3dc755b63ebb5ba2U, 0xbd2390823e51f1dfU, 0x3cbcc5993ce07191U, 0xbda45920be79cea0U,
  0xbd416b36be65faa1U, 0x3da4635d3ec0272bU, 0xbdf3a1563d19422fU, 0x3d249380bf04619eU,
  0x3c2824203df675daU, 0xbc51e8f13e4a9e21U, 0xbaea1c37bed8d9d4U, 0xbed7f82b3f048644U,
  0xbdaa1c9fbe7ee8b4U, 0x3cf33df73e199446U, 0x3e22323e3ee07499U, 0x3d3d91cbbe1f22f5U,
  0xbda26f59bcdbb9abU, 0xbf0cf94d3dcafa2bU, 0xbe952c653e149bf8U, 0xbf286944bc6899fbU,
  0xbe038b7a3e379f1eU, 0xbea6d668bda0e79bU, 0x3dbdcbfc3e61ceb5U, 0x3e1435b4be6845c0U,
  0xbe6f9651bda0b7b3U, 0x3e24ef4ebe3cd1b6U, 0xbe3408b83e14b5f4U, 0x3d13cd7c3dac0ec4U,
  0xbd87409abd79e031U, 0xbdca6e563e269296U, 0xbdb8fc47be27f77aU, 0x3d4280a5be98fffbU,
  0xbe1f46c33cb13412U, 0xbedc61b43e9d3221U, 0x3e704ffc3e15ab13U, 0x3d0d45ad3cf6ba85U,
  0x3e48abfabe264ae5U, 0x3d6351cbbd0eb32bU, 0xbdcfbbeabe189288U, 0xbe4fed183e187a36U,
  0xbe51178ebd2b1132U, 0x3ed40c41bc68bbffU, 0xbed05aec3e5f26cbU, 0xbe04664abd9ef6d5U,
  0x3d28ff97bdf3d98dU, 0xbe32a0a3bd93c6a7U, 0xbe0f38053e85e5aaU, 0x3cea3ab03cafd05cU,
  0xbea5c8cf3d3a5f0aU, 0xbe6483f13edc6cd0U, 0xbe6604703b35d855U, 0x3d61de30bcaa0187U,
  0x3e1a83b73e84fb92U, 0xbdd18c9dbe066b0dU, 0x3da1251d3eb0a734U, 0x3d56c3293e7cd8d4U,
  0xbdbcfa863cfa777bU, 0xbde97c1bbd6d9857U, 0xbde4f5923e1826caU, 0xbd12efa43e714b46U,
  0x3da78ea23a53a395U, 0xbdd384b2bf23f7f1U, 0xbd9f17f4bcdc1c69U, 0x3e2b36893d584be9U,
  0x3dcc2cc9be14816cU, 0x3e0d98e7bd822b5dU, 0x3e3842f3bd223e07U, 0xbe46c1c93efbaad2U,
  0xbecba9c13d38a91dU, 0xbe943b33bd13e36aU, 0x3d9cecb23c850e1fU, 0x3e43888a3dadcaa0U,
  0xbdc927c2bd734c92U, 0x3f5800f4bce1a78cU, 0xbd54011fbde46537U, 0xbd8f4d0e3d102454U,
  0x3da5185f3da948c9U, 0xbf1bb6c9bd7053fbU, 0x3d1849d63ead7aceU, 0xbe863fa5bd72dbc2U,
  0xbdba88423dbff47cU, 0xbe5d1603bd036aa4U, 0x3d711dcb3e60e42fU, 0x3c0480c93d7fcaaeU,
  0xbde07964be40cfadU, 0xbd2ac170bd5ddf49U, 0x3e4631873d998c1fU, 0xbd2d930f3e342e92U,
  0xbeaf66d6bbab22eaU, 0xbca991e63e864574U, 0xbc546b1cbe028d1eU, 0xbddda507bd9559f8U,
  0x3d8bb5b7bea9a25fU, 0x3e167f8b3dd806e1U, 0xbcdc7609be10ad67U, 0xbe0e2ca4be90f5b4U,
  0xbda55c2dbd652278U, 0x3cbba3233e4420f8U, 0x3e6f181dbe522e78U, 0x3d636866beca5142U,
  0x3e0122123e770160U, 0xbe1005323db2f3f8U, 0x3e5c4f65beabcc4aU, 0xbe9dbec6be19fdb4U,
  0xbd7f2d7bbe28ad5aU, 0x3e073590bbe8a712U, 0x3e64fc4ebe82f3c4U, 0xbde6d25c3ecbbbb2U,
  0xbb2e5083bd9c8ed2U, 0x3dbd3445be127511U, 0x3e404fe5bd46c6e3U, 0xbdc23b45bdac0f98U,
  0xbe3756953e064d0bU, 0xbd1b07c03e48f73dU, 0x3ea44f6e3dff692fU, 0xbe41db7c3d19cac7U,
  0xbd4d15963e08a71dU, 0x3e856476be2a45f4U, 0x3dd6c600beab527eU, 0xbe0daa4c3d518dfdU,
  0x3b36b1863cb7486aU, 0x3e322c2f3ca73d95U, 0x3c03cc7e3ba96396U, 0xbe1936043d311ff4U,
  0xbd672f3d3e531615U, 0x3e491dc5bed86435U, 0xbd2e44873ce11fabU, 0xbec2539b3dc1432eU,
  0x3e24cd1a3d6d8d9aU, 0x3ebbd733bed38cd2U, 0x3c464811be57f470U, 0xbd1bb8dbbdc27e80U,
  0xbdf398353d06b920U, 0xbd924f843e017e24U, 0x3e2ab182bd686992U, 0xbd890e20bdb3c1e0U,
  0xbe258247be5e499cU, 0xbe828ad53d865fd5U, 0xbe416a39bee82ecfU, 0xbb3a9f9fbdabc084U,
  0x3daa4a2a3ebacfc0U, 0x3deca36abdd20ea3U, 0xbd5a333b3d6dadd8U, 0x3db03406beadf295U,
  0xbe21fb00bf007b35U, 0x3dd6bf233cb19ff7U, 0x3d3812743e19eaf7U, 0xbcf6fc03bcb68791U,
  0x3c07d13abd666220U, 0xbce5e1f7be90d80eU, 0xbe160757bdfeb468U, 0x3e16cc1c3e150660U,
  0x3ce4b2ea3dc2d78dU, 0x3e6e3c993d254744U, 0x3d8428d0bd21778eU, 0xbd12ba8abd5a1127U,
  0xbde986f8beeedb4fU, 0xbf0dd7febdc2f449U, 0xbccd8c32bd9e5e69U, 0xbda2eeb9be1c7b8dU,
  0x3ec3d4883e9cf9e9U, 0xbe1aeaa9be166143U, 0x3d6e7974be27e119U, 0x3c08b264bce408e5U,
  0x3caea26b3e8c0684U, 0x3dba4a3d3dc8a313U, 0x3d850a793d331c9bU, 0xbea05673be1f83d0U,
  0x3eafa6aebe2758bcU, 0xbe47a027bce86135U, 0x3da65b98bda228afU, 0x3cca7af8bdcbc75bU,
  0x3e07a2623e44988bU, 0x3e9021703e3aa76bU, 0x3e4317493cd62cb8U, 0x3e6654923e2fdf53U,
  0x3e75ece4bdcb0ef6U, 0x3a955e20bdfc350dU, 0xbe064b263d240a79U, 0xbd941bf23de9b54eU,
  0xbe73cbbdbecd835bU, 0xbe1aaa883eaab123U, 0xbbfeb10dbe74e1adU, 0xbd746dc8bf22e7f2U,
  0xbdcc8b8ebdfee9f7U, 0x3d8f551a3ded4540U, 0xbcac6a7abe83abf0U, 0x3ba873b83cdd8abcU,
  0x3c19947dbe61fb8fU, 0xbe4400e13cfaa7e4U, 0xbecf75123e3540c4U, 0xbe5f4e983d737a6dU,
  0xbe79f8253e00aa7aU, 0x3e6ba6313d087d5dU, 0xbdeb1234beb4587aU, 0xbc3a05a5bd8650b8U,
  0x3e38a2f03dcc3077U, 0xbc967a5c3db8af23U, 0xbe57d18bbce290a6U, 0x3d4db16a3e911c67U,
  0x3d40971fbe707220U, 0x3ebfb2323ee773b9U, 0x3e4922563eb073cdU, 0x3cc54880be4cff34U,
  0xbe16bc423e1790e1U, 0x3e81e490be5d0bafU, 0xbe3d2e703e83fcf2U, 0x3e88bd1b3db91c14U,
  0x3df0524a3e99add6U, 0xbe12de0a3e80e8b8U, 0xbe087201be3a9122U, 0xbd5634753e2b2dcdU,
  0x3d93b294be64a59aU, 0x3c5e22cc3f1132d7U, 0x3e101b8cbe248f22U, 0xbd1bbdd93d6c43cfU,
  0x3e6e6cd63eb24d09U, 0xbe0e4411bd490d91U, 0xbe1b09ef3c7fda2eU, 0x3df4c4513e1551c3U,
  0x3a3b1c5ebe721583U, 0x3e03ae193dcd6d02U, 0xbeb38c15be99bbacU, 0xbd9e58d43e73e6c6U,
  0xbe07ecc9be686e70U, 0xbe72c4c63e8dd5d3U, 0x3e1c52d0bdab9b82U, 0x3d9d385cbc705a64U,
  0xbe8736ab3d0d8398U, 0xbda7a140bc7eda8eU, 0xbebf1b57be234f27U, 0xbc688c763dc51c0bU,
  0x3e7066dc3e25e6e7U, 0xbd6d2d243de339bbU, 0xbd8b5500bd89b51aU, 0xbd3c43623d9d40ebU,
  0xbd751a613d5f51fbU, 0x3e24f8263d83666fU, 0xbec60556bd946b5eU, 0xbcef5baa3d4c1ffbU,
  0x3dc55f01bd1f543dU, 0xbe80c0433e7a6ec8U, 0x3e7ae2a5b9fc352aU, 0xbe34cd873e752cbaU,
  0xbdcb6ac63dadf978U, 0x3cc707ffbcf6e997U, 0x3d8ca1b93e9b9ab4U, 0xbe1f89563dc0e9a2U,
  0x3d07bb443cace0c8U, 0x3e21aea2bdd8e6a4U, 0x3db94184be5ee014U, 0xbf5a6f54bec66f48U,
  0x3cb90a843db846a5U, 0xbcf94a623e909361U, 0xbde1d2343dcd9001U, 0xbe276d0639998fa7U,
  0xbe6e61e9b9fb28b4U, 0xbe4807ce3d41b562U, 0x3e8697103ea61f47U, 0x3db929f4be1ddbadU,
  0xbc785043be8d9074U, 0x3e90fc08bd3c81c5U, 0x3c0167c6bdd653fbU, 0x3c7df223be295c3fU,
  0x3d21d7c8be05857cU, 0x3e682f33bd87f40dU, 0x3d9ff86fbe2eae86U, 0x3e1cef773e843782U,
  0xbd96ca8f3eb8c702U, 0xbd0d5aa43ec1d666U, 0x3e6754ad3ea94ba9U, 0x3e788191bc80f13fU,
  0xbd2756d7bd91d8c8U, 0xbe39db513e902eb9U, 0xbe072a003e8cabdeU, 0x3e4cc2ea3d8d4cb9U,
  0x3e8b77f13cb5e3bbU, 0xbc1fc3ccbcbcc9aeU, 0x3edcbf0b3df6d6b9U, 0xbe8960fe3ea11e63U,
  0x3e8342f63e9bb98fU, 0xbe97418b3e9d1c94U, 0x3ca4f63f3dca6df8U, 0xbe3dffcb3e4efcc6U,
  0xbe5d9f083d58806fU, 0xbd438592bd2db1deU, 0xbaf2c6c1bd924466U, 0x3dde33dd3e33637dU,
  0x3dd95d54bea23577U, 0xbdc0027f3e5648d9U, 0x3dc394173d8ef625U, 0x3e706266be802f5cU,
  0xbe6d7800bd3ae544U, 0x3e4fc4ddbe419176U, 0xbdcd32973b6ea9a3U, 0xbebf4bc0bd854adcU,
  0xbdd3d7463ee05a34U, 0x3c8488d6bec2e933U, 0x3c9688103dd22c91U, 0xbe86304ebebfe727U,
  0xbe0183323d0e7e79U, 0x3e3efbeb3eb7c0e6U, 0x3e3b0b793d312ca0U, 0xbe2c13ea3debe4caU,
  0xbcdc47b5becaf2b6U, 0xbe26287a3e09c804U, 0xbe6681b13e114e0aU, 0x3e461bf63e7bb52aU,
  0xbe8654663e0a82eaU, 0xbe249f88bd9d1f88U, 0x3f03b34bbe708060U, 0x3e66938e3cf47a27U,
  0xbe0f04c23e6af1a8U, 0xbe1831e7bc2d110bU, 0xbeb0a1db3e7d5ffaU, 0xbebbd7afbe442786U,
  0xbe45ddf93dd66f04U, 0x3d8b73ba3e55e46eU, 0x3e1b5089bd017c64U, 0xbe84198bbe211105U,
  0x3d562e97bd91242bU, 0x3e75a2f83edc6823U, 0xbdb11bf23d813d3cU, 0xbe4461963ce3a940U,
  0xbe160a34bd4f367bU, 0x3e2a53db3dcd5969U, 0xbe429fce3e129dedU, 0xbc4a665a3dce46bdU,
  0xbe2ca1633cc12527U, 0x3c86328a3eb6cdd2U, 0x3dd351863d01d3f5U, 0x3cd90623bcafd3a4U,
  0x3dd078e3bd6980a9U, 0xbe0cf6f03e70f5d1U, 0x3eb7caae3d5b9464U, 0x3e85941cbd474b66U,
  0x3a2005c43d49ae26U, 0x3de12b2d3dd61c85U, 0xbe8e09923c8c2d75U, 0xbdf4b0743ccd3613U,
  0x3d78b0ddbe8f0c7bU, 0xbecfb78e3e29a0d2U, 0xbed8c8c2bbd4f0f4U, 0xbcff2055bd850018U,
  0xbc9528e53eec9461U, 0xb90f20943d370315U, 0xbd9e200cbe968bedU, 0xbd8a9427bdd3f4c6U,
  0xbdf43dc83d6e05a3U, 0x3db0073c3e8f1768U, 0x3dd54f533e5aa14eU, 0xbd1d6cfebd610efeU,
  0xbebb1d893d3282c4U, 0xbec8f4b73ea8d40dU, 0xbe8ce5ca3e893eabU, 0x3e0ecd72be127db1U,
  0xbdafa49c3e3cd4c8U, 0xbc9bfee7bdd16bb5U, 0x3dff47a6bea7ba5aU, 0x3d50bf9dbe020aa0U,
  0xbe095d883d919ec5U, 0xbbded52abc333bb2U, 0xbf1a1ea4bdc48973U, 0x3decddbc3dc9ec87U,
  0x3f40bea03ce81b61U, 0x3c74ce103d954635U, 0x3d4825013e97b066U, 0xbd0473013d6e6fcdU,
  0xbc321a4c3dba564aU, 0x3cafd967baa3f170U, 0xbd9f5497be4177ffU, 0x3d43c05ebc3afdafU,
  0xbc5e1dae3e00fe6aU, 0xbdd137773e869b7eU, 0x3d9ef5ef3e33c977U, 0xbbb78ae0be9df821U,
  0x3de9a4f4bdbdc8a3U, 0xbd25c40d3d963b63U, 0x3d4c8b8dbd796f51U, 0xbea2ab433e259a8cU,
  0x3cc8cd04beb4361fU, 0xbdea87883e63737eU, 0x3dc20e9dbe13a357U, 0xbe6dcad6be5705c6U,
  0x3b11bb4b3da15822U, 0xbdbd2820bd5ec003U, 0xbe62b3c43d937811U, 0xbe990a6abdf59899U,
  0x3e24d2193e26c51eU, 0x3eb2fa4fbdaa7d86U, 0xbdc96f37be362ea0U, 0x3f834de1be477377U,
  0x3cb475943e90bbe4U, 0x3d444dc03e92b0d8U, 0xbd1e25b13e4cb007U, 0xbd1981143c00576eU,
  0x3e4bc575bd95bba9U, 0xbe278e9b3cd0a815U, 0x3e50a0ec3e955d08U, 0xbe1ca2373d9912d5U,
  0xbe768d7abed00055U, 0xbe363b353e796cf0U, 0xbec6dc903e135ed1U, 0x3e7d7fd93e7b6d35U,
  0xbebd42a23e6a7b44U, 0xbe6e28e63dafd106U, 0x3d7aa828bdc10699U, 0x3c0b1d91be13203bU,
  0x3d8d0c4f3ea5e420U, 0xbe10f1d0be22a962U, 0xbec11bfabe4f4764U, 0xbd400592bdbd2246U,
  0x3e6e0e9f3d956c75U, 0xbd6dc0b53d870db7U, 0x3e6147793e4b6b02U, 0x3d6657c93e02aa54U,
  0xbe4bfedebe91babaU, 0xbe98da893d3c7d94U, 0xbd8803553e3abd4cU, 0xbdd54e35be8edb2cU,
  0x3dd7307abcde8f86U, 0xbdd0c103bcc64a73U, 0x3c0059993d104052U, 0xbc94c77bbc6b9fdfU,
  0x3e69eaacbed2a3a7U, 0xbebb518d3e0e3f45U, 0x3ca1b51a3e8bffc0U, 0x3e2318dbbe939dc9U,
  0xbe60b66ebeab315dU, 0x3e83cc39bd98d3e9U, 0x3e1811c4be653fbeU, 0x3eb549c2bdff7580U,
  0xbeada965bf42afc6U, 0xbee7862fbe8c8644U, 0x3ed6cc3dbe62c356U, 0xbc7c7a62bdab0afcU,
  0xbe7fa42e3e85335aU, 0xbe4b1e693df5e6a8U, 0x3dca31593d21b953U, 0x3d6b83bf3deef711U,
  0x3e44bf3abeb94c64U, 0x3db5d9cc3e6a8156U, 0x3eda25cb3e4940d9U, 0xbedc2675bd85f0b1U,
  0xbf1c274b3d805cf2U, 0xbda231fa3c7e58f9U, 0x3e22ff36beee081aU, 0xbd5c5726bdab273aU,
  0xbd6f1bfebd88f28dU, 0x3ea72d1a3e3601b6U, 0x3c33504bbe56c558U, 0x3ea0a4dabdde7bcfU,
  0xbe88e19fbce059fbU, 0xb9b77b85bea83f96U, 0x3e3fb4353dcab685U, 0xbb10277b3d82cb5aU,
  0xbd96e750bdddd577U, 0x3db694ce3e16855dU, 0xbe985319be37ac5cU, 0xbe031ea5bd55363fU,
  0xbd7ccccebd99506dU, 0x3c056dfdbe3fd991U, 0xbe348fbebdfdb7bfU, 0x3e35a47ebbea8517U,
  0x3e279c843dd99d6bU, 0xbe227bd73e6bbc34U, 0x3db39674be455133U, 0xbe33edbe3c8dd986U,
  0x3e3cb4ba3e59afb2U, 0x3bd4f6fe3e24e54eU, 0x3e49ed34becbdb8aU, 0x3e2bb85dbd923893U,
  0xbf1aa39b3cfc5094U, 0xbe9218fabdb13783U, 0xbe6245133e2d87a1U, 0xbe5b45ebbecf00ddU,
  0xbe70fd44beda5df5U, 0xbd860ceabddb4aedU, 0x3e96d1883d71fc31U, 0x3da8f75dbe9aca47U,
  0xbd114608bda1fe93U, 0xbd3d909b3e9baf4bU, 0x3e6a85f63dce939bU, 0xbc7ae081be7fb54eU,
  0x3e8de419bc8d984fU, 0x3d9e6fd63e066484U, 0x3ee99501bec24989U, 0xbcba4cf8be94c1b5U,
  0xbdad9750bdab1cedU, 0xbe13eeabbbfa5681U, 0x3da368dd3e96a3ffU, 0x3dee2848be44593dU,
  0x3e46a08e3e5ab732U, 0x3d0540febd2adee8U, 0xbdc8fd8ebf03b154U, 0x3e7bbdc33ea3d8f9U,
  0xbdbeb836bd341bf1U, 0x3e3a76efbee64173U, 0xbd8a2da23dc7402bU, 0x3e8ec98d3ebedfc4U,
  0x3e440dc33c968ffbU, 0xbd3c740dbe290da6U, 0xbd7152e9be16d43fU, 0xbe2ef221be168387U,
  0x3dc5e3c93d0db339U, 0x3da6710fbe118c9dU, 0x3de016ef3e0c3bdeU, 0xbd0589b43ea9d6aaU,
  0x3ea6fe943d930dcaU, 0xbd919a50be26fb3dU, 0xbe032f54be9a2b20U, 0x3edf06203b8ea2daU,
  0x3e4438af3d4c5b48U, 0x3d4aff59bd9eca1eU, 0xbe766fb3be36d73dU, 0x3e4ec2b8bc22861eU,
  0xbe1da3e73d8b9d54U, 0xbe8b0dfbbdd96f11U, 0xbd7ef2a6bd12f329U, 0x3de8a52f3dfc484eU,
  0x3f02e11b3c055b24U, 0xbe953f9fbe3d8b55U, 0xbb7e3b7ebc6bc538U, 0xbe38870c3da27689U,
  0x3e7b14a7be23b8a8U, 0x3dd62a913d870418U, 0x3e89f9fabeb1ab19U, 0xbe112e033e0e400cU,
  0xbe89b0c53d918433U, 0xbe978cdfbe4b8bb4U, 0x3dd8efce3c68d265U, 0xbec2099b3e3617f5U,
  0xbf032b653d0c686eU, 0x3e6c7f663e838140U, 0xbe0c46d8be97181fU, 0xbddc81b6be1fb7a8U,
  0x3d79d5833d42da83U, 0x3ea216a6bddf34c8U, 0x3dcc9360be8ca112U, 0x3e5700cabba75111U,
  0xbdfb87103e5b7d3cU, 0x3c8f0bb5bef45434U, 0xbe2f614fbec6c369U, 0xbcfce3e03e138d31U,
  0xbe92f1adbdbadf84U, 0xbeed903a3ee940d2U, 0xbde7ee063dbe5e28U, 0xbe2a6409be6910e6U,
  0xbdeeec043d95c5afU, 0x3e3433ac3ddbb823U, 0xbde2bae3be1dc6eaU, 0x3d0c399d3d4afc4dU,
  0x3e067e0a3e18025aU, 0xbe1d20303ed108a3U, 0x3e961aa3bd9f2da0U, 0x3d7d4998be6327c7U,
  0xbb53e9f33e174446U, 0xbd2ab7bebd5b6323U, 0x3de26ea43df04db8U, 0xbda0e8e5becf05cbU,
  0xbda9bca53e04b7c1U, 0x3e92bfa2be8dd8e2U, 0xbe026914bdb45b4cU, 0x3e106d8abefefa5eU,
  0xbe19c9d0be19995bU, 0x3ec086c2bdd2726cU, 0xbe19f0813eae66daU, 0x3e86525cbea15cf7U,
  0x3cc78f503e330a25U, 0x3d08fe1fbed82c11U, 0x3e4b48c3bda42889U, 0x3ebfdbbcbc4e3417U,
  0x3e173d12bf0b99e1U, 0x3ceffcd6bded32e1U, 0xbdc41a61bd4e7ed7U, 0xbe18278dbdf8dbd2U,
  0x3dfcadc4bd17e8ebU, 0xbdcd9db8be1fb0efU, 0xbd60d88fbc6950beU, 0x3c5589af3d994aacU,
  0x3dfe9107bd0fcdd4U, 0xbe2c7376be0fb45dU, 0xbe3241913e0839d5U, 0x3de3be5c3d77701aU,
  0x3e254a183bac0b94U, 0xbdf5338ebe476f87U, 0x3e5a11b7bde77fc6U, 0x3efd3035be800273U,
  0xbcca214abed1d82dU, 0x3cae54833e1905a9U, 0x3ead755a3c834f5eU, 0xbbef536a3ce9465eU,
  0x3d249c25bd2793bfU, 0xbe3c55b63eabdfa9U, 0xbe0f242ebe4b21c9U, 0x3d9ee31dbee1ba7eU,
  0xbdec346bbc4e7749U, 0xbca73bcdbe656e3cU, 0xbe35e12fbde6891cU, 0xbe511354bd275492U,
  0x3d4d53afbe1746ddU, 0x3bd256b1bb288fdbU, 0x3df0ddc13ee08e90U, 0xbdb7623fbe96d878U,
  0x3e5bac1bbe41bc9aU, 0xbb8ef86e3ea64383U, 0x3e1b5ad23d22371aU, 0xbe8273edbe9e1533U,
  0x3e3042adbe248c8aU, 0x3f16356dbdb6414dU, 0x3db4a50f3ea68ceeU, 0xbd8c5c82bd4fd803U,
  0x3cef97ffbe262471U, 0xbd662c9c3d8798ceU, 0x3d0b9f0d3e842210U, 0xbdd098353cf5f3c1U,
  0xbe619cc03e88c003U, 0xbe2f85f1bddc80c2U, 0xbe4f79033e157832U, 0xbd3236b63cf28493U,
  0x3edc007dbec3cb69U, 0x3e965f6b3e52f300U, 0xbe9c1ab93e6690f9U, 0xbd14dcdc3e689d83U,
  0x3c3140cf3db788d7U, 0xbc01aaac3df41087U, 0x3e21eb8fbea36798U, 0xbddf66b03e634113U,
  0x3e100717bd60a8d2U, 0x3d7820123eae3dc1U, 0xbe716f9c3d2db592U, 0x3c281cc4be978d6eU,
  0x3e9b7d6dbec3a1ccU, 0x3eb73b4a3df1f363U, 0x3e8a832e3dfc68deU, 0xbf0a7072bd2977a2U,
  0xbe7dd267bd44e4e9U, 0xbf3e5d24be9eb278U, 0x3c9bb0ccbe95a5cdU, 0x3d1e06fabdaefef1U,
  0xbe0d5f3abe759089U, 0xbe0bc116be028fd8U, 0xbe8feb0fbe805cddU, 0xbe183e95bdf27ccfU,
  0xbe17d85d3d0f85e0U, 0x3eacebc3be9c4581U, 0x3e713f2dbd2afa2fU, 0xbdd786ed3e530956U,
  0x3e12a717bc8dbef3U, 0xbe3076debe3b1e30U, 0xbea054463e110cdbU, 0x3de43d1b3e0d7415U,
  0x3ca50e5e3eb25465U, 0x3d2a19193e6456baU, 0xbc836705bd332b65U, 0xbc5ad3b1be785ba4U,
  0x3ea627ab3e34b371U, 0xbe6f71923e5758beU, 0xbcd6ac783e07ff55U, 0x3cc8f326bf1033ddU,
  0x3cca51f4be1fe52dU, 0xbedbd2903d48305aU, 0x3d8dd8423dd088c6U, 0x3e44a7a6bd02533dU,
  0xbe38bcc2bdb07d72U, 0x3ea26aaabed3c2cfU, 0xbd8d803a3e2e39b6U, 0x3ddf5b8d3d972758U,
  0x3eb96d52bd31d46aU, 0x3dd77ce1bd24cabbU, 0xbe4ed5053e41ecd2U, 0x3ede81813e077805U,
  0xbda647debe3e2c6aU, 0xbe8cb1ca3ebe4035U, 0xbdabe25f3e6dbdcfU, 0xbdfa6462be2d7d16U,
  0x3e63c1ee3d0b810eU, 0x3d59dd6e3d605d0aU, 0xbd9e4e7bbe011067U, 0xbc9ffcd6bd6128a7U,
  0x3f032620bd9d7ae8U, 0xbe5b8c33bc6e157eU, 0x3d1f16323d0727e5U, 0xbd776bfe3dc52bdbU,
  0xbe4f107d3de6c0a4U, 0xbdbdcf233e29be9eU, 0x3e3a857ebe501d23U, 0x3e7ff23bbe2ce295U,
  0x3ca0aa23bd8b230aU, 0xbe8a74893db8bba6U, 0xbd98f309be55a29dU, 0xbdaf988dbdab127cU,
  0x3d7ce3b2beb39358U, 0x3d8bc3e4bdc9473fU, 0xbd095cb8be64eae0U, 0xbd9cbe8b3e1d3998U,
  0xbe6620ad3dec5fa5U, 0xbd37270abdd27c15U, 0x3ce4174bbe9915f6U, 0xbd60b9ef3e74a2edU,
  0x3d74a489bbec9dbfU, 0xbcf1e11c3e64a7bfU, 0xbd57fed1be3d8abcU, 0x3dd01679be7fc8eaU,
  0xbdf65d9b3cd6fc82U, 0xbe4e18a23e04156aU, 0xbe4cc4003d57faf8U, 0xbe7504543cbf3de3U,
  0x3e082575be518c90U, 0x3e1bea73be43bb3dU, 0x3eab48253e92e365U, 0xbe45b205be0451baU,
  0x3ca853f33de25013U, 0xbe7ba783bc8fe25bU, 0xbec3aebebe204b8eU, 0x3e92373bbcac4cd7U,
  0x3e3ae37b3e273aa8U, 0xbd5a1fa5be7d67f4U, 0xbdd099cbbe00d605U, 0x3e82ea5e3e5c3a87U,
  0x3e03970ebd3e14a0U, 0xbe6520f13d4c5ce9U, 0x3c20fac7bed17b9cU, 0xbe155aa5be5ef062U,
  0x3e5bff0e3ca85b9dU, 0x3e5ec5953dbe5f5bU, 0x3ed2b0373e6f5addU, 0xbef1334e3c4d330fU,
  0xbe8c8d443cc83df1U, 0x3d2b9ebfbecd2f5aU, 0xbeb225f3be24853cU, 0xbe6b99903ede28dfU,
  0xbdbd3c6a3e2ffbe4U, 0xbe054aa03e3229a1U, 0x3e9310abbda8e6a0U, 0xbd056623bd7d5345U,
  0x3d159ab13e921070U, 0xbd5bf4a5ba6e9a98U, 0xbd4a9dcfbe51460bU, 0xbe8072fa3d2397a8U,
  0x3c60c7bdbbc7b784U, 0x3e996f383db125d5U, 0x3e51f9d4bef59cffU, 0x3bb1e61dbeb324e2U,
  0xbe87433dbea247cdU, 0x3ece80d43d90d0d8U, 0xbc84d0723ec4018cU, 0xbd2512f43d479cb6U,
  0x3e2819c8bc924bf6U, 0x3dcab5863e311018U, 0xbd3acd5ebd76e027U, 0x3ed65fa73e79267bU,
  0xbc22740dbe3005eaU, 0xbb1e043f3ea270b7U, 0xbdd604b33b5a0a11U, 0xbde5f345bdf05c93U,
  0x3ee334193dcc2a5cU, 0x3ed9b6013d9cd845U, 0x3e870c34bb5a2ac1U, 0xbe27809dbd8f4cc6U,
  0xbebf04543d6f2bdeU, 0xbcecac83bd5dbfb1U, 0xbcc6cb473dbf4690U, 0xbe4a485e3d876bbbU,
  0xbe48a61c3c5ca45fU, 0x3e7631733e2ca176U, 0xbd2c18fcbd8aa3a4U, 0x3e808ca33df4b9cdU,
  0x3ea424763e8d9476U, 0xbc583f273ddff43cU, 0x3e075cfbbd91d234U, 0x3dcb45403cb9b9d7U,
  0x3e8de2e03d18f0f5U, 0x3e6013d9be839ee2U, 0x3e1d3bde3e174c0aU, 0xbddc0cfbbc1c5af2U,
  0x3e4e0355beb77ac5U, 0x3e692cd63eac37abU, 0x3e3dc2ffbd04f2a3U, 0xbe14e03ebe66d99aU,
  0xbe876b06bd4d4c1dU, 0xbef82b46bdaee7baU, 0xbc95b35bbe53cac7U, 0x3db41a8e39a57ddfU,
  0xbdfe2598be8c093cU, 0xbd978186bc8fd9f5U, 0xbd694b1c3dfb568cU, 0x3e912e25be2640a4U,
  0x3cec495abdaa774cU, 0x3ea54af4beb26e04U, 0xbd3d535bbe0597afU, 0xbd551f103e8e1319U,
  0x3de6028e3d8c5669U, 0x3d49ade8be353e26U, 0xbe7b7bbbbe333fcdU, 0x3df00809bda18632U,
  0x3de21d023ceedd8eU, 0x3e9d9a4ebd2ae7b6U, 0x3e049e4fbdbca092U, 0x3e5107f23e4bf396U,
  0x3de1849e3d9fa507U, 0x3d9359a6bd9b85b8U, 0xbe830da6be7c90b6U, 0xbe3b6b823dc04f88U,
  0xbd230a91bea10b5dU, 0xbc8f72863e95a3edU, 0xbe7a8405be32eaa7U, 0x3db59d56bf02ee4eU,
  0xbe16c140be3959b9U, 0xbc069800bcedf4b6U, 0x3ab9ae12be8e3327U, 0x3e4951aa3e90f740U,
  0x3e2f8ee83e54e39dU, 0xbe80b7ffbe07fc2cU, 0x3ea177fd3ea67961U, 0xbeb455fcbd5818f3U,
  0xbebf503f3eeb4453U, 0x3d671187bddad368U, 0x3de6b66e3d8829bfU, 0xbd2ecd0f3e042b32U,
  0xbd8e7557be15cedcU, 0x3e6028ca3d7bfee8U, 0x3e6b8fa0bea27b6bU, 0x3d1ff1df3b491eaeU,
  0xbd655a5e3eaa91ebU, 0xbd252fd83e74a3d9U, 0x3ca44511be1f673bU, 0xbdedf4dabdeae8c8U,
  0xbd5c00363d212613U, 0xbdf5c5d53c8a8dd9U, 0xbdf6a159be1276d7U, 0x3dfa7a93bed60380U,
  0xbeaf3caf3cfd9c11U, 0xbdbfe5bc3df0d8fbU, 0xbf0ec3ddbdba9ca8U, 0x3a9042653e451f8fU,
  0x3ea8d183bdd0e869U, 0x3e7b77fdbcb9761aU, 0x3d7f2d1a3e4105b3U, 0xbdcf645bbe2e3c29U,
  0xbd99e8e2bebe896fU, 0xbcc95d03be22fcd1U, 0xbd0ec71f3e878e6cU, 0xbd525394bdff2b6bU,
  0x3d9d9a34bd6ead53U, 0xbea2395abd8e6524U, 0xbd3606efbc6c32beU, 0xbd5a5aee3dc47944U,
  0xbe7406e9bee658c5U, 0x3eb3f6853e8f8a49U, 0x3da4d10b3e02e85dU, 0x3dd7149dbdd83f74U,
  0x3df854293e51b2d2U, 0x3e84fa08bd77a1d5U, 0xbe0cb9203d4e607dU, 0xbe0b3e013d78e07eU,
  0x3db99b0d3ead5610U, 0xbda2ebc23e78b28eU, 0xbdd24eb43d868cfbU, 0x3dc32505bcb169d8U,
  0xba85cf203c78577bU, 0xbbcc44c93d968914U, 0x3ed728a4bd8a8c72U, 0x3cd90131be4343adU,
  0xbe1c99a2bde043d5U, 0xbe4106f43e4b8cc0U, 0xbf1346ec3e4c0a82U, 0xbe0a874d3d385800U,
  0xbe9f44f73ebea64dU, 0xbd746b04bebbc29bU, 0xbe526e143ef1c874U, 0xbceb278c3b1f9e31U,
  0xbcfbcdebbe20ae78U, 0xbd938d2b3bf0af63U, 0x3e4787be3a84dd7fU, 0xbc8144aebc5847e6U,
  0x3e17e5603de5ed43U, 0xbc3713243e249076U, 0x3de38bd53ddbabfaU, 0x3ec1cd513db5a236U,
  0x3e83ae373e12a14dU, 0xbd9668733e05188fU, 0x3d6b3c483e90fa8fU, 0xbe8f7e8e3e491e4cU,
  0x3d869e3dbe514850U, 0x3e696ff9bdc6c1d0U, 0xbd27b8283a239d8aU, 0x3e9c0d4ebd4f4406U,
  0x3e57442c3f72ed6cU, 0x403dfbbc3ec122e6U, 0x3fb839ed3f86591cU, 0x3ef6487e3f78ba52U,
  0x40040af03ff19694U, 0x40627ebd3f06eeb1U, 0x3fd50db73dd82d1cU, 0x3d726c683c13b0c0U,
  0x3d966f44bf2cb5e5U, 0xbf0413803f18d729U, 0xbeda418f3e103120U, 0x3defff70bea555dcU,
  0x3fc75a363fc18698U, 0xbe97409e3f70a86fU, 0x3e015cdc3d005730U, 0x3feb55403f48bab6U,
  0x3f2791753f6ce68eU, 0x3f626f63405efff1U, 0x3f6ad7fbbe132d38U, 0xc01871453fa4d08bU,
  0x3f2682303e48b2a3U, 0x3f97ceed3f7d8b7aU, 0x3f87ff2e3e875d58U, 0x3ff85872bf1b7257U,
  0x3fa8499d3f6026e3U, 0x3f63315c401e2326U, 0x402710af3fa08ae0U, 0x3f9c8f253f83f36eU,
  0x3f8ec492bee2884eU, 0xbe29eaae3f8a4a9eU, 0x3fb0d56c3f9a178bU, 0x3e4b06a03ead83f2U,
  0xbeeeffbdbe3ca870U, 0xbebf740f3d9875e9U, 0x3e0d38f7bf5a7324U, 0x3da19aaf3d9d97b0U,
  0x3e18ecaf3d0a35ecU, 0x3ea944a43ed7d4d7U, 0x3bcb548c3f311bb0U, 0x3db37226be785d1eU,
  0xbc630d223d673501U, 0xbd09f498bc2827ceU, 0x3e8822aebe3bc50dU, 0xbe1d4951bf8105f4U,
  0xbe635cd83dc6949aU, 0xbe4df0dbbcd72bc7U, 0xbdf9bd3dbedfc4edU, 0x3f8503aebd9b6dc1U,
  0xbe892c3abe4213d8U, 0xbdaf16bebc2c05bbU, 0x3f2e4ed43f3c7a63U, 0x3d7966dc3c229d9fU,
  0x3d3d92263ed74cb1U, 0xbd575891bd830117U, 0x3db7738d3e651767U, 0xbe05c71e3e8d25cfU,
  0x3f517cc33e6ce40fU, 0xbd4a9707be57e617U, 0xb9f7e8debc85d1daU, 0x3ee8a1353f17cf67U,
  0x3e581bd2bcc09a27U, 0xbeb1dcc7bd7a3601U, 0xbee21119be80342aU, 0xbea182e8bd6a44efU,
  0x3cbc351ebe0fbacaU, 0xbf1c9afabe78e68eU, 0xbe17b97bbe37fe8cU, 0xbd477615bd4ed5caU,
  0x3f5545e03ea1a542U, 0x3dd93ec5be320f8dU, 0xbee87fc43d9de3ddU, 0xbca62ada3e1775e6U,
  0xbdf3ddd1be04ccc5U, 0xbd4ff46e3dadf426U, 0x3f873b3d3ebf5022U, 0xbe211ccdbe81ff57U,
  0xbde5bcfebd92b24fU, 0x3ede72a73eac6de6U, 0xbe72d814bdd0eaa5U, 0x3d5246f5bf25502dU,
  0xbe85af69bd730c28U, 0xbf4276543e102d72U, 0x3eb0fbb13ea4b715U, 0xbdd5b1f23ef93d48U,
  0x3ecf3efebef710a2U, 0xbe8a37033dcd1c33U, 0xbe19ceaf3e54ec6eU, 0x3e58e85cbbc90330U,
  0x3d4852f63f62e31bU, 0xbc3a7dcabe9af0b9U, 0xbec2514f3dcd226aU, 0x3e4c987cbe381caaU,
  0xbf425c2bbf0b377cU, 0x3dc820b6be25b3c3U, 0x3cfa8cbe3c378069U, 0xbe9b2c6fbe2a1d6fU,
  0xbe466c043e04f7b2U, 0x3e7741eabf7ff3b4U, 0x3e8336d83e838886U, 0x3e45be7a3dcea288U,
  0xbe205266be7008f4U, 0xbf559a523dca6201U, 0x3dc0029fbe0a6b6eU, 0x3c2ad2063e220ee6U,
  0x3e9b47f93df68c02U, 0x3f027ef33e34ffabU, 0x3d1112123f2b11e3U, 0xbd97133b3df95308U,
  0x3b4628723d810155U, 0x3e47743a3d333102U, 0x3f78dce33e5662e0U, 0x3db667aabe2ec9c4U,
  0xbd71b7d03d4ca5d8U, 0x3e50540e3e0fb1f1U, 0x3ea42bb03bada2b6U, 0xbe4dacec3f6b421aU,
  0x3d13ed9cbbd3b42fU, 0x3d8aa943be03e201U, 0xbda8db8f3eaea28bU, 0x3f7300e13e8217b8U,
  0xbec637ab3e6b7472U, 0xbe152f843d5f0a19U, 0x3f3beb773eab56e9U, 0x3d817cdcbe8da9e8U,
  0xbdb556583e86fd0cU, 0xbde3c3eabdd4b01eU, 0x3e89772bbe1a94d7U, 0x3d4dd5073ead26d7U,
  0x3e8ce3863e9baea2U, 0x3ddd31383e99cae2U, 0xbb42a6483dda7441U, 0x3e30dbb0baa09055U,
  0xbf048a20bd44ea28U, 0x3e077673bf6dd4e1U, 0xbd9db2063d9a901bU, 0xbe6af39ebd762addU,
  0xbdf1e6d4bee01644U, 0xbf09d66fbe61f64bU, 0xbd926b70bdfdde3dU, 0x3e5dce83bd08cd57U,
  0xbd2edc2ebd3cb1d5U, 0xbf20d6fdbe25d079U, 0x3e1c0706bf296115U, 0xbe30f8aebddccb91U,
  0xbc7b8f983e19b1f3U, 0x3dc5882c3d0e07a1U, 0xbf70e3a4beef4eefU, 0x3e02d1243e6ccffcU,
  0x3db791ad3d490743U, 0xbea5e97fbe5dfd54U, 0xbeae88ac3d687028U, 0x3e39eb8dbf476d57U,
  0x3ca430a53dc9231bU, 0x3eb43f943daecd64U, 0xbce00e473e19f6b2U, 0x3e436ced3eedea3aU,
  0x3e9789953e2a0de1U, 0x3d325ce33e39e0a3U, 0xbee44fae3db1e632U, 0xbed11b043ddbed0fU,
  0x3e7cf85dbf24e948U, 0x3e8c44e33daebde2U, 0xbd2db8463baf37f9U, 0xbca1d7e23da60904U,
  0xbf53e1b3bf0ec1a3U, 0x3b1fd7f6bd86aca2U, 0x3d9aad803de059caU, 0xbc8f72463d81387fU,
  0x3e4e97b03e287659U, 0xbd513f823f81911dU, 0xbadd58d6bb96de93U, 0x3d9b55f3bd5a2093U,
  0xbe47f4983ef9c014U, 0x3f6848f03eccc9e1U, 0xbde84a553ea5108aU, 0x3c838f603db19fbdU,
  0xbe41a847bd9fb213U, 0xbef03e683d7f270eU, 0x3d468246bf78628bU, 0x3d10916d3de4aea6U,
  0xbcc8a5853daebf7eU, 0x3d80d4fe3f1fbf75U, 0xbed6addbbf0c55f1U, 0x3e00e4f03de25e28U,
  0xbe24a475be64b106U, 0x3f6179a93e90d708U, 0x3e74ae05be2f39e7U, 0xbe01289e3b1b8515U,
  0xbea63c66be061b8dU, 0x3e2f7c1a3e00fc3aU, 0xbe2f3db23d9ed0feU, 0xbf2d4c1c3ed216aeU,
  0xbe8589c1be85faa9U, 0x3e737b61bebc2ca4U, 0x3e0f1980be72b069U, 0x3f5c94c13d6edcf7U,
  0xbe237d4d3ea29579U, 0xbef317e9be1247bdU, 0xbe42d6e03dca35aaU, 0x3dd6b338bec0784bU,
  0x3f4298933e98ad54U, 0x3e4d543dbe02f1feU, 0xbdb4a8783ee9d6faU, 0x3dda69463df31663U,
  0x3efd2fe23d5ae380U, 0x3de7b6303f2337fbU, 0xbd6f3701be7039c7U, 0xbe0c097e3cbce725U,
  0x3cf92e233e66c790U, 0x3f38159c3e1e65ecU, 0x3e65c3fb3cc02089U, 0xbd0e52ef3ce910e2U,
  0xbeec4a0bbdb87ad3U, 0xbeeffcc3bdcfd3c9U, 0x3e16cf14be9d6409U, 0x3e390b96bdb0297dU,
  0xbe0550f73d2b1d2fU, 0xbd9876993f0320e8U, 0xbf3ffa973f05675dU, 0x3e6c15e1bdf8eaccU,
  0x3e61434ebe8270afU, 0x3ecaf267bcd176e7U, 0x3ecb99c93c98df48U, 0xbe6a6ce63f257affU,
  0xbd480077bc02d642U, 0xbdee4c173c14f102U, 0x3e774f8cbda95b75U, 0x3e231c08bf05bdcbU,
  0x3e9da2173ef105e5U, 0xbcc16b513e9d1a6eU, 0xbed52ec8bd39f8eaU, 0x3d0139d3bda8c2dfU,
  0xbe92bb75bea101f1U, 0xbede7c15bdcd4806U, 0xbc7301dabddf1522U, 0x3ddf3989bdb2e697U,
  0xbf626d10bec4793eU, 0x3ea3472a3e84fa47U, 0x3d0b416f3e780cdeU, 0xbef9a24cbe74213eU,
  0x3e03aa7e3e500c68U, 0xbdb55b42bf18c3b0U, 0xbe8180f43eaf1c23U, 0x3e53fab6bd686c1fU,
  0xbeb538f1ba0a8020U, 0x3f57cd94bf21f0ccU, 0xbd060005beaf5774U, 0x3b6afffe3e550958U,
  0x3ddd444dbe33240bU, 0x3ee54202be9b1728U, 0xbc45cca63f55cb9bU, 0x3e6a4c9b3d9b8a73U,
  0x3d88fb90bea6c203U, 0x3e4fc315bdce091fU, 0x3f495203be836739U, 0xbdc6743d3ef3fbf9U,
  0xbe92a160be56c881U, 0x3eb38a0a3d953724U, 0x3e1bae24be62a3f2U, 0x3d52b4ba3f692e08U,
  0x3a9e8150bdbb755fU, 0x3f00dcbfbe11026bU, 0xbeaa8a8b3ed0b3d1U, 0xbee675553e49e20eU,
  0xbeb302f6bc306969U, 0x3ecef2d7bcc10a23U, 0xbc25f5b4bd2df356U, 0xbe24b18cbe0fa5ccU,
  0xbe062df5bf6edf3cU, 0xbcded5dabddc6f3aU, 0x3ceb9334bdde054eU, 0x3d6dedd93ebbb44cU,
  0xbf6e4b0bbe974b1fU, 0x3e0ffeb93e1cee86U, 0x3cfb970d3dadb9f0U, 0x3c3eb441bc21b224U,
  0x3ee857dcbe340428U, 0xbe8ba7033f7ea1a1U, 0xbe91b985be96907fU, 0xbe649b06bd180ac5U,
  0xbe5f0f413e1b46faU, 0x3dd672cdbecaa393U, 0xbecdfeb2bc92e9e0U, 0xbd132f68bed3ccacU,
  0xbe80d758be15a860U, 0x3f168a32bd8ea9bcU, 0xbdf519913f3df236U, 0x3d2b8ee93d60d3a2U,
  0xbed994dfbe57006bU, 0x3ebd32123ef0c02cU, 0x3e8479c5bf02fd08U, 0xbe74fd943e9fc051U,
  0x3d96deaabe587e22U, 0x3e2abc5f3de6f667U, 0xbf4011a43dc71b62U, 0x3ecba174bd3f51aeU,
  0xbe0dad34beab280eU, 0xbf225b773d09f70fU, 0xbd4501ddbec0ca93U, 0x3e99d539be14c998U,
  0x39fa9358be1646e3U, 0x3d32657a3de5ae41U, 0x3f2548eb3e98013bU, 0xbdf2e9103c710757U,
  0xbd8589653df26ab1U, 0xbeeb1008be7cb45bU, 0x3ea2eea63e034f9eU, 0xbe947c1fbc669af6U,
  0x3f0cc1d23f0ba6f4U, 0xbea11f043c481beeU, 0xbd3e05dfbd8cadd7U, 0xbf17063cbe5c78e7U,
  0xbdd312213d9f3a6fU, 0xbd63ecdcbf2007c2U, 0x3d91ecd8bd819993U, 0x3db918c33e0afb2aU,
  0x3cf93a463e0a591fU, 0xbf71321abe2de94fU, 0xbe24232dbe2c0a2cU, 0x3d399081be373914U,
  0x3d6c73e03be6833cU, 0xbb455ad33c2adc3dU, 0x3783b78e3c73651fU, 0x3cd28bad3c586ebcU,
  0x3c2d554c3cc56dd6U, 0xbd17c1a33c97f324U, 0xbaf0e855ba09ce5bU, 0x3c38730ebc88c81dU,
  0xbc91e1a43c375442U, 0x3d17f09fbc408af9U, 0x3c13ae6abcabd51dU, 0x3bd937cb3cee6b95U,
  0x3ced13853c92454cU, 0xba5acc28bd495020U, 0xbcf6fd76bb231061U, 0x3d2e84d8bbb3c169U,
  0xbbfb7f7fbbf0f53eU, 0xbc8b8f263cc159f0U, 0xbbc70bc23ba45977U, 0x3c4f4b8bbc9af2ddU,
  0xbaa0d2dabccf0e55U, 0x3ba4b7abbc5fbff7U, 0xbbf35ed13d5f07e7U, 0x3d44c783bca792f6U,
  0xbc247bb9bc803c96U, 0x3c0e18d83c34ff53U, 0x3cc65feabb4b5905U, 0x3c2aedbbbd1692cbU,
  0xbc16ebf5bcba2565U, 0x3cb9fac3bc479666U, 0xbca15f473c3ab87fU, 0xbb8d48993c3733fcU,
  0xbe6a30bbbcfd1b35U, 0xbe6b1924be200ffeU, 0xbe02acc0bc4a3b9cU, 0xbe97b810bca643eeU,
  0x3e167a8b3cffef37U, 0x3c1efc08bc175b84U, 0xbdbb2b4abd83680eU, 0x3c4855da3b05b584U,
  0x3d29f0ba3dc92c6cU, 0xbda4ee083d8e8c12U, 0x3d0fc2b63e256554U, 0x3db073993e0c2b49U,
  0x3d8db6dd3dabe052U, 0xbd8b64513d4a96d5U, 0x3e1ffc1dbd4a523dU, 0xbd4d1364bcb71d40U,
  0x3d0fc195bdec25ddU, 0x3d41fa9fbe0c7246U, 0x3ea4a435bdb1fc56U, 0xbd21ffb6bdd70a05U,
  0x3ce7254c3dca72d7U, 0xbca477753e7295d0U, 0x3e5042f5bd34611aU, 0xbe0417763d5a1636U,
  0x3e05ae44bde6ffb2U, 0xbafeec34bb671b34U, 0xbd5fe578bdc8607eU, 0x3aa9a96c3ec5df5dU,
  0x3dd80d57bbd19fbaU, 0xbdde4c123da4e9bbU, 0xbe3d0834be763733U, 0xbd66094b3d625454U,
  0x3b1ba3083e82b1bfU, 0x3e223c8ebda7e36cU, 0xbda9adf4be327d8aU, 0xbe58510e3d9f8690U,
  0x3c1ca9e7bd89872bU, 0xbcbdefc53e034406U, 0xbbb5fd7d3dc8cd88U, 0x3d9a6fd0bd78131eU,
  0x3bb182033e5bae4bU, 0x3b0f12c1bd1d11ceU, 0x3e146376be024713U, 0x3cbb023d3e050e79U,
  0x3e8e46c43e51b0eaU, 0x3dfb1e623c9c917cU, 0x3e85c4f4be6179dbU, 0x3da54622be9919acU,
  0x3d9e74313d280db2U, 0xbe1017cf3d8f27efU, 0x3d244dd83e2669e7U, 0x3e382f203e085351U,
  0x3c88aaf93c855878U, 0x3e189cd53e0a02d9U, 0x3d5096353e101029U, 0x3ced3f243e3d779bU,
  0xbdd9b6493e2a094eU, 0x3e4c3258bdb5b2c2U, 0x3d1a28053e2c2324U, 0xbdcff9bdbe6e2a24U,
  0xbe0a6465be0b1299U, 0xbe6354eb3da09d94U, 0xbceb396f3e02ebd7U, 0x3e45de193e533fd6U,
  0xbd8e4da3be005177U, 0xbccecbc1bc9f2ebaU, 0xbd7dc41cbd829708U, 0xbb74b94bbd612b2dU,
  0xbddc906f3bd713beU, 0xbe05f06a3d6650edU, 0xbd2454903cc93f5eU, 0xbdb1c40c3c6f5598U,
  0x3dc147cf3d550d60U, 0xbd6dd70c3d8589edU, 0xbe46281c3eb22c15U, 0xbd600ac23e41f3a7U,
  0xbe89e992bcfdbd86U, 0xbda554903e49e298U, 0x3e215c5d3e665382U, 0x3e489bd2be93d5e6U,
  0x3dff7f793e788154U, 0x3e5fd3eebf187008U, 0xbca4dd863e9367f0U, 0x3d2865743e36cc63U,
  0x3db6ca743e6706f6U, 0xbd651df63d0c0ad0U, 0xbd407977be83bf97U, 0x3e23781cbc8f9cc3U,
  0xbe124875be1dd79aU, 0x3d9c3f10bd850397U, 0xbd02f6e1be81209cU, 0x3d8e26393d8550cdU,
  0x3d096daf3d124393U, 0x3de45597be0e318dU, 0x3dec5307be0efb53U, 0xbe99f9973d8a92c2U,
  0x3d1753a83dc319bfU, 0x3db0511bbe2d3999U, 0xbc0859f4bd483cd4U, 0xbd47527dbe204c8aU,
  0x3da3e524be33f8c9U, 0xbd3ad72bbc21204aU, 0xbe4d5c6bbe76f0fbU, 0xbde71f55be15291aU,
  0xbd3eeb40bdef243eU, 0xbddc49b0bd63218fU, 0x3dcf3bcd3d94d034U, 0x3e81b81fbdfd1fe3U,
  0xbd9cbb953e233b8dU, 0x3e405055bd2d9435U, 0x3ad7895f3de1b30fU, 0x3e1f98d93e4cb003U,
  0xbe178ddfbcd02301U, 0x3e3ed18f3b70de8bU, 0x3d02518fbc323de1U, 0xbd9e6ae43d9fbf8fU,
  0x3d8caf303d55d0a2U, 0xbd9b843ebccbf6d9U, 0xbcecea61bdd571a1U, 0xbc2e74cc3e4e9d4fU,
  0xbd9e92703e4caed4U, 0x3de325513e296d4dU, 0xbd3232b83de6f321U, 0xbe6365c0bcd0d0b8U,
  0x3dde931abd2fd7a6U, 0x3e3b36d3bdd7f94dU, 0xbdc8ac57be10ef79U, 0x3d7d9e7fbe1f64b3U,
  0xbca9cec73e066b4bU, 0xbe36c5d1be849222U, 0x3d17060b3e400a0cU, 0x3bfd9d73be0ea743U,
  0xbecdf8b3be2af8bfU, 0x3d082436bd6374f2U, 0x3e9608d43b825c27U, 0x3d8ae8c1bd682057U,
  0x3e73e31e3cfece1aU, 0x3b9d483ebd738590U, 0x3d221fd53dbd135dU, 0x3c684beabe9b3383U,
  0x3d3ffc51badef3e0U, 0x3e07248dbdc31516U, 0xbdbb3408be3f33a0U, 0xbc17d79ebd9b29efU,
  0xbe43e00a3dd60413U, 0xbe18b650bd5d6dc6U, 0xbec21528bcf4e038U, 0x3db973bdbe518e85U,
  0x3dbf94a7bb29c87bU, 0x3dd7ee63bd4f5c28U, 0xbe2a5506be1f7003U, 0xbc29f572be7c0713U,
  0x3dfa3e33bd8e1a00U, 0xbd04487bbd050bfdU, 0xbd0085cb3e6ee17eU, 0x3e9052323e325810U,
  0xbba13a86be97313aU, 0xbd56efdcbe520386U, 0x3e4a694abe35c83aU, 0x3d4afd043d286eb9U,
  0x3dd4dd013d823645U, 0xbdefd86c3d572e82U, 0xbcb4fa40bdc7f306U, 0xbd513007be092c6dU,
  0x3e337f263ec97a21U, 0x3d38637f3eb762b9U, 0x3df77c8fbd02c95aU, 0xbc8d1f703eba3247U,
  0x3d316e5b3e41a0d1U, 0xbe2d7b5ebeb3b198U, 0xbe28f5d7bdb2594bU, 0x3c9f8b59bda5308eU,
  0x3e0181d73e298322U, 0xbcd8444d3edaafa2U, 0xbbd4f86c3d327909U, 0xbd490dcf3db0c785U,
  0x3ccaac36be25824dU, 0xbe34d0c93e2fdd1eU, 0xbeb41837bd6d6760U, 0xbd8d1209be7352d2U,
  0xbdc75c8cbd9d4308U, 0xbb5bfb1bbcfe2dccU, 0xbdd58cfb3ca5e5c6U, 0x3e319f813d3b958cU,
  0xbe54552cbe3148adU, 0xbe846b0dbe44b5e6U, 0x3e6b14e5be5687ecU, 0xbd7bd856bd21d742U,
  0xbe3770e5bcebb8caU, 0x3e1e8c843e564123U, 0xbe0cad483ca15037U, 0xbe746729be1fb97fU,
  0x3e247c5dbe081bd6U, 0xbc4b279abc32d6adU, 0x3e9ff7f53e2b35eeU, 0x3e2d7d89bdb0a845U,
  0xbe31a2a4bdd6892cU, 0x3e5a881f3ce1c816U, 0xbe1d0cc1be8b1967U, 0xbde2825cbd858fb4U,
  0xbe43ba583d108820U, 0xbb2006bc3ea8c6c7U, 0xbd998e623de2cbf3U, 0x3ee26e8c3dee8a7eU,
  0x3de8db183a8a5ffdU, 0xbdf88aac3d99f33cU, 0xbe067eb63e5d8506U, 0x3d91788ebdafe2e2U,
  0x3c83f425bc90b9f3U, 0x3e7712c2bcd9504cU, 0x3c4faeb4bebb2b30U, 0xbe4628853e2f61cbU,
  0xbc45bfc53d2aab32U, 0xbe8f23f93dcb2bdeU, 0xbd57cfadbd26e3cdU, 0x3db4d8f33caa90b4U,
  0x3d33bd15bdbe0160U, 0xbc6200d2bd928d18U, 0xbd6c6f1c3dbc3519U, 0xbd37f6de3dcbc74aU,
  0xbbe9473abda92348U, 0xbe059e65be1b7a95U, 0xbe045edd3d914b20U, 0x3e15b3c83e98cb7dU,
  0x3dc70ad9bda1bbd4U, 0xbd44ddea3e7b87c9U, 0xbd8af67abe219000U, 0xbe4f3a6d3e7937d7U,
  0x3e3ebf44bdd3f262U, 0x3c7dc00f3cb1343bU, 0x3e204463bd93551bU, 0xbe0f51e0bef9dbf6U,
  0xbe186c063d1be880U, 0x3ceba202be0b278bU, 0xbea2f8193e688e36U, 0xbd977481be000fafU,
  0x3e51cf85bd1ef062U, 0xbe475ed6be08a00dU, 0xbe011236be9d79bdU, 0xbd2a9384bdb179d6U,
  0x3cee17123dba5d6dU, 0x3e4b8ae0bd552cf1U, 0xbd7af8033e4be0a8U, 0xbe07e139be2ad825U,
  0xbd8417dc3e7df6eaU, 0xbd3115ee3c5c8dfeU, 0xbe17959d3d8cf960U, 0x3cc4a232bd1fc2e2U,
  0xbc8718b1be48b5d5U, 0x3d6f6422be123c99U, 0x3df33b6bbe3c9cb4U, 0x3e172b433c8ab022U,
  0xbd2465383dd09b44U, 0x3b1199723db4f36fU, 0x3d1d4c95bdb7486fU, 0xbd499ab0bd8be511U,
  0x3c538285bd7567a0U, 0xbdaea8753e093d8eU, 0xbe66d5abbe0d7388U, 0xbe0493593e8b63dcU,
  0x3d9744b93d765e81U, 0x3e77064cbde517cbU, 0xbe3447aa3d638d7eU, 0xbee59ee6bd2c9d42U,
  0x3e1224a7be2e76dcU, 0xbd725a1ebda9539eU, 0xbd2bca1bbd8eefaaU, 0x3dfae5503ea58f5cU,
  0xbe5a164e3d13f34eU, 0x3b28eaca3cb1e136U, 0x3d8300ce3dea9665U, 0xbe8793ecbd8328c1U,
  0x3e4a67c9bceccb0dU, 0x3dc4c182be876851U, 0xbbf02bfe3e428d02U, 0xbd3d8badbd8e10fbU,
  0xbda8afefbdc59568U, 0xbdc97860bdc10c8cU, 0xbc4ab8b33eb90c93U, 0xbd8adb193d7f2f57U,
  0xbe5138c73e8a8df5U, 0x3dabfa613d970318U, 0x3de56297bd8a2e9bU, 0xbe142fbebc61ca9fU,
  0x3e3f80053e0c6101U, 0xbd05f1b33e1219d8U, 0x3d6c303b3d5f50faU, 0xbdb1f30ebd3d1fdbU,
  0x3dd45cae3e19c505U, 0xbd21c569bb3ce82dU, 0xbd90d0973d265d50U, 0x3d2da1a2be419bd6U,
  0xbc915b933e19c11fU, 0x3d81808abd8dd13cU, 0x3e60997ebe0e9fdeU, 0xbcc4b34abd99d82fU,
  0xbe5a146cbc44efd4U, 0x3d9450753d9c2dfeU, 0x3d5f26f93db7247eU, 0xbd45a0ecbb7905dfU,
  0xbdc4a537bdfa3173U, 0x3e10e5d83e784275U, 0x3db1b55d3e71a348U, 0xbc3613cd3e4f462cU,
  0x3e2366b1bc90ac4eU, 0x3d3d92cebddd4602U, 0xbdc6d7f6bdeea6ffU, 0xbcdf2a18bd43efa8U,
  0xbd3acd4cbd9e88edU, 0x3e56a0f63dcb1244U, 0xbe37ed67be0613efU, 0xbe23ecf13e7964f6U,
  0xbdb3d70ebdbff540U, 0x3e0da2553e596a0eU, 0x3def0790be02b0ddU, 0xbc48e6f93e35715cU,
  0xbe052ce03dd7d0cbU, 0xbe0cd8943cc0559fU, 0xbeb430f23da859f4U, 0xbe18dcea3e3bc4d5U,
  0xbe385497bd4c43c8U, 0xbbcf4ac93e20b0deU, 0x3e8b25313c618385U, 0xbd9c0d4fbc9827f9U,
  0xbe2e3feabe3d24cbU, 0x3ea36efdbe065286U, 0xbdeac096bebf2bd7U, 0x3e3b4c253d0cb9cbU,
  0x3d59d1923e4ba047U, 0xbda816f93da696d1U, 0xbea4163f3daaa5f8U, 0xbca9a91bbe2ebb05U,
  0xbe45cb99bdebfa27U, 0x3d8aa9b5be098c58U, 0x3e130d89bdcb0bb7U, 0x3da6affbbcf88028U,
  0x3e847b113d685825U, 0x3e3c7f58be5372e7U, 0xbdbe9532be954f30U, 0xbebc5248be36f03cU,
  0x3e38ba973e6985cbU, 0xbd507ba5bd8b15f3U, 0xbf0eaf1b3e7ae95eU, 0xbef5eb5e3e2ea019U,
  0x3e8c4c50bc85f3ecU, 0x3dd2c5f93d79d1e1U, 0xbe91ac3fbdf5dd19U, 0x3e410a643d92837cU,
  0x3e1fb21cbe92afe2U, 0x3e8eb52dbcc22a08U, 0xbd08e9e6bd83cd84U, 0xbdc28860bc9f8b36U,
  0xbd989d663e5ca4c4U, 0xbec924353e3c1e2eU, 0x3da993b03e30090cU, 0xbdddd7cd3eb7da21U,
  0x3dae44b8bc242181U, 0x3df2577b3c9a131dU, 0xbdecee03bdf65de3U, 0xbd4257963e730537U,
  0xbe6c1a8d3d9a17c8U, 0xbe2ec3723e793576U, 0xbd23a6673e285ddbU, 0xbda4e4a5bd9bbb52U,
  0xbb9fc1c23df2d0f7U, 0xbd71de733d182806U, 0x3dcde881bcbf73e2U, 0xbe66814dbde9f918U,
  0xbd95dd583dfbada0U, 0x3de9180c3e498630U, 0x3e824a1abd8ddbe1U, 0xbd92213cbeb1dc5cU,
  0xbd9afed43a104756U, 0xbe53a1b63e6a67f3U, 0xbd57645dbe373245U, 0x3d92a5aabce7a34fU,
  0xbd26d9c33c94e8e8U, 0xbda70509bd0aafc3U, 0xbde9b2c5bde299e6U, 0x3d3cae1c3d3f230cU,
  0x3d8411e63e7028cfU, 0x3d25c4383e01476cU, 0xbd26f1cebda5bad5U, 0xbe7d59b53d7fe766U,
  0x3cf94ecf3e3edf89U, 0x3e00033a3d015d9fU, 0xbd9a479c3d85f948U, 0xbc7e0f463e22970eU,
  0x3caede623d8408e8U, 0x3dfca24cbdb73118U, 0x3e48eee2bdc9589eU, 0x3d4a72463b9565c1U,
  0xbde74cefbddc07e9U, 0x3e1e3ae3bd62ee43U, 0xbd1ccefc3d4db632U, 0xbca2aa16be36b085U,
  0xbbaa5aa03c9df8c3U, 0xbb86d9efbcc75a03U, 0xbd52ce66bcbac636U, 0x3dce6f94bd4980c1U,
  0xbb55f50b3e4ce1d3U, 0x3e084ce33ccf5033U, 0x3b840d50be2ad5c0U, 0xbd2194aabdab64c9U,
  0x3bbcc16f3df11c26U, 0xbda1eabf3dbcc436U, 0xbd8721e23d76e1bdU, 0xbcbbcf163e174c6aU,
  0xbda2ea71be7594d9U, 0x3e0d15b33ce3c5fcU, 0xbd88a70fbbf49686U, 0xbe743865bdc7ae50U,
  0x3d2296053d23f26bU, 0x3d7e6b963dd2bd4aU, 0xbdad260e3d0513b7U, 0x3d9aa0673e657570U,
  0xbc9c2f993d6a8355U, 0x3dddc7b43c92aa8bU, 0x3df378683cc5bde4U, 0x3e24248e3dd716b2U,
  0xbcece1a1be847f19U, 0x3e0e911d3bcee819U, 0x3de15abdbdc91e4cU, 0x3d63d37f3dc21402U,
  0xbdbeef8fbe8962f2U, 0xbe99c4b1be81105bU, 0xbe3e6dc93daec220U, 0x3df2d390be2a7261U,
  0x3c37a5f73e4338a8U, 0xbb7c6d6f3e2c3790U, 0xbe256fd53dbd3b60U, 0xbe1e50b33dc3b807U,
  0xbd8d9905bdad4251U, 0x3da326e7bd08f1d6U, 0xbd2462c9be93ed20U, 0xbe46026a3cadc752U,
  0xbd118c1abe105d74U, 0x3d844a853e89cd56U, 0xbdeba5453de775c6U, 0xbe3e57b13e903ef8U,
  0x3ea8c5fdbc520b61U, 0x3e192ab33ea7be00U, 0xbc8f57cebdb812faU, 0xbdd863a63c52aa92U,
  0x3d540bffbd49280cU, 0xbd875b1fbe178f62U, 0xbe4497d2be8742bcU, 0x3ba889773d7c1c76U,
  0xbdb15957bca3648cU, 0x3d11d804bdaf0597U, 0xbe2dd73b3dc02981U, 0x3bf98dc43d850b3cU,
  0xbd700b0a3de5c48dU, 0xbeb232fb3dabb92cU, 0xbe779749bce6282fU, 0x3db92a12bb8003bcU,
  0xbe4551653d31f096U, 0xbcb57f6ebe1b0beaU, 0xbe3d3d58bdd779f1U, 0xbdcc3b0a3d77a50fU,
  0x3d143bc73cc8b1e8U, 0xbdfe0e0a3e86b59bU, 0xbdaa6193be2d60b8U, 0x3f0339813c2aca3cU,
  0x3d57e1d33e3870d1U, 0x3de4083fbd5d5a4aU, 0xbe2f079dbc6c2402U, 0xbe14c34e3e70a8a6U,
  0xbcdba68a3e29ccabU, 0xbd7f4354bd332314U, 0x3e1b28153e2aa735U, 0x3e0e3a4cbdca6a80U,
  0xbde917a8be99b2b9U, 0xbe98dfe23ead6ee8U, 0x3e3cf8d1be5e4c3cU, 0x3e0322733d660f84U,
  0xbd2c71a1bcb35dd2U, 0xbd7d8bc9be0ff772U, 0x3ce890f33d9b9becU, 0xbd18b8993a935679U,
  0xbdd189a1be0aceb7U, 0xbd3581483e4980c6U, 0x3e0a822fbd986436U, 0x3d16545c3da9f813U,
  0x3e674df43d39db0fU, 0x3dc2889b3e4228b3U, 0xbe87e830bcea942aU, 0xbdd38bad3dc5f347U,
  0xbcc635b7be25b4f5U, 0x3e851721be5727f4U, 0x3e7927febe52794cU, 0xbd5d4a093cf8d9ffU,
  0x3de97d33be9ee6fcU, 0x3c620002be9bba0cU, 0xbcb823dc3d09cef6U, 0x3e2de05a3d32fc46U,
  0xbd865403becbaea3U, 0x3d2dd3c2bd8a672bU, 0xbd980a3cbdbac5bcU, 0xbe8216bb3d981007U,
  0xbdeb12853d753c66U, 0x3e4ddd423e7a7ee4U, 0xba426d5abdf952f2U, 0xbcc4ff183e279b90U,
  0x3ea0f45b3eb58e1eU, 0xbe54cde2be7fe7feU, 0x3d1b7fddbda31474U, 0xbe66ef9d3e4dc0e5U,
  0x3d8ae138bebb4ba6U, 0xbe5d67aa3dffbf6fU, 0xbc2a243fbe6b2bc4U, 0xbda1d9fcbb1a34bfU,
  0x3e1177a5bdd75a30U, 0x3da9ade83e301a14U, 0x3e12be453ebc156eU, 0x3e2471003ce1bdf9U,
  0xbaf92b8d3dc699ebU, 0xbe96e7483d020aeeU, 0x3e41da14bcfa4fdeU, 0x3d11cf9bbe1df1f9U,
  0xbdc2b9143d26b7b1U, 0x3ebe8f2dbdb859efU, 0xbcf812453dcd0ed9U, 0x3df303273dab67b3U,
  0xbc8fa61e3da47e3bU, 0x3d8599633e19389eU, 0xbe4e28e1bd6a72e7U, 0x3ea93265bd71b336U,
  0x3d471c2b3d9eecffU, 0xbec3f9d13e2fdc3bU, 0x3e38f9a4bdb03b0dU, 0x3d351d16bdd34766U,
  0xbda505fd3d899561U, 0x3e949749bdfac735U, 0x3e253482bdd8e30fU, 0x3d82397e3bc37367U,
  0x3e0eaa1cbe9b78d7U, 0xbe8d6c603e5a4724U, 0xbdd2e4aa3d7926e6U, 0xbda5b6e63cf72f7bU,
  0x3da4ac933e23b321U, 0x3e0bcff93dc91824U, 0xbda960f8be4632fdU, 0x3c8394113e153ac4U,
  0x3d7c21febe0d441aU, 0x3e4cb1533e173dd8U, 0x3e10c12abd895cf6U, 0xbe3259f73df072edU,
  0xbe867e663cbb24adU, 0x3ea9f0913e08b3bcU, 0x3d7f9f60bd9afb99U, 0xbdf70b5dbd53dfbaU,
  0x3e889167bd76288fU, 0x3ddb81103c595d11U, 0xbe18ac3e3ea9e59aU, 0x3cd9f45ebe2144a2U,
  0x3e124996bdf50388U, 0xbdca13013e069468U, 0xbdc438b5bd453c86U, 0x3cfe0f68be1f73e1U,
  0xbe877781bb66f555U, 0xbe8b4850be59c12fU, 0xbe3b0abebd89ef7bU, 0x3c95ae6dbd1c7fa8U,
  0xbd02248e3db54f6dU, 0x3dbcf2423e97794eU, 0xbd37e3713e0ad4e5U, 0xbdfbdee73c248e08U,
  0x3eaa0bc03ea7d2b3U, 0xbdac022fbdb9f59eU, 0x3d8cc6743d15a39bU, 0x3e6dc50b3dafc2f2U,
  0xbe1702bcbe9ee055U, 0xbe3272d73e3efbbfU, 0x3d1c2aafbd9ce304U, 0x3de993c2be105b46U,
  0x3d585a65bbe67834U, 0x3ebf48393da28c3bU, 0xbc8961493c53775cU, 0xbe4d5d1c3d30ef70U,
  0xbe0ca40bbc280b4fU, 0x3d34be773d8a98b1U, 0x3e808b073cc89de1U, 0x3e51676c3e29b0b8U,
  0x3f085d73be551b23U, 0x3e8a65543c21f280U, 0xbdfad2cdbc8a8b7dU, 0x3e209b1d3e3ead6fU,
  0x3da9cfc8bb8d1be2U, 0x3e1996a4bd116209U, 0xbd1536b9be3f4480U, 0x3de79de63b7ad348U,
  0x3e85835dbc535e94U, 0xbe6e4e7cbcf113e8U, 0xbe47f79f3e44b1a6U, 0x3d8177533e2b6397U,
  0xbd831f88bd1838c1U, 0xbdcde4c03cbcfb03U, 0x3b84bf92bd2a67d0U, 0xbdadefd3be3d82d3U,
  0x3e0983033d5fed21U, 0x3dcbc37c3e712cccU, 0xbde7d5a13cc26b75U, 0xbe1fee003e1c5f8dU,
  0x3d480b48bda8cfdcU, 0x3e7c8cc2bdbe9d97U, 0x3e1761f13d19d4cdU, 0x3d641969be338668U,
  0x3eb1d68bbe2895dfU, 0xbeb08501be4bdc88U, 0xbe83f87f3da42974U, 0xbe5bb2a9be205831U,
  0xbe7e05753d87a186U, 0xbe67369ebda248e3U, 0x3e087e36bd8d7426U, 0x3e5790a4bdde2847U,
  0xbd824904ba87f4feU, 0xbe8d3b3a3dffee84U, 0xbe86953ebda7d91eU, 0x3e34fb88be26f9a5U,
  0x3cd4e922bd845091U, 0xbe0a82873d13473aU, 0x3d8d9fe3bd8160d8U, 0xbe26ac59be6df471U,
  0xba97d6703e09ce99U, 0x3cbb90383dd8146dU, 0x3e63ec853d9f5ed3U, 0xbd9417243dd77448U,
  0x3e863e25be410049U, 0x3e5cf1debdd57f10U, 0x3e7da5f0bb85cbfdU, 0x3ed6fa1c3d899d8eU,
  0xbe65a9d6be1e8b65U, 0xbe35e3cf3da8872fU, 0xbddba14fbe8f9e41U, 0x3e26039a3b564bf5U,
  0xbdea5bf23d1f6faeU, 0x3e6ea3983ee39435U, 0x3c907e4d3ebdf483U, 0x3d85cc4fbebdcd38U,
  0xbe8641733c4b4adcU, 0xbd3c9e563e42b21cU, 0xbe306e5fbde7a79bU, 0x3db63c08be2e24edU,
  0x3e4b3d023ddcd0efU, 0xbbeac8c53e740a2bU, 0x3cd73a68bd86b1c7U, 0xbe98e69fbcd1ddd5U,
  0xbe9d349bbda043f0U, 0xbdd1691d3ec2cf3fU, 0x3d82bcb5bbfb1b93U, 0xbe88fe3a3c96faa2U,
  0x3cf511813cabe48cU, 0xbcca1428bda12f29U, 0x3d09b8e43e4303beU, 0xbc0357c3be10d397U,
  0xbd7480553e01fd9eU, 0xbd189487bd914dd9U, 0xbc906823bdea2117U, 0xbdde601d3e072d6dU,
  0xbaf68cbabd4cb5daU, 0x3cf700f1be26cc6dU, 0x3df88d7d3cc2035bU, 0xbd3724833db72fd8U,
  0xbe2aae5b3bd3240eU, 0xbd9a9399be0fc75aU, 0xbba7e414be1a1171U, 0x3e1f50af3cee8d3cU,
  0xbdeb80733e48659bU, 0xbd852e0c3d8a2e6cU, 0xbe09f3473c9d81d7U, 0xbc628eb1bde84313U,
  0x3dbedbfbbc5f8c07U, 0xbe32ede1be1118b7U, 0x3cb478bd3e3dc1a2U, 0xbe22b562be0408aaU,
  0xbe4cd49dbe30b171U, 0x3d59dd0fbdb54532U, 0xbe342b793cdb66f4U, 0x3e2cfe173cbb7e4eU,
  0x3e6c81863da70c5dU, 0xbc88893ebe12f684U, 0xbd970ba43e11a21bU, 0x3e56d7a4be5a7fdcU,
  0x3e8a0769be957e65U, 0x3e95429ebe155696U, 0xbe33518b3bbb0d76U, 0x3e39f24a3e0e14e8U,
  0xbc00274cbd940005U, 0xbd9678503e8cad5aU, 0x3ea2c974bbd0e7d2U, 0xbea903e03e504d8aU,
  0x3d8ed74cbe7d3c49U, 0xbdd8d7c93d566aa7U, 0x3e4015d13e041f4eU, 0x3cbe7c17bd987a87U,
  0x3e4c5e823e0ca88fU, 0x3dfc5fb7bd82a3e1U, 0xbc9706fd3d754b1dU, 0x3e5dde03bd93d3fdU,
  0x3d62df10bd7a11d6U, 0x3d114cbabd0cb6c3U, 0xbde33d18be28e252U, 0xbdbd7f853d661eadU,
  0xbdac833b3d3dfbb7U, 0xbd7660d6be0925b6U, 0xbdd9752b3ef3e85dU, 0xbcdcf9fabd35f372U,
  0xbcfd490ebdb82e9fU, 0x3e828055bd34ca15U, 0xbe77c372bd7d6a53U, 0x3d2f324cbc6bd74dU,
  0xbe2d35683b76c728U, 0x3e8f5c1c3bea1df4U, 0x3dc5a29cbe1f1d13U, 0xbe0f2ac63cc7ea5dU,
  0x3e092a14bea39f5bU, 0xbced98c03e36e9f6U, 0x3e7165a43d786411U, 0x3eb8820ebca2e10eU,
  0x3ce86a83be80d7ebU, 0x3dc714b03dad3d4bU, 0x3df2d6e5be9b7368U, 0x3de0660c3c528298U,
  0xbe71b677be25076eU, 0xbe3fce06be003c40U, 0x3da7afa4be334484U, 0x3d252f283e02dd23U,
  0x3e34a3ba3e4e629dU, 0xbd838ce83f04593eU, 0x3cae8189be46cb06U, 0xbdb3a3ab3b92f5b9U,
  0xbdb51e06be55a0a2U, 0xbd51f0723ba28aadU, 0xbd9398c43cb0f42dU, 0xbe354ae23e7a8611U,
  0xbcce9e843e1baf09U, 0x3e67e2e23e02162bU, 0x3d96a0763df5f86fU, 0x3dfa52a7be43b937U,
  0x3e465ca2be3920e6U, 0x3d2d09fc3f0269d0U, 0xbe4190ac3d3575aeU, 0x3da876933dafe0b9U,
  0xbe4d9c1bbdd2f76cU, 0x3d5c456c3e12b582U, 0x3d4b002a3d2fba2aU, 0xbcdca3353e31e9a7U,
  0xbddf151c3e37f99dU, 0x3be8ac6ebd2430c2U, 0xbe1099f83cc880f6U, 0x3e51d0fcbdbfd1adU,
  0x3cf749b43d8b28c6U, 0x3e245b20bea8b966U, 0xbcd44a013d2f5d1eU, 0xbe0fbdaf3d8266d3U,
  0x3e03832abcdd3ecdU, 0x3d8eb1ad3e581018U, 0x3c9ab3cfbb8e9ba0U, 0xbdece1503e6d3991U,
  0xbc924d79bd0b2c07U, 0x3da02bdcbc4c8a1fU, 0x3d1427ea3e127a5dU, 0x3e02a03f3dc1df00U,
  0x3d804663beda1adeU, 0x3ceeefeabe5da8deU, 0x3ce177873ec4b8f5U, 0x3dbbb5493e622d86U,
  0x3e80ea4cbdaf8824U, 0xbd964efcbe24dcf9U, 0xbe18cbe3be07429eU, 0xbde605073cb79290U,
  0x3d4c81293e735d35U, 0xbeabebdbbddf02cbU, 0xbe3e42f13d469534U, 0x3e557964bc433f8bU,
  0xbccd0b31bd22cc0cU, 0xbea8082dbde0b647U, 0x3eb3c8f33e58bd42U, 0xbe4269563cc102d6U,
  0xba7a682d3e0ecf3fU, 0xbeaf2612bdccc265U, 0x3edc26cfbe410b03U, 0xbdcbf60abe008804U,
  0xbe9e442c3c4d6c80U, 0x3e208ff93d5de24eU, 0xbd9552043d6bdb4cU, 0x3c7eb35b3de2914fU,
  0x3ea064883d393f33U, 0x3c23bdf03bf4ad3eU, 0x3d8574bbbe5ad8b5U, 0x3ed9f317bd841cfaU,
  0xbe384bb2bccecefdU, 0xbc53c2763e8eb3d4U, 0x3e8aa7893e2e5fcbU, 0x3e73db74bea15f2aU,
  0x3ec241f9bde70b7dU, 0x3d292617beb0acbdU, 0x3ed2ec21bde5ef6aU, 0xbcabe9953e002862U,
  0x3eb86c26bd68e559U, 0xbc84b8693c7a8a79U, 0x3de32c7f3e7af8f7U, 0xbdf7ee333e266872U,
  0x3e112df1beac6aadU, 0x3eae7a943e66c70cU, 0xbdbe63643d016957U, 0x3ead0752be4d8932U,
  0xbe35be84be5a007aU, 0x3d8478003b4c772bU, 0xbcd76c5d3e487075U, 0xbe0876a8be9b561dU,
  0x3cdc712bbe4f69f8U, 0x3cb7d8bbbe046fe9U, 0xbd06fa0fbd145d99U, 0x3e10186d3d1ca157U,
  0xbd91bb7b3e78b0bcU, 0x3e9eb28b3e16c02cU, 0xbe41cb5ebe39a4b0U, 0xbd4970bcbd68821fU,
  0xbe9681fdbe6eaddaU, 0x3e5cebd83e13c2b9U, 0xbd5463dd3dc3e9dbU, 0xbdf9cdcebdaad7eaU,
  0x3e0065d83e611499U, 0xbd2ded5a3e3ec758U, 0x3e1b8e64be41d1d5U, 0x3e4280063e2fd7bcU,
  0xbe939f3cbcaed6f8U, 0xbe050bf2be61f439U, 0x3d431dd0be9585d9U, 0xbea28734bdf7a787U,
  0x3e5777dbbeb72212U, 0x3deeb1693d21e196U, 0x3e14976fbd4e0c78U, 0x3ddc4277bd6b90aaU,
  0xbe2fee863e32a953U, 0x3e15c0d83dd91738U, 0x3e033315bcb38e8dU, 0x3e1d344fbe1f7915U,
  0x3d92b2ea3dfe1a73U, 0x3e221d3cbdd617b3U, 0xbd76468d3d5a27caU, 0x3e475332be0aea7cU,
  0x3dacf954be2d8e8aU, 0x3e2506103e7fb29bU, 0xbe3d1676bdefa3ffU, 0x3e0cb5cdbd941043U,
  0x3d742c503c298ba2U, 0xbefa2aa2bda19decU, 0xbd382c53bd9460f0U, 0xbd420733bdd4f125U,
  0xbe2814bd3e04fabeU, 0x3e9415a4bd9cc636U, 0xbda343cabe0f8d44U, 0xbe3a44973e427d7aU,
  0x3d2d21e63d113be5U, 0x3e53c4a5b9a1bcb5U, 0xbd40b6803ded657aU, 0x3c86b3ac3e1fa89cU,
  0xbe1131843d859bdbU, 0xbd5da5e73def5ba4U, 0xbea46d3cbbf2f0d1U, 0xbe73aa683e1c08c9U,
  0xbd87d2e7bd9aaedaU, 0xbd3182f7bdc6ff01U, 0x3c43cba0bd839613U, 0x3d1d3ababdcef7e0U,
  0xbd83829cbc8746d7U, 0x3d9ae684be8d9342U, 0x3da2537bbdb8c845U, 0xbbfd107fbe54fa70U,
  0xbdd09fdabde67446U, 0xbe1ab1303d97a9fbU, 0xbb58c5983c9c0e76U, 0xbe4e73ffbe574909U,
  0xbea63c283e08ed12U, 0x3c9d89373d8f4a3fU, 0xbd88b13fbda976e8U, 0xbdde36103de7e495U,
  0x3d7f7cba3de2d655U, 0x3e0dd6eb3c0b6cd5U, 0xbd4ebc37bdcc920eU, 0x3dc48931bdeacd34U,
  0x3d4e62743d4e4148U, 0xbdd41befbd23544bU, 0x3d10fcde3e236245U, 0xbd7dabc73ce83f2cU,
  0x3dcedc1f3b8b48a2U, 0x3d246e98bdab242cU, 0xbe31e39ebe240523U, 0x3c81af583e0ffdafU,
  0x3df0f3813e4a1a86U, 0x3ce897d33d2ceeb4U, 0xbe1cd065bd59ee4fU, 0x3e304becbe76bf6fU,
  0xbdbe57a1be66fc87U, 0xbe44d3c73c915ddeU, 0x3d9350583d5837a8U, 0x3d08e0133e622030U,
  0x3b1c6cc5bab1fd7eU, 0x3dfb4196bdc96e55U, 0xbbbaa243bdb6878aU, 0x3df8068ebe28eea9U,
  0x3dda7848be542cd4U, 0x3da5d6d4bd385156U, 0x3e1863eebda1e6c1U, 0x3e1018dabdbf0dcbU,
  0x3dd437bc3d9f841fU, 0x3cdcf3523d2f6c0dU, 0x3d52dac9bdc6f056U, 0xbd8b0f803e104b5dU,
  0xbc76ea42bd6d8707U, 0x3ccc75f73ec87894U, 0xbcfbae00be5929c0U, 0xbdaeca0bbca54f81U,
  0xbe27e194bdca6ed4U, 0x3dbbcc13bb9a0b2bU, 0xbde2bcba3da5b254U, 0xbda0b31abe1112cdU,
  0x3e67f7383c8ff234U, 0xbe3fcff23db3d845U, 0xbde570eebdfa1b77U, 0x3b09f0a43dc261d9U,
  0xbeaddb073cf75f87U, 0x3bfa5ad43ebab0bfU, 0xbd09d337be5aca0dU, 0xbdc5b31e3e0f72feU,
  0x3d45f7e9be51b5cfU, 0xbd2e80d3bdae54d0U, 0xbc9745bdbda337b0U, 0x3ca4b587bd4909acU,
  0x3d4fe082ba192d73U, 0xbbf07435be18c751U, 0xbd60bb88be1b5f5dU, 0xbd689b3fbe634115U,
  0x3dbeb1d4be916aa3U, 0xbd17170fbe7a718bU, 0xbcdffd7fbd676156U, 0x3e16f72c3d3d7483U,
  0xbcded293be5a2a18U, 0xbe061553bd29c5b8U, 0xbe834f14be0474fdU, 0xbdddf7693eaca940U,
  0x3d3c10223ce33c98U, 0x3dcf4e31bd1fcf0dU, 0xbd3ab2543bae6be7U, 0xbe5601f73db8105bU,
  0xbcd8c6573d9d4369U, 0x3e0417dbbd50d7bcU, 0x3c90f017be9c6d1fU, 0xbe2cb7743e1b57b8U,
  0x3dd5b8b8bda6de0bU, 0xbe1c7d12bdaf88d8U, 0x3e90a1083e853eb2U, 0x3e705f5c3e9eb0c8U,
  0xbd2da103bdc86289U, 0xbd54975d3d1c58a8U, 0xbe28e9bbbddadeb4U, 0x3db98e9c3d84e263U,
  0x3f0495663e42c6b0U, 0xbd392309be187d4cU, 0xbea54744be546951U, 0x3e3137313d8f1fa5U,
  0x3db19cdb3d9c628bU, 0xbedcf6c4bdb82d45U, 0xbd1e1ee03e3f9b59U, 0x3e97b3393ea0b1a8U,
  0xbde96bf1bd34b99cU, 0xbee22d00be266f0aU, 0xbd768aed3e454b9aU, 0xbd5caf923debf362U,
  0xbde20b6f3cbc202cU, 0x3dccc09a3eb25b43U, 0xbe2d65af3dd99149U, 0xbe2c5d823c889da0U,
  0xbd2883df3d4f371bU, 0x3dc9a4ac3c14ea4eU, 0xbd68d80b3e1425cfU, 0x3e81531dbc833cf1U,
  0x3e026be5bd37ec31U, 0x3ea633dc3da8507aU, 0x3e4e6d813de4d574U, 0x3ed463cd3eadbdb1U,
  0xbe11fb5bbe540b74U, 0xbe93ee563de1623fU, 0x3e2c42e6bcedd98dU, 0x3cb640a5be8138a1U,
  0x3dc2dbb33d10729aU, 0xbcf9c83a3e5b5539U, 0x3dcdae303e858502U, 0x3c6345a33d41073dU,
  0x3d057d653d30b5a0U, 0xbbb55d83bd095bd8U, 0x3e5c64ff3e4f2710U, 0xbe7b438cbd461b26U,
  0xbe13ee623dd651b1U, 0x3d931d1dbe6b86ccU, 0x3d54aa8ebe2fe82dU, 0xbe9c6acbbe002b91U,
  0x3dce916f3e8f2fe9U, 0x3e5f48293d62c41eU, 0xbe223784bc82fafcU, 0xbe7a10533d8e6433U,
  0xbd4353a3bdc3f109U, 0xbe13b12d3dc8ad00U, 0xbec3e40a3e662984U, 0x3b4a53573cd1d00cU,
  0xbc5252b9be58304fU, 0xbe166b7cbe1b112bU, 0xbe516e8e3cb6b470U, 0x3cfedfa5be28a144U,
  0xbdbb53d8bec59247U, 0xbe8126d63dd3d618U, 0xbdc5c7e2be1764e9U, 0xbe6568893e534424U,
  0x3d918a763d88b07dU, 0x3b9eac923e0f1eb2U, 0xb990b89b3e567f51U, 0xbe16c1f93e1cd403U,
  0xbe76b7b13d47425aU, 0xbd34a8d43e0120f7U, 0x3e547797be952c92U, 0xbd9cecee3cc64b72U,
  0xbdcbfcbebdc4d8bbU, 0x3df3557c3e886fcdU, 0x3d89a7da3c9bb9adU, 0x3d6469e3bdeb2b5cU,
  0xbeb29c7d3d956a9cU, 0xbe9b1962be4e3592U, 0x3d9fd34ebd3a118dU, 0x3e8b80733d033509U,
  0xbe58c4cc3e12ef48U, 0x3d95addfbdfbb3acU, 0xbd6bfbb8bd0d6c6fU, 0x3e121ad43e15a0dbU,
  0xbbe0c9f83d180b74U, 0x3e1dcc483dc49748U, 0xbd9d63123d200823U, 0xbe52a473bd92b5acU,
  0x3e6dc7fb3dbf05aaU, 0xbe1479e9bd741908U, 0xbea5a4343e4679acU, 0xbdb4aed83d617f27U,
  0xbea86e36bb3c236eU, 0xbe75ff30be7dcc59U, 0x3df329cdbd2e70a1U, 0x3da7d59d3dc9cb61U,
  0x37ba72f5be7c5fcaU, 0x3e988f58be55c0bcU, 0x3e3e35c2bca3f65bU, 0xbd377abc3d1c8089U,
  0x3e36573fbe21166cU, 0xbee41d743c385fa3U, 0xbe9896583dec626eU, 0x3ecb9bdfbe08cd48U,
  0x3e346dba3ddb3adeU, 0xbd8be3bd3e6951f6U, 0x3bf446143e433456U, 0xbe0f04553dfddb8eU,
  0x3d19f3b7be8c5489U, 0x3ea063203e806dfeU, 0x3e3eba0ebdc3b153U, 0xbcc621d3beb1f102U,
  0xbe07c3203c193ac2U, 0xbe044959bd817964U, 0x3e9807583e0f0ccbU, 0xbd7334b3be9025d7U,
  0x3c88a4cabc857020U, 0x3d99d3a3be39e13dU, 0xbdc8adce3bcb8163U, 0xbe6e6f04bbf26ebcU,
  0x3c26617e3e3e7a09U, 0xbd933c38bc819c84U, 0xbdb8e839bd6605adU, 0x3ccc1155bdaee129U,
  0xbccce4b1bd9f3169U, 0xbd54f4403d197c66U, 0x3c04913b3da9daf0U, 0xbe82d95a3ca9d060U,
  0xbbe8d271be2dad5bU, 0x3d9394993d29d16bU, 0x3d0586853e63ee13U, 0x3dc0bfdfbde87dc3U,
  0xbcc15c3abc934d58U, 0xbe1c7edd3e09a7ddU, 0xbe343678bdca6437U, 0x3b9b1cd13e02efb5U,
  0xbe069b493d00733bU, 0xbaf2648d3e6e1fe4U, 0x3d55af32bd0dc07cU, 0x3e24f6563d405e7fU,
  0xbd46ac9cbcc4008bU, 0xbd1f8eeb3dbf2dfdU, 0xbe6f4b55bcdef48cU, 0x3e3671d53c404e9dU,
  0x3de56257bda853fcU, 0x3e9e58b93db9713eU, 0xbd04c730be3486b8U, 0xbd3e1971bc946d46U,
  0x3e0fb51abb92b874U, 0xbe598a503c906a6fU, 0xbdff237b3d12e406U, 0xbe06ee19be2fcb10U,
  0xbc4deb77bbe75d3eU, 0x3b26773ebe4d9146U, 0xbe4a836a3e08ecdaU, 0xbd1ad366bc3d6f3dU,
  0x3d872f38be4025baU, 0x3e8f16723df1ba41U, 0xbcf7695d3e4da907U, 0xbdaf82e9bb3f946bU,
  0xbdbd8b293e7a1998U, 0xbe418811be443998U, 0xbd95db34bc29d494U, 0xbd68a056bc77a9c2U,
  0x3db2c24abd11279eU, 0x3df3506e3e28a712U, 0x3dd6777cbe03f1eaU, 0xbe129e7cbc988508U,
  0x3dc329ea3ec8ba65U, 0x3eee4a583ecb1c84U, 0xbd0b58f3bd0abce3U, 0xbd435dfd3dd3fa03U,
  0x3e04fbce3c86bd80U, 0x3d706937bd94d828U, 0x3d0afbfa3e0a534aU, 0xbd37fed13e8c0634U,
  0xbd09325ebbb6edd8U, 0x3eafda9abd440f32U, 0x3e6fd4493c05ee37U, 0xbdebd4663e4b5ed0U,
  0x3ed1e5993da108c7U, 0x3e445e7c3e852120U, 0xbdf72716bd9bc6c7U, 0x3d987ce1bed800e4U,
  0x3df09a773c987f2bU, 0xbd85493cbe1b83f5U, 0x3d651d57b93c764aU, 0xbd721f7a3e130ba2U,
  0xbd4cefb33db64288U, 0xbe1106403d1220c1U, 0xbe80ff98be58ec07U, 0xbda04e4fbe60ebe3U,
  0x3e13c6ed3d0b8cacU, 0xbd02dc553d905c58U, 0xb9c748d03dfed33fU, 0xbd68f0f4bdceb9fdU,
  0xbdd356bcbe2be690U, 0x3dfd5c1d3d07b3e4U, 0x3dfef47abd6b1270U, 0xbdd0c2263d0bb5bbU,
  0xbc99c1833e34fd53U, 0xbd7f5a2fbe6c5d58U, 0xbd9d05043e09ecd6U, 0xbe10ff45bdd3e087U,
  0xbdb1fdc4bd9c80a7U, 0x3d8b47763d4e408fU, 0x3d1f9f78bdc49315U, 0x3e1f0c773d73b3ebU,
  0x3e32eb58bd194a25U, 0xbe484ab1be218399U, 0xbdd0bcfb3e0025d1U, 0xbdf878493d035580U,
  0xbe6960463e861140U, 0xbe9420433c9b1cfcU, 0x3e3c21ba3dd0e013U, 0xbd1342393e22f611U,
  0xbdafed8a3f0344b6U, 0xbc8b87313df61a87U, 0xbd3300f7be18a881U, 0xbdc03a70be1c6e80U,
  0x3ebf93c8bbf5b454U, 0x3dfcc7a13ea7d7fbU, 0x3eab9c813dfcbad8U, 0xbe85b52e3e1c0969U,
  0x3ef3985dbd1a320fU, 0x3d2b681e3b59ebc1U, 0xbece6bb03e56da2bU, 0xbd940fa93d1ff01aU,
  0xbc3aa075be8ee072U, 0x3c822e523cca4c57U, 0xbcbe41abbe3a8a81U, 0x3e532d593da7803dU,
  0x3dde23fc3ce17795U, 0x3e674fd73dbe0ac0U, 0x3e26e211be01d89eU, 0x3d23adcfbd6340ddU,
  0x3df1b4173e880f36U, 0xbd94a451be4da9f8U, 0xb8e94415be9c9abcU, 0x3ccf26743d1cd08aU,
  0x3cdae647be566e95U, 0x3db5e8253e3113a2U, 0x3e17451d3cd6db29U, 0xbe14d6e73d688499U,
  0x3df054e03e94d4e2U, 0xbdbe8b2ebe8ddb1cU, 0xbe93c19fbd7b5eccU, 0xbc8b60bb3dc03719U,
  0xbe369a2dbdabfc51U, 0xbd4c49babe52797bU, 0xbe74d3b83e53306fU, 0xbe3935c5bc5ebb5dU,
  0xbe276c43bd9a1347U, 0x3d82a31abe37e724U, 0xbe12b0dd3d7b915dU, 0xbdb2ed0a3bd7b7afU,
  0xbe171cf23e94afebU, 0xbdf225c0bccb5496U, 0x3ea3a25b3e4bd6e7U, 0x3dd1b88ebe271212U,
  0xbda2d6eabe01c8dbU, 0xbe48c7c0bd773c26U, 0x3e1f65103d106d32U, 0x3db1e092be86c1d1U,
  0x3dbff8c53d706760U, 0x3e36d7923dd12a43U, 0x3de45ff53d7b185aU, 0xbda7588ebcc39c1fU,
  0x3ebc7480be17a81eU, 0x3cff72413e4b1258U, 0x3d991bf0be3682feU, 0xbd564e2abe815715U,
  0xbdd3111cbdb62f1bU, 0xbcbf4afcbd00bfe7U, 0xbd09cc6e3d7f4aa8U, 0x3c475389be8ae417U,
  0x3dc7fb41bd7f6b99U, 0x3dd16f89bcdb6342U, 0xbd082d5e3e0e5137U, 0x3debc0cf3e85619cU,
  0xbe4de8c2be327b3eU, 0xbe0f536abd7157a8U, 0x3e556e28be22e3eeU, 0xbdaa2a2b3d2a4043U,
  0x3c1748f93d9e8af4U, 0x3e077af33cb1a417U, 0x3c8587cfbe8c59a5U, 0xbe188eb53e88d601U,
  0x3d8704d0bbbc6153U, 0x3cd111fdbc58246eU, 0xbd909d043d631361U, 0x3e7d2267bdcb8838U,
  0x3d4ba72abdf9d84aU, 0xbdf2f855be08143bU, 0xbe3a6210bd0e5d07U, 0x3e2bafeabe08a14bU,
  0x3d06cb36bcde29b1U, 0xbe8647c03cb6d13cU, 0x3e3ad170bd5c5f9fU, 0x3da1ebae3d9d46d5U,
  0x3d9a9620bda7f204U, 0x3d5bc31d3c19d955U, 0xbe50da84be8b7af2U, 0x3d76bc90bdfef7eeU,
  0xbe2a8902bddd0e6bU, 0xbd3f85b93eac141aU, 0xbcb925e03b1063a8U, 0x3dd271a83de071e8U,
  0xbe10a7043da39e48U, 0xbe08e30cbe4f9d68U, 0x3e107c48bd64d596U, 0xbd32143f3e2cc645U,
  0x3e158ab33b875ef9U, 0x3e8b6b04bd2a037dU, 0x3e905e1bbdc78219U, 0xbe0ff4cbbcdffadbU,
  0xbd0ba000bd85a034U, 0x3cbf56cabdf26c8cU, 0xbe19fae93e31d5f2U, 0xbd9be0363db877f0U,
  0x3e0d8e303d635bfeU, 0x3cdd38023cb6f638U, 0xbe6d3edebe43ffb6U, 0xbd0c9a8c3e4c779bU,
  0x3d8a606d3dd0b633U, 0x3e0a44613de3c5f8U, 0xbaec4f6ebe44d10cU, 0xbd8924cc3d111f41U,
  0x3dee7b2cbe3aa529U, 0x3f0d34723d91f5beU, 0x3e8e8c333eb003c8U, 0xbdd39188bd9b68e2U,
  0xbcb4cc7c3d4ee21fU, 0x3cc163133dd91da8U, 0xbeab231c3e78ac94U, 0xbccc37ac3e060519U,
  0x3d6b48b53cb171eeU, 0x3da79cb03e9c32aeU, 0xbd796bcdbde618eaU, 0x3ed4679c3de2eb18U,
  0x3e48f8fa3e796715U, 0xbd8c5ca3ba8da8bfU, 0xbe0b3d41bc6665deU, 0x3de33ba8be6956f1U,
  0xbd27b3f83e7e52c8U, 0x3e2823a2bdcd0c9aU, 0xbe0975c4be7330ffU, 0x3da3a861bcde62c1U,
  0xbe2c7e7bbdd3e732U, 0xbd4fa9613d69a228U, 0x3dbb4b043e1dbbffU, 0xbd9a7f8ebc5edf66U,
  0xbcb160773ea25b31U, 0xbdb60802bdad8a03U, 0x3da52564be427a0eU, 0x3ce79e5ebe551054U,
  0x3ce71907be88996bU, 0xbe1d551dbd88c8d7U, 0x3e52cd23be10120fU, 0x3d871368bcb36173U,
  0xbe8b07d2be0505d9U, 0xbd3c773fbd9f6704U, 0x3dc9bcc1be955a1cU, 0x3d8bb9e6bdd582c3U,
  0xbe0ce63fbd313ba1U, 0xbcd47d0cbd520b0dU, 0x3e4be36abe7808ccU, 0xbd806386bebe7772U,
  0xbeb04b8cbe482bdeU, 0xbd8e0fae3cea8f5aU, 0xbe3925cabe7b82d7U, 0x3e499509be8127d9U,
  0x3e8483e8bdd839e2U, 0x3db5e9e43e3a0888U, 0x3edbba353b4c4ab3U, 0xbe1683a73e341160U,
  0x3e23ccf5ba9bfe76U, 0x3d2406ea3e3333caU, 0xbe8120f93c43d6dfU, 0xbcd4fcd23eebdd8cU,
  0xbd6631543d5dee4aU, 0x3dbef87b3da0a626U, 0xbe6ac206bba00264U, 0xbd866bf83ce9f4c3U,
  0xbe1c328a3d68d22eU, 0xbe6c53cabdbafcadU, 0x3df7787a3da329caU, 0x3d2e58cc3ed3cbc8U,
  0xbe2a5b74bdeefa91U, 0xbe5e3ae53e7782deU, 0x3e7ed811bdcec1acU, 0x3ea1f9e73e1bca3fU,
  0xbc8211963d3e280eU, 0x3dfadfa7bd9b4630U, 0xbe211d6a3bb8284dU, 0x3d90d93dbf1a376bU,
  0x3c8ed1afbf2b5045U, 0xbdf660323dab4f48U, 0xbe9401c3be0cbf7eU, 0x3e147ae2bde85b4cU,
  0x3c3edd6bbd71febaU, 0xbdb7c9bb3d8bd25fU, 0x3dc65a553e64072eU, 0x3e09cc6d3cb63399U,
  0xbdec66dc3d09e0d1U, 0xbdfaf017be57026aU, 0x3d4b04d5bcf36c52U, 0x3ecd53893d462dc0U,
  0x3e901079bd35bf27U, 0x3e1b6b803e48c9f2U, 0x3d2f85b03e1d4a8aU, 0x3d5844b23e2c8b93U,
  0xbdb160dcbcc65f08U, 0xbe278e913d34c24bU, 0x3e6aa81abdd9a876U, 0x3ce07e0cbdd1f611U,
  0xbabb098abd5a8b06U, 0x3e0183ab3e92e156U, 0xbd05f096bddbcf6cU, 0xbcd40e74be31c04fU,
  0xbe5a1a2b3e146763U, 0x3ddff7f63d157129U, 0x3dbb07433d62179bU, 0xbda07c69bc1bcee3U,
  0x3d67e57f3e131880U, 0xbe403efcbe946782U, 0xbdcf7f243e1a49ecU, 0x3e4af6c3bc3ec5a5U,
  0xbd9f5e7fbd646ecaU, 0x3d9216d5be9524baU, 0x3daee477be134427U, 0x3cb980d03e7b9c2dU,
  0x3e15daefbcbdfbebU, 0x3c852998be8b0520U, 0xbe8bbbb13d83da0aU, 0x3e56f18a3dfe127bU,
  0xbdf5a40a3dfa9693U, 0xbdc2df19be02708aU, 0xbe0993cd3c8a73c9U, 0x3c4260bf3e3f2118U,
  0xbb8599eb3dbf5b65U, 0x3e8a8350be213144U, 0xbd0fd69b3aae8ce4U, 0xbe7e1ddabe91e590U,
  0x3ec698823e15114cU, 0x3e4b758d3da87833U, 0xbd3722853c419977U, 0xbde416cd3dcc415eU,
  0x3e6f7e673dae6e09U, 0xbea658bfbe13df07U, 0x3e49b05dbcbf4f65U, 0x3e6549193e4b37a7U,
  0x3e2eb17cbe16d8f5U, 0x3c1fa2a8bc2da034U, 0xbdf463a5be9c452aU, 0xbdc48893bdd85deaU,
  0x3e9c33b13b463a7eU, 0xbea57e6bbb114f85U, 0xbe8769803d6a867cU, 0xbe4e3f3dbcc8b6eaU,
  0xbe2e9acabdc64d2fU, 0x3e5256f13a77c18dU, 0x3e4c25193f0b8f82U, 0x3e9a461b3e19e1e6U,
  0xbda2a03dbe1ee4ceU, 0x3d8b3c3bbdfafd46U, 0xbe1e0e8e3e18bcd3U, 0xbdf6bdce3d420826U,
  0xbc846d96be3e135dU, 0xbce33966bd8f8775U, 0x3e0e32e2be5a016dU, 0xbd595271be0a3800U,
  0x3d67b2233e2a38dbU, 0x3d0d7c13be19cc82U, 0x3df2525cbe12ad15U, 0x3d4a37e4bdac7557U,
  0xbd166d7bbe960c4aU, 0xbe24514a3e8a807dU, 0x3e805e643e521cfbU, 0xbdb89115bc2ef67fU,
  0xbd87bba0bdf09f59U, 0x3e80bcb5be2b7d14U, 0x3b7491d9bd4af1ceU, 0x3e039a743cb91004U,
  0xbdbbf857bd1408dfU, 0xbcc67bdf3e0da6c3U, 0xbe2fa5a23e139295U, 0xbefd04fcbdf54819U,
  0x3ce310a2be1bb44dU, 0xbdd602223e20427aU, 0x3e9a7d58bdcefc4cU, 0x3d300bf53d862f3aU,
  0xbeca9ab9bd864277U, 0x3dc4c96bbe507b60U, 0xbd1aeb39beb8c778U, 0xbd50bd2ebdacd8acU,
  0xbe1313c2be670d2cU, 0xbe11b4d43e4e1099U, 0xbe4c1dd43da5a889U, 0xbe1578f6bc80812fU,
  0xbe8877e73e174d6fU, 0x3e4c8bef3dd2389bU, 0xbe2bd4bc3e0f1238U, 0xbdb043e0bdda8b23U,
  0x3d3fff4c3e140218U, 0xbd9d298dbdddfe1bU, 0xbd4a156dbe411228U, 0xbe8ca1afbb9470aeU,
  0x3db794d63ea4b016U, 0xbd8c27fe3e464fb6U, 0xbf1375933dba361eU, 0xbc590a533ca5e030U,
  0xbe13f95abdf6e345U, 0xbe0d2ea13e2778dbU, 0xbed5c1d43db70c32U, 0x3e5ed9dbbeb07a75U,
  0xbdea93373db25115U, 0xbc94534e3e02cad4U, 0xbe01585d3e02b206U, 0x3e425e07bdd73cddU,
  0xbd53c63b3dda54c5U, 0x3b1e16f4bd96c259U, 0x3e456a05bda12225U, 0x3c1b5338398fdb4fU,
  0x3d1d05263cc60b65U, 0xbe0047a0be2f5fd5U, 0x3e4df560bd82a25bU, 0xbd78f8363e13f940U,
  0x3bbe446ebebf0e57U, 0x3d0c3d9abe34d9abU, 0x3e191b34be430e57U, 0xbe7640b4be22f083U,
  0xbcef80aebe81da13U, 0x3e41a542bccd2a7dU, 0x3e8fbc283becb4ffU, 0xbea699e73e84d866U,
  0x3cb2fcfcbe385dc2U, 0x3c70a877be188fe8U, 0x3db64e663e67aac2U, 0x3d1fdfaebdda35a9U,
  0x3d96243abe3ed8ebU, 0xbb99a1b63e5498f5U, 0xbde5f9fbbe07cb1aU, 0x3e5e45debc4418cfU,
  0xbd2934b0bd444b37U, 0x3cdb6c773dd76d62U, 0x3e0c553cbcb701a7U, 0x3da9f7aabe6f8afbU,
  0x3d441eacbe0a6350U, 0xbe25edcfbde8edd0U, 0xbd454d023e34a314U, 0xbe284d623ddbdebfU,
  0x3dbf39c5be065a18U, 0x3cbc66473d2951e4U, 0x3d92873bbd9263bdU, 0xbe0dda68be1b9be9U,
  0x3e2d573dbded65d2U, 0xbd12d6453d9f44deU, 0xbe244c3bbe13cb8aU, 0xbd3661d2bd8a9de4U,
  0xbd125e7ebe18633aU, 0xbdb3219bbcef110dU, 0xbdc55bb63d865f65U, 0x3e3f8a833e27793cU,
  0x3da900423e1142d2U, 0xbb9a16283d6bcdcfU, 0x3d7f1b993cde5a40U, 0x3dc5733ebc2f9248U,
  0x3e4ad601bd83ad8dU, 0xbe021e82bb1966afU, 0x3e09a454be74a460U, 0xbe306b493e5b3a25U,
  0xbdf57586bc6e3cacU, 0x3d7ed3bb3e2b166bU, 0x3d3e1f20bd1fba4aU, 0xbe5731b93d9ccc92U,
  0x3daa9aad3dbc28bbU, 0x3be08a7abccfa929U, 0x3daaad963da80919U, 0xbe145f1b3d4c1361U,
  0x3dad00603dd9d1cbU, 0xbd93314fbd04da49U, 0xbe990d29be53467bU, 0x3d0cb95e3cc86d1bU,
  0xbcd62c103da952bcU, 0xbca9732cbb9c93eaU, 0x3e69825cbdecec48U, 0xbde1950f3e44eba2U,
  0x3e477aa03d7c934fU, 0xbd4e82433d499fe6U, 0xbdfb17473e2d0fe9U, 0x3d3efda33e8baa8eU,
  0xbd945657bea11c0eU, 0x3d8a9fc93bd2a550U, 0x3dd8bcd5bdd8eaf4U, 0xbd685eaf3ebe5b9aU,
  0xbd68665a3dd08b6aU, 0x3c5e3c31be21a170U, 0xbdc55037bbaec045U, 0x3e1c1124bdda97cdU,
  0x3e8523823e416425U, 0x3daef0463d94de32U, 0xbe4247dcbde815c2U, 0x3c921428bdadf4c0U,
  0xbdb38d1dbe375657U, 0x3cf340363d19e5d7U, 0x3c74ff6a3dd549a2U, 0xbd6411ba3e0eae2cU,
  0xbdb3cc933c717279U, 0xbd8fc21a3d0edae0U, 0xbd39fd2fbd8060f7U, 0xbe1664f9bd16644fU,
  0x3d68cf303e194c7eU, 0x3c8da3193d050ddcU, 0xbe09e26cbd85d43cU, 0xbddb27c1bea35da8U,
  0x3e441e723df58766U, 0x3da9ba3a3da9e14fU, 0x3c5a23673e2a92abU, 0x3e805aafbe2834e1U,
  0xbd8e12d83e434458U, 0x3e21be75bc8541f5U, 0x3e154df03d830c67U, 0x3d374e0f3d9512f9U,
  0xbdde29d73da17c5eU, 0xbe3bf8b83e6fa53bU, 0xbe1b1ec73ce6e117U, 0x3d2abebfbe15fcedU,
  0xbdcba502be5cad87U, 0x3ecf6e393d8e8844U, 0x3e7f2a67bbfd8b7cU, 0xbcd87bff3cfd1983U,
  0xbf0faf223dec06e3U, 0x3d9c3c8e3d64efd8U, 0x3dc1fdea3dd6ecf6U, 0xbe27556ebe6b8638U,
  0xbda1cee63dab95e7U, 0x3ce561e1be93a6e6U, 0x3debffec3d2cdc57U, 0x3e959c3ebe7aa488U,
  0x3b91022e3da3bde0U, 0xbe94333dbd61ab01U, 0x3e2ff421be6911bcU, 0xbdb9d7bfbef42df8U,
  0xbe0f0be3bce269f5U, 0xbd82bc8e3e5ad592U, 0x39055d013d88e86fU, 0x3e09a0793c5d3b7aU,
  0x3dd58df5beacdfeaU, 0x3e9e23723dee8c0dU, 0x3e025b0c3dd24831U, 0x3d9a4846bdd8c9dbU,
  0xbdd57c773d760369U, 0xbcf0e7fabce5fc51U, 0xba4d1e35bd90d9bbU, 0x3d834b853e1184d0U,
  0x3ddc7376be605507U, 0xbd408f16bc97fcd3U, 0x3d9bea2cbe4641e2U, 0x3db9a3373dce2d6aU,
  0xbd8465873e0ffe6eU, 0xbe52e543bb661c22U, 0xbd406d623eab66ceU, 0xbe485107be108157U,
  0x3b3deca8bcaa2988U, 0xbe4420183dc1240dU, 0x3df4e07ebe1514b3U, 0x3da55713bd8dc4d7U,
  0xbe1fed6cbe3e6a02U, 0xbdebf3453e04c7c1U, 0xbdb6c3e0bd9a0214U, 0xbdc219bd3d16c93aU,
  0x3c8395d9bd551e53U, 0x3dee12a63e7dcbe3U, 0xbe1bd4e9bdb62f16U, 0xbe329289be1c3e28U,
  0x3b8682523d8e83beU, 0x3de34b39bb74488aU, 0xbdbef04a3e4a78b4U, 0xbdb8d6f83de59d75U,
  0xbe0bd0a0bd19471cU, 0x3e55c2803e6b4adeU, 0x3d603c6dbe02f6c7U, 0xbd88caddbdefa112U,
  0x3e1be5403d455032U, 0xbc82155cbe6a920fU, 0x3e3e1abb3e9f0536U, 0x3e161725bdfa503aU,
  0x3d88460a3d3a032cU, 0x3e66d62bbda3643eU, 0x3dc41fc4be4b141aU, 0xbd86fb63be8bce34U,
  0x3e90cbfc3d247306U, 0xbe8662c6be345cd3U, 0xbe4bae4f3e902014U, 0x3ea18f03bdfb61e8U,
  0xbe0ff0f9be0ce08eU, 0x3e63995cbe7d001cU, 0xbdb0130d3d85498bU, 0xbe421ce43cc6e6efU,
  0x3f0d7096be176d79U, 0x3dace4013ea84a55U, 0x3db85960bddda17eU, 0xbe00ea383d7dfd01U,
  0x3d1f6aa2be6bc0b4U, 0x3eb6f1073d5a4a91U, 0xbbb14456bb81f978U, 0xbe90e79d3e6049d3U,
  0x3f5cb39d3bac9f51U, 0x3d717facbed77369U, 0xbe8880cbbd189188U, 0xbd8ecdd33c882bd4U,
  0xbd51480ebe54a251U, 0xbe6bef2d3df70a11U, 0x3e93dbb83baf6536U, 0x3e88d60cbc6ff188U,
  0xbd432b84bdfd038fU, 0xbec21ba5bd167d0fU, 0x3cb874b43be00ab3U, 0xbe867ac93d08229eU,
  0xbe36a0623e4f6726U, 0x3e0082dcbdfce41cU, 0x3dd5d7da3dd44d6aU, 0x3da3438bbe3dfe57U,
  0xbd7f45a13e1d575dU, 0x3dd684983da6040dU, 0x3d54f8f4be178a3eU, 0xbe21c40ebe048c20U,
  0x3dc8ac62bdec766aU, 0xbe9471c23de11b71U, 0x3e7a4a163d6380f6U, 0x3e47652c3e4856a8U,
  0x3c447ad4be06a05aU, 0xbcea67d43c0e594bU, 0xbd2a5093be904ec6U, 0xbd99c72dbe477c5fU,
  0x3e70fa6a3ea0bbe7U, 0xbf1ac995be76f796U, 0x3da66b563e2bb8b9U, 0x3db844653cf1fe6fU,
  0x3ccca96dbe406ad6U, 0x3db2f68a3e0cd1e2U, 0x3e15b61bbe1715baU, 0xbe8e7b033da14897U,
  0xbe8668683e0b3a69U, 0xbd237ef0bdd4114fU, 0xbe226c6cbe8a9d9fU, 0x3e47785a3e8bb116U,
  0x3bdefda2be1efa61U, 0x3f1c5814be28758eU, 0x3e52897ebd4b02afU, 0xbd9983083e114a48U,
  0xbe129454be9e2637U, 0x3e827fb7bd3dfcf1U, 0x3bdacb63bc737323U, 0xbcc2b9ddbe0e89dcU,
  0x3e881ca13e85f470U, 0xbd5df032be3c90ccU, 0xbd891d09bed598bdU, 0xbd58dc61bd2fa065U,
  0x3e7dc027bda8e75cU, 0xbe4a9c373d951250U, 0x3d5f2a9dbe93e16cU, 0x3c2623163de81165U,
  0xbed766a9bd308db0U, 0xbe53bbd93c251c47U, 0xbb1360953c252d61U, 0xbeda425a3dee334bU,
  0x3e8135673e01c35eU, 0xbdc67dcdbd2e9cdbU, 0xbdcb86663dc6b599U, 0xbda9d0813db3435cU,
  0xbe7dc6063e15534aU, 0x3de35c693eaebe88U, 0xbe24f94dbc08894dU, 0x3bf1c9d7be9c0c98U,
  0x3e2e3fd6be2c2cb7U, 0xbce15448be8c826dU, 0xbd8fc6933db7b364U, 0xbcd38f7f3e9ba0e8U,
  0xbd4ba4043f1bc444U, 0xbe83947f3c22f559U, 0x3ea01a673d0bf4deU, 0xbe4716213b0c3a5aU,
  0xbd954962bcb4fcefU, 0x3d075eff3d30cd9cU, 0xbd0b2fc0bea2d2e2U, 0xbe4f73cfbd056330U,
  0x3e102a76bd06616eU, 0xbdb4ae433b67a515U, 0x3d8902983db663f7U, 0x3ddb9a2fbca749ecU,
  0xbe23782abd00b3c1U, 0x3ced0cf53e28c158U, 0xbe1c5c22bdf15cc5U, 0x398c3fa33d172572U,
  0x3d775efb3dc3ab91U, 0x3cebf6bbbd858130U, 0xbdf41b743d126803U, 0x3e1a6f0dbe21667cU,
  0xbd99ce2abeae331eU, 0x3dcee96e3d43e442U, 0xbdb48a2fbda4f4a0U, 0xbbdb78d53d6a40cdU,
  0x3cbc8f4ebe21da45U, 0x3dc00d53be6378d4U, 0x3d81f561bd746f35U, 0xbe18fab33dfa8981U,
  0x3de432f93c94b989U, 0x3e77d2c53e0d9498U, 0xbcd37602bddee7d1U, 0xbe274ae7be5ebf4bU,
  0xbd5762e63cc2f2ceU, 0xbd14ab05be4835f5U, 0xbd953948be410b87U, 0xbe2f489e3e0b4e7dU,
  0x3dc3d11bbc8ed618U, 0xbe904ba0be50728bU, 0xbed9ca543cf2600cU, 0xbebbd4d43eb1795bU,
  0x3bb5b5fbbe6eb24cU, 0xbe6555893e27706eU, 0xbcc5e9383e97ef95U, 0x3de444d5bd250605U,
  0x3e991ebebedb7904U, 0xbd042665bea1caa9U, 0xbe4be6febdadefb3U, 0xbe8c4eeebd5edbdcU,
  0x3e056b18bdc32a2eU, 0xbd553b68bdd78458U, 0x3e48c96abe0bf946U, 0xbe82e2093e5cd8fbU,
  0xbd0d3755be84b66bU, 0xbd4259c53e055297U, 0x3ed9ff9fbc2e05efU, 0x3e6726003e5b6a26U,
  0xbe68909cbea79d22U, 0x3db546c7be1041a1U, 0xbd090c8dbe19d33cU, 0xbb26f917be646266U,
  0x3e0039ddbe6a7ad8U, 0x3ceec1f33e55dc60U, 0x3df829cf3d47f483U, 0x3e9c496abcb5f86bU,
  0xbe85f1f83e23c930U, 0xbe8fea343e357c65U, 0x3e0e0f37bd6960caU, 0xbe168f47be16656dU,
  0x3d1550d2bcc7683aU, 0x3eb3d2b8bd28dfd0U, 0xbd619887beebe4baU, 0x3dd712e23a86958eU,
  0xbe8620af3e6660edU, 0x3e55028bbe8bf50dU, 0x3dd82b3a3ea12663U, 0xbe00bfd8bd427264U,
