
/**
  ******************************************************************************
  * @file    network_data.c
  * @author  AST Embedded Analytics Research Platform
  * @date    Wed Aug  3 16:49:59 2022
  * @brief   AI Tool Automatic Code Generator for Embedded NN computing
  ******************************************************************************
  * @attention
  *
  * Copyright (c) 2021 STMicroelectronics.
  * All rights reserved.
  *
  * This software is licensed under terms that can be found in the LICENSE file
  * in the root directory of this software component.
  * If no LICENSE file comes with this software, it is provided AS-IS.
  ******************************************************************************
  */
#include "network_data.h"
#include "ai_platform_interface.h"

AI_API_DECLARE_BEGIN

AI_ALIGNED(32)
const ai_u64 s_network_network_weights_array_u64[ 16847 ] = {
  0x92918b9093839195U, 0x95878c95858c938bU, 0x848d8e81898f8b8dU, 0xedec85d5d0868e8eU,
  0x80b0eeeb9d8d879aU, 0x8a87976e2c2d968bU, 0x789c9c7572701f41U, 0x9d897ea97e82ab8eU,
  0x8c75ac8c86988684U, 0x7ba48987949c8293U, 0x8599a280a0a18185U, 0x91a47c98ac7792a4U,
  0x968496a98695a485U, 0x8d91908691a28a9cU, 0x978e96919a8e8e93U, 0x91a990949c8e929eU,
  0xdd8f909f938ba695U, 0x5bacffbbe4e09282U, 0xacd7738ea0854c36U, 0x8d576500ca7715c7U,
  0x83aa8b7ead8e8ba9U, 0x9a938ca28683a890U, 0x8b809e9079b28b8aU, 0x8c939580a68d7ea6U,
  0x978c8a91968a9d9fU, 0x8a8d9aa595a1a896U, 0x929a9a8a98978e95U, 0x180d000014ceU,
  0xffffdb4b00002733U, 0xd15000001b3U, 0xffffc65600001c7dU, 0x919cbc4f856c7695U,
  0x8478bb44847c3a9aU, 0x2f928873cc628392U, 0xcd16cf0249ef3b44U, 0x943cf53020cf6443U,
  0x80a8bb94916cffa2U, 0xa80ea43e4beb7200U, 0xd235c35d1dcafa35U, 0xbea1b0bc95817864U,
  0xfffffffb00000295U, 0xfffffba1fffffa54U, 0x30000000ebU, 0xfffffe8500000152U,
  0x9cd882696d5b7be2U, 0x80869f7772748987U, 0x5d4e88b02d447d79U, 0xd2c684a37174736fU,
  0x98df8fb27c89755bU, 0xb985b972637bb57cU, 0x957781788786216aU, 0x8e7b6a545a547f9aU,
  0xa15c99dc67396185U, 0xbcb96d26ffec7c78U, 0x936c837d82881653U, 0x9a7f7f837d7f0077U,
  0x7fbd7a9160537dc8U, 0x78852f8d7f7d7e84U, 0xa93b637164747c5bU, 0x788a893d656580a3U,
  0x52b000008feU, 0x86000000665U, 0xfffffd3c0000064bU, 0x25b00000195U,
  0x2cf000002bfU, 0x20000000cfU, 0x72700000dd5U, 0x161fffffdebU,
  0x587f739f4dd07b6dU, 0x12a3a02e817d7e61U, 0xab7da73f3bb8b9ceU, 0xd19f3a5e82bfa9U,
  0xb96db022646eadc2U, 0x77975d953c90a4d7U, 0x10686dc25ed5410dU, 0x734f6f0b65701f3eU,
  0x9c48cc5b9c5bc76fU, 0x9868ed8913cf92aeU, 0xfff7bc0aa80debdfU, 0xbab19ce86645e7ddU,
  0x55874dbba5729660U, 0xa95714735fa3395eU, 0x582d3eb8d440922cU, 0xd6096dcf60192f6dU,
  0x898469879e59a366U, 0x9665cbaf619e817cU, 0xfffffe5c00000420U, 0xfffffb8b0000036dU,
  0xfefffffcc2U, 0x20b00000131U, 0x268fffffdd2U, 0xfffff9a000000023U,
  0x71fffffb2bU, 0x19afffffc50U, 0x6a89855b628fcbb7U, 0x7a729a8d8a87718fU,
  0xb88b8a7b926ba29aU, 0xb57085ab7a858897U, 0x87898283957fa242U, 0x9b98895e7a858987U,
  0x7087808690796e7fU, 0x1a8d90a178818669U, 0x927f898e8686a59eU, 0x71856485898b838eU,
  0x5d8b8fd0711d8f6dU, 0x80908f7f8a864de7U, 0x5c877d8275918364U, 0x7e73928a8c85ba73U,
  0x8b857b6677a6806eU, 0xa94a788e81846982U, 0x886f81858e838687U, 0x8489888688e18882U,
  0xaa89868559758993U, 0x866f912a7c848890U, 0x92867e8e83868c84U, 0x889f827f88853996U,
  0x5e8676888f87a06aU, 0x8d65698e8988757cU, 0x83ff7b8d8d837f8cU, 0x7d87808f5d6c8483U,
  0x82803f8b84827081U, 0x908b8c7f88868a8aU, 0x98885695bb7c809dU, 0x887dae6a6e82839bU,
  0x864e7e838a818b83U, 0x808c8c8c6f338a83U, 0x6989976e94b48492U, 0x8f8d798471828d38U,
  0x8c8486485f367c85U, 0x856d7c997a84c05dU, 0x8379b7977f7ea38bU, 0x9ca485878f8e9584U,
  0x668986756a8d978dU, 0x9b54ab9789858292U, 0x53888200bf889396U, 0x978696998c888468U,
  0x828080b08e808170U, 0x8e9c258b91819785U, 0x8f76a68a6c89a08bU, 0xca88856830897f84U,
  0xcd8890988082937aU, 0x938b877a9a8a7f84U, 0x8b8e9a9fae8b8e79U, 0x8e917b516f7ea178U,
  0xb38a8486818a848cU, 0xb38e86557d858d8aU, 0x8a898b85916f8859U, 0xaa7c88b180869c8eU,
  0x80838190946d8c89U, 0x948c8ce187868074U, 0x9d898b69a4cb9ca6U, 0xa0888b857b86c181U,
  0x80818e6f8e908b8dU, 0x6f86867b397c8196U, 0x928896807fa78b74U, 0xaea48cbe8a879778U,
  0xb78b7d9598816ba6U, 0x73ab9c7c84807e86U, 0xfffffe66fffff852U, 0x426ffffff25U,
  0xefffffff4aU, 0x1760000006bU, 0xfffffeedffffffefU, 0xfffffee900000018U,
  0x207000000adU, 0xffffff03fffffe72U, 0x9200000058U, 0xfffffd8dfffffd6cU,
  0x4a1ffffffc1U, 0xfffffeddfffffbc0U, 0x2efffffef0U, 0x103ffffffe3U,
  0xfffffe82fffffe4eU, 0x1ce000000fcU, 0x7e7a8b9487738076U, 0x8093a27b9f7b7a89U,
  0x858c819e8da37b64U, 0x767888957e769074U, 0xe66b6899a4b26a74U, 0xa3b59f949c39dca1U,
  0x7d8a779a4e972152U, 0x89bfa28c7636878dU, 0xc38c856ba5a98e84U, 0x989ec17d826aa18eU,
  0x7d908a69849f6768U, 0x7b9d87548f5f319cU, 0x797e6088a166687bU, 0x906fa786b2829592U,
  0xa2835b949a927e5eU, 0x8e8691a16e849155U, 0x6b181ff1515e382fU, 0xd9a79cf395526bdaU,
  0xec003bdf4a9cc078U, 0xebb51799ff58cbcdU, 0x6179a0782ddee882U, 0x797b907364863587U,
  0x889088584386a296U, 0xa970a62b5c81697aU, 0x7388908783858491U, 0x7b729a828a897c7dU,
  0x788a85828c98907fU, 0x8d7a868475888388U, 0x777eba7d668e9376U, 0x795a8d77bc8e6e81U,
  0x64987e7380849395U, 0x81777c7681916f68U, 0x748d788b9f5e7985U, 0x8779978286999185U,
  0x808b83819d778387U, 0x8971979576827964U, 0xffffff7fffffffeaU, 0xffffff8a00000025U,
  0x610000002eU, 0x1900000045U, 0xfffffffb000000a2U, 0xffffffee0000002dU,
  0xffffffd1000000e8U, 0xaa00000029U, 0x8ffffffe8U, 0xffffffe7ffffffddU,
  0x6c00000025U, 0xffffffd1ffffff89U, 0xffffffc9ffffffe8U, 0xffffffda00000008U,
  0x1500000006U, 0xffffff8b00000002U, 0x94f9bcaba78dbe8cU, 0x8596d48c98809872U,
  0x4484c26f8ec78c71U, 0xa6a0973ca8786cU, 0x905f898a9b54a68fU, 0x87c0ad7c9266888bU,
  0x9b8b51b4599a9f7dU, 0xa388c39f6a88807fU, 0xca9d937a9b516f6fU, 0x797b5d76a69bb17aU,
  0xc090879372685ca9U, 0x9645bf71579aa386U, 0x8e84868ecca8dcc7U, 0x909f928e82968998U,
  0x9eba9fa784879083U, 0x96694580b6ae6185U, 0x898c6fbb9f969682U, 0x3581a332af797a1eU,
  0x88fb857f7fbd827dU, 0x948a94908d896a81U, 0x559e6fad979b8f96U, 0x9db69fa07bc46691U,
  0x677d997fa1866bdbU, 0x786e6e9ba74c8a6cU, 0x86a2e87994a98c76U, 0x6f78876d8ea45f78U,
  0x919795ba9c7db799U, 0x69748196a18c7b87U, 0x838e397baf789596U, 0x95868391947f8b95U,
  0x62819376a47c6191U, 0x6da08e388ae66474U, 0x7978a2ae90bbaba4U, 0x959684967e595a8eU,
  0x5284b3aeb278c155U, 0x97c490b9ac966b9cU, 0xa299869533888aa4U, 0x888261879299de8bU,
  0x899d8c90a555808bU, 0x9aaca59b967b6187U, 0x898481868c48f187U, 0x9a8d879a9685cf9eU,
  0x917d7e497a88948dU, 0x8d87ae906776b285U, 0x878b77938090059eU, 0x839b6a8885948987U,
  0xac8f977a80879284U, 0x91869b6cbc96938bU, 0xbe8d927c52695ad4U, 0xa3c088ac8d93438aU,
  0xa038d19ec3787880U, 0x7cb9a998b57377b9U, 0xa08682d87fd57b71U, 0x90847e92907e778fU,
  0x9b8e98707b8c80a0U, 0x82978e9f83918c88U, 0x7f8da5a28e81b072U, 0x909f949292738f91U,
  0x768b879ca9959d56U, 0xaf87a29ca3a78677U, 0xac9b9d6876af798bU, 0x6a7f9648b8a47673U,
  0xb8b06d7b7f828b87U, 0xd09ebe889c8cbaa0U, 0x8fa1768b95a09279U, 0xa4a17ab5988e73a1U,
  0x836667cb7682899eU, 0x8e734983cbaf718bU, 0x97ec6c8c7b91879dU, 0x98b29c9ca99e9292U,
  0x8d73ae95caa59894U, 0x8b80a7af9dd3a2a3U, 0x9aed946f9ca07ee0U, 0x9d49909776dc8f9eU,
  0x709ec3797b999088U, 0x4899a5826d8a8340U, 0x8d868b84b2838572U, 0x17a8ae2c7b7f9220U,
  0x96b99e9c899d8f7aU, 0x959db28f608ea27fU, 0x9b799a959d949c43U, 0x7da67885607e8880U,
  0x90908695759d85a0U, 0x8fa79f85748287b6U, 0x9390c7aa8775afa9U, 0x988d5991b889a8a5U,
  0x81c16492d77bc17aU, 0x9996959c8aa97676U, 0x6576a07da7bf746fU, 0x839ba17e7db5827eU,
  0x8b8f9ebdaea2879dU, 0x9f939357576795dbU, 0x7377a48ca6b3b486U, 0x9080898fbdb85d92U,
  0x66877d969e93949eU, 0x8469a86eb4c04182U, 0x7fc8b1d478989484U, 0xa0a0959fdca486a0U,
  0xaa97837d577578a0U, 0xa77a8d7b819d8095U, 0x749aa2c65b969ab9U, 0x9666529361897594U,
  0x9dbd9669d68386bdU, 0x877d8b7597ae9d85U, 0x3e909080c27d917cU, 0x9275ba888269b59bU,
  0x47a49f8f8ba39d8dU, 0x64899a8f888d6d91U, 0xbca97a63858396c4U, 0x9d8c7a9668547fa6U,
  0x9fa6a16e7677a798U, 0x968176d4898dc579U, 0xb97ec8aa8080b099U, 0x9d848ba47088b898U,
  0x946c9c77857db75aU, 0x88739ea5a473a76aU, 0x917699858663b99aU, 0x6176a7488aa9c365U,
  0x9ccb9e7aac86a582U, 0x89b2b79c7f95a48aU, 0xda8c9c899196978cU, 0x87b391867776938eU,
  0x819d6c878f76ffa1U, 0x97af848b856091a8U, 0x83826e8e8c5b86a2U, 0x948e949685a3ca98U,
  0x9984785b74943fa1U, 0x906e9245c092b68eU, 0x600000016dU, 0x5700000147U,
  0x124000002b4U, 0x2b00000147U, 0xfffffec700000009U, 0xffffff500000015aU,
  0xfffffe00ffffff11U, 0x16b00000200U, 0x275fffffdc5U, 0x33200000183U,
  0x4f00000238U, 0x4700000121U, 0xddfffffe6eU, 0x1c100000291U,
  0x44500000191U, 0x56fffffff5U, 0x9f4799ba4b906056U, 0x4d496654aaa354a3U,
  0x56a64468a235959cU, 0x4f8a4f516a58578fU, 0xa736a0c037994639U, 0x3e2c7043b9c24aacU,
  0x4bac42b3c7157bb6U, 0x4099384b44493aafU, 0x855d83845d825b5dU, 0x684181618b9a6a8bU,
  0x638e70caaa4c5d96U, 0x61895a6648614c99U, 0xbc33c3bc28a6533cU, 0x36583e35b0b52ac1U,
  0x3bb6344dc21db5b3U, 0x3699353e46315491U, 0xd32bc2de11c9280dU, 0x106f2924cfd61cd6U,
  0x20bf1388ff00b6d9U, 0x1cc5191a1c172ac4U, 0x9e5a85a959a14938U, 0x4e7a615d9aa25c9dU,
  0x489b4daac7457ea3U, 0x4fac4b48485041afU, 0x9a5ead844f946a5eU, 0x5b824d508a944797U,
  0x5a8a5f5ba958ab94U, 0x5b8e5862544f6c84U, 0xb65ba7a143ad4e4dU, 0x43b72b4e939e42adU,
  0x4295413dc457bfa4U, 0x49b04840483f5891U, 0x9968759770945d53U, 0x61a752757c866b94U,
  0x548a534b906b938aU, 0x63a25f536b5f5e8fU, 0x4b0000008aU, 0xffffffec00000034U,
  0x5dffffffd6U, 0x4f0000004bU, 0x34ffffffd5U, 0x200000062U,
  0xacfffffff9U, 0x2d00000012U, 0x35ffffffcbU, 0xffffff57fffffff2U,
  0x950000001eU, 0xffffffa30000003dU, 0xffffff930000001bU, 0xffffffdffffffff4U,
  0xffffffa800000047U, 0xffffff51ffffff9bU, 0x8662656371806963U, 0x8b5da7a15c766080U,
  0x595b71836585927bU, 0x666f88707c5e9a60U, 0x839c6c4199967649U, 0x9872727e7c839161U,
  0x6d6a72b374768367U, 0x725f7256647c6883U, 0x78714e776c775c89U, 0x813c5e6e6f646794U,
  0xa0706160648d7794U, 0x8c84837164648085U, 0x87685f75707d9f67U, 0x84747e8d607da673U,
  0x6f5a6e966d5c5f3aU, 0x745f3d836a964a55U, 0x6a678966c4715b75U, 0x817267706b7fb07eU,
  0x9e738e9a636b6964U, 0x66786769918e7755U, 0xae25523f8160a84cU, 0x674b7c65406f6864U,
  0xbc59418a7e6b7174U, 0x8d966c6da3985b80U, 0x7f6754765e6f6770U, 0x6a696d819d70a45fU,
  0x5f6a9574798c7a78U, 0x6b44456f53b07e64U, 0x5f8c67337e5b5d6aU, 0x97bb4691874b8facU,
  0x6860666a63846e65U, 0x72637f7079435199U, 0x7799606e5e5a7e82U, 0x6a7f877d85a38893U,
  0x695377786f9081a6U, 0x792e64797fa76e56U, 0x3bba743b728f7584U, 0x7a5f89af78886952U,
  0x1b724c8829816970U, 0x885581924869638cU, 0x797f5c888a5b5469U, 0x7a4b685e678a6b6cU,
  0x797894883a9e5f77U, 0x588866607c6f8f5eU, 0x62693d92ac72586eU, 0x787761975c6a7a64U,
  0x7b71567456ae487aU, 0x7b967fa366628897U, 0x6f946588656c6778U, 0x8b7b6970661d7f74U,
  0x5ab78c6f876b8260U, 0x8e807e764d6f3e7aU, 0x6b796d65e770676cU, 0x506c79a2216c7f7fU,
  0x757c7c9257706881U, 0x6e8c8e7e6e6d655aU, 0x656a726371984673U, 0x614e706188827d47U,
  0x7c3e9458778e696cU, 0x4a60914661808595U, 0x65aa925186736c5eU, 0x67698d6d8161746aU,
  0x5a79a0856f8f5c86U, 0x617b8247975d6d86U, 0x607a75758c777477U, 0x40816e788f3b6c90U,
  0x6f677657a63c8a7cU, 0x6b688b6c6a856478U, 0x74695a36517d5e57U, 0x80466d7c84667fa6U,
  0x70717a8882775f30U, 0x88886063704e756cU, 0x6f6d7d6f94797881U, 0x695f716a29676535U,
  0x75707c5e5f60a89eU, 0x4a5f7d7a80817799U, 0x77667f695a70a35eU, 0x938b8e789a8d868eU,
  0x6a83627974639567U, 0x6c1e735460a1543eU, 0x757871517d846663U, 0x567c3d8c5a787556U,
  0x726b644493795385U, 0x7b9a577072808c82U, 0x77598fa3a7b17a54U, 0x98805b9796576088U,
  0x6d8b625b6196849dU, 0x6f7c875e76c17e56U, 0x84885f76616d94a3U, 0x6a94444b85827454U,
  0x7e728969549a6255U, 0x7281415e69725079U, 0x6e7e6b6b6c83948aU, 0x707b406a8a7d6c7bU,
  0x5c9495745295816fU, 0x5f817d9d77706780U, 0x3f805689667877U, 0x5e746582709a7780U,
  0x805f98a0597a5474U, 0x765e75669a6e724eU, 0x89977f5d936b7962U, 0x957293a16fa76aa5U,
  0x8f7d62995b9a6e6aU, 0x509faf8473719977U, 0x5b8f77814c9e979dU, 0x838c746a6e6e577bU,
  0x9452817d67908249U, 0x416b6674905a556eU, 0x50417682764066afU, 0x5d848d7a8da56379U,
  0x8e9555875e86703eU, 0x9378ba545e6a5086U, 0x425a459660736193U, 0x515f89707d905a82U,
  0x5a78687d95ae7b6aU, 0x72825a878b82606dU, 0x7871827876a45d77U, 0x976da57b6194826cU,
  0x64774e768382747bU, 0x706b3b733d8a7c4eU, 0x6b666a4c747a72b3U, 0x6f6d8291809a647cU,
  0x87614f983fa1427aU, 0x7b6385487166688dU, 0x848122677373627eU, 0x707c7b9c767eda78U,
  0x7a72695a77747380U, 0x734a7f8c66987285U, 0x498a7b6c6f7e8367U, 0x5458816064927744U,
  0x4b64567e676d747fU, 0xff5a675ca3698a8aU, 0x6f756f8f7b9b779aU, 0x5f7e909c5e778f6aU,
  0x96953f885c95533dU, 0x75617c6754804293U, 0x6e674159615e7da0U, 0x7c85928f6c7d947eU,
  0x664e6b8d4b7a594dU, 0x7272757966718270U, 0x8a4d77994287933cU, 0xa4638856976a5647U,
  0x7269ad56374f460dU, 0x7c84817959845297U, 0x3a6bae8f80938e43U, 0x6d698a356976217dU,
  0x9f657558a08c6c6bU, 0x747d8d8174475070U, 0x636d4c5c80886a65U, 0x8c735c63755b6c6aU,
  0x5c76805a5e938a82U, 0x8b6a8f3e758a8d91U, 0x573d568b4d682278U, 0x7f4b9c7c6b65543aU,
  0x725293826e9d6f69U, 0x714db2417e869a72U, 0x845a7f9c60736869U, 0x959f672e786e8e91U,
  0x9aa76b818d37676eU, 0x5d606c606e5e8e76U, 0x70a183877f618179U, 0xaf75634b6a5ea07eU,
  0x8f73535c7b698e7bU, 0x83856c6f4f665f7dU, 0x5c7f73724c5bb975U, 0x61879945827d955eU,
  0x418c82764c59507eU, 0x655f614c93972e79U, 0x9073824f9f657c7aU, 0x70885d3f76336391U,
  0x5d55658135b24d68U, 0x797b655f8c83647eU, 0x7c569c695fab8688U, 0x693d83846e6d7488U,
  0x873063689b4e6986U, 0x984960a2a7666060U, 0xa7728f69793b778cU, 0x6064676d7864882aU,
  0x767e6d72665f856fU, 0x837c5c865d61856fU, 0xb7529165645a8a75U, 0x7378a2767788713cU,
  0x7f3861595ba2796eU, 0x586e5c6571566472U, 0x684c84b075747b60U, 0x514a897973a0915aU,
  0x6b6d80a0c4688b5eU, 0x667879976c7d785eU, 0x6e7859885d655698U, 0x6f934b939c90ae40U,
  0x6592894973847580U, 0x754c547a7ca2876dU, 0x2b6e9985a5849d40U, 0x7968774c0f4a526dU,
  0x60644e5261636153U, 0x6690946ea24b6079U, 0x83874a875d5b8772U, 0x7253726e7a9277a3U,
  0x772870865491a08cU, 0x8e707d823a7b775fU, 0x837e6b8b9f3c5c68U, 0xaf86598e826fa56eU,
  0x635d69944fa6695bU, 0x716d6a637b7b9279U, 0x6c8179785772ba6aU, 0x965d8d58678a5983U,
  0x68696a584f80776bU, 0x6a896f567d677c44U, 0x6d94784b6e665684U, 0x82526d5b70927c73U,
  0x5477597b59866478U, 0x5a62a19b895a8658U, 0x9b71405f53727783U, 0x979166636d528d8aU,
  0x6056753c567b856eU, 0x3476ac9492819177U, 0x55af455e7a3e4f77U, 0x706c9b69628c678bU,
  0x52796d586d74799bU, 0x754590339d807673U, 0x6f7b72a8ab7e5049U, 0xad956e6c818b8a72U,
  0x65646674749f735dU, 0x5e6b9874ae7eb082U, 0x597d7181706d417cU, 0x96846e6b958b5976U,
  0x8177866a7283a09aU, 0x6573898892519a79U, 0x60558d7093a28f43U, 0x807472583268506dU,
  0x9a5e6c856a72634fU, 0x6d9a6e62a0457869U, 0x8469535c7b5c837dU, 0x908f86689e6e8378U,
  0x5b8151537e6a837fU, 0x802f535c729c6f49U, 0x8f9a744e7370605bU, 0x446d9fa052628b90U,
  0x6e86837d7c6641b2U, 0x79749349927c6b60U, 0x6464775f6f946ca1U, 0x853b646164766d79U,
  0x748e286867844678U, 0x665d7c8e9571a166U, 0x6d636f98715e6a41U, 0x6d816e72496b7e6cU,
  0x82667f85a49a5437U, 0x627c617b976c8490U, 0x8171667d699580a2U, 0x785aad6b737e7476U,
  0x627a268f5a8f5f65U, 0x707458b46c424aa7U, 0x72728e746a75705fU, 0xa7808383728a8883U,
  0x4e8f7c9a6a869787U, 0x9d6d6e7493677d58U, 0xa2000002dcU, 0x8f200000123U,
  0x4560000032aU, 0x173000002eeU, 0x638000005b0U, 0xaaa00000197U,
  0x50400000051U, 0x2e00000007U, 0x39fffffdf7U, 0xfffffe72000001cdU,
  0xfffffeb70000006dU, 0x5affffff07U, 0x4b20000048eU, 0xffffff1c000002d5U,
  0x6100000018U, 0x58a0000025dU, 0x1f9000002caU, 0x2aa00000a80U,
  0x2c4ffffff91U, 0xfffff8d2000003e1U, 0x1f600000097U, 0x393000002fcU,
  0x334000000ccU, 0x5d9fffffe2cU, 0x3f6000002a4U, 0x2ad00000772U,
  0x7de000003c8U, 0x3b00000031bU, 0x35dfffffeabU, 0xffffff8000000342U,
  0x42a000003a1U, 0x9900000105U, 0x56c688d8647c8f66U, 0x95684e971fa76ea4U,
  0x617d9ea6858e7d8cU, 0x86857888a8627b77U, 0x6c8c656092a07a73U, 0x97607b776f7a6d72U,
  0x617c8178bb868567U, 0x8862a4a22f8b496bU, 0x6cb59fd14779b143U, 0x6058676aa5b387e4U,
  0x4792a7d8a79682a2U, 0xb97b874690558178U, 0x998a4f8e87eaca66U, 0x7d41724a73aebc44U,
  0x907eaa7cafa8718aU, 0x8e347bcd4e92b75eU, 0x807a6d7e6e66a686U, 0x6a8d967ca8707768U,
  0x6e77835b737e9593U, 0x65917b8a7a848969U, 0x81848a8468688585U, 0x51968a739b7f7470U,
  0x6267846c54629658U, 0x8187597f7789ab74U, 0x5f979a85749ed24fU, 0x89653a97b960ab8aU,
  0x623da3859ca597bcU, 0xae96384bb653432fU, 0x90baa2e7b09b3943U, 0x2f8d4e813caebd43U,
  0x4cb5596995905db4U, 0x6870c06e6b203ec6U, 0x3175e2b1fd007e14U, 0x16021fea702dff87U,
  0x3a0a9f9ef2eff5d0U, 0xedfa172d951d092bU, 0xd6ccdba4297d4905U, 0xe533105691cd2057U,
  0x8af80a0a45eedee4U, 0x930c18ca2779dd9U, 0x67526383666a5f8eU, 0x6c9b698341835e45U,
  0x6e8da27299646881U, 0xa577759c92939a90U, 0x808b6d695d6d8b83U, 0x53729d5ab7616e8fU,
  0x7b5b906d7c83b87cU, 0x68767f756baea46eU, 0x6b5e77755c898887U, 0x899d8958af766a8fU,
  0x74868a704d7c888cU, 0x6f7c7d88a2898d70U, 0x9960966b5d6d8d8bU, 0x79a7a471a37c9972U,
  0x4b598e7052727186U, 0x6975565f7d545f84U, 0x77467b777c628487U, 0x919d7e7c895d747aU,
  0x79738a6f84818374U, 0x887d8b9f937f8368U, 0x8176b54250556181U, 0x975e9b47a3775e93U,
  0x4a5a877a7a7d6399U, 0x678675448b6c6382U, 0x77767d99727a7b81U, 0x7e8981895c8e6f6dU,
  0x98767d6a6b6d7685U, 0x7f76867e82888890U, 0x798072899a8d6988U, 0x7d7681707a7e9882U,
  0x79788170af6c5a55U, 0x838e778d82818663U, 0x8b00000011U, 0xfffffff900000019U,
  0x24U, 0x3e00000020U, 0x190000003aU, 0xffffffa70000002dU,
  0xfffffffcffffffffU, 0x1bffffffd8U, 0xffffffd50000001bU, 0x59ffffffe4U,
  0x16ffffffcdU, 0x1000000046U, 0x460000002bU, 0xfffffffeffffff8aU,
  0xffffffb7fffffffaU, 0x67fffffff3U, 0xffffffeeffffffeeU, 0xffffffd700000039U,
  0xfffffff10000000cU, 0x1effffffd2U, 0xfffffffdffffffc3U, 0xcffffffdfU,
  0xffffffee00000083U, 0x74ffffffcfU, 0xffffffe8ffffffdaU, 0x150000001bU,
  0x3afffffff9U, 0x19ffffffa7U, 0xffffffeaffffffc9U, 0x37ffffffe3U,
  0xffffffd10000001bU, 0xfffffff60000001bU, 0x3e6c5a6d4955496aU, 0x716f6064716d8774U,
  0x7d86758a627b767fU, 0x676b896764777b7dU, 0x685ea5617758755cU, 0x5a7891686c96747fU,
  0x6faf665f6f6e855cU, 0x667850475d7c816eU, 0x4c7c615289616f9aU, 0x7c656e7f6b847164U,
  0x7385875a6f697093U, 0x7c3d9b4a83729d91U, 0x8d85768a587b7c76U, 0x748e778688857272U,
  0x5e48758b90605d8bU, 0x8f916a844a7c5858U, 0x6e6665646b6c635aU, 0x6171687359785d70U,
  0x668f4fa9657a7f78U, 0x903f89946290426aU, 0x768d6c9f930c8497U, 0x8a6c674466757e95U,
  0x7b7a6a457c645755U, 0x3d7a825882587575U, 0x67556e677d53757fU, 0x5c574e47676d7c52U,
  0x995a807b5d66675cU, 0x89906f818e68628aU, 0x627c746d8e70566bU, 0x6d916a5e626b7a78U,
  0x4a6b6882818b6290U, 0x79555f578d5d8168U, 0x7058758e51446c85U, 0x7a66a07075662c53U,
  0x713d767e70659774U, 0x6d626050855f776fU, 0x7e4d306a56664f80U, 0x6d46535581677f6fU,
  0x9e8c6a966a6a8363U, 0x77769051664d6e3eU, 0x66596b5f5b78807aU, 0x6cac836a76ab8cb1U,
  0x726254605335768eU, 0x677d6e766bb6848bU, 0x64473465528c7354U, 0x8c775e726e6a5f62U,
  0x6568954c444f4c52U, 0x475558728992516aU, 0x8b61a38b6d6d8a59U, 0x5d6455429374525eU,
  0xb98263816fa64f75U, 0x7b6159935b7c826fU, 0x4f8c7132976b726cU, 0x7e72666840806d76U,
  0x6880657e6d637660U, 0x87a1597b59566e61U, 0x4d98645567987f62U, 0x581e896372738e5eU,
  0x635a3a9574585675U, 0x68615a3c4f599169U, 0x595365909066747eU, 0x7369567a68716498U,
  0x8872835079576c4eU, 0x676475606f7e6880U, 0x599c495861857165U, 0x24685278975c7b79U,
  0x83a5686365618753U, 0x43647a826f734c75U, 0x67636e8f7f43906aU, 0x64796dab5f5f615fU,
  0x576d82647d7b4d9cU, 0x616779786a878e86U, 0x76506376686f8088U, 0x6b6294587a636c88U,
  0x676e787e7b7c4c6dU, 0x6d917d9687975f5bU, 0x6a675f5c775d8a6cU, 0x5498515992806762U,
  0x6d8d825a8692605fU, 0x568e347d58735981U, 0x626c9c716e895167U, 0x8d755c31a4595350U,
  0x6c533a7d617d7890U, 0x7d6a875e7a594f5cU, 0x3251603e8e4d9a78U, 0x1f8b129867648d95U,
  0x8e7b405b80799d6cU, 0x5f6c69649d6b893fU, 0x5dab7d8c2e8e6393U, 0x67975c5b83727d6dU,
  0x6262688a5398497cU, 0x4a5c806b65756e83U, 0x6335996382906383U, 0x7b6a66514d95626fU,
  0x77775c5d61696872U, 0x4679686276847a96U, 0x6c89627a8474748eU, 0x7770905f8460737aU,
  0x6c51697789665c5dU, 0x8067666b6e6b6e72U, 0x6861705385736e90U, 0x6b886479627e7083U,
  0x475f646e86746247U, 0x7c94617479807676U, 0x8a80837381726c79U, 0x787f815f86706a44U,
  0x8353507d3d455f42U, 0x557f547e6e8b718fU, 0x4f73683f7c696361U, 0x509e5c827a9c6958U,
  0x5d716c6088a6a66dU, 0x70794f4364567867U, 0x707a537f7561616cU, 0x7e6e476a357d6582U,
  0x5e79505d6b564f76U, 0xc47161535a9b7573U, 0x5796536d8266788dU, 0x865f888b65686b8bU,
  0x84788e4b3da75c3dU, 0x696f747c6558686bU, 0x757d866368905e58U, 0x5e7f436a7f8f9577U,
  0x6674984d9a4c6b54U, 0x8b766b75713c823bU, 0x457b63607664642dU, 0x6b8a6f5b90985c79U,
  0x499075624c45a3aaU, 0x626f6d494b847a32U, 0x8a7487ac7d8c875dU, 0x75558f6a3e746f7fU,
  0x837d6a80ad605f76U, 0xa6654d657a886c7cU, 0x765e8d612f8c777cU, 0x7a708a5d9f5b627aU,
  0x62745e794192863cU, 0x7287614f867f7c8aU, 0x5283876490887958U, 0x5b667962a6854373U,
  0x735556a681719b65U, 0x74555f675f85875bU, 0x72695164424c436eU, 0x5b7168867ea06a7eU,
  0x967d7a756160a6a6U, 0x82587562528e563bU, 0x4e766c71ad7c786eU, 0x918b9973767a586dU,
  0x898e5b6c9c71c84cU, 0x8270695088697d6eU, 0x7a8b4e8f486a9a6dU, 0x615070685e736469U,
  0x55885c7380968578U, 0x7852887598607761U, 0x4b55447c364ea954U, 0x925d85634962467aU,
  0x8c5443614184646fU, 0x54487b6458757364U, 0x6381947c73816f85U, 0xb57a986e935e9b50U,
  0x8a705d40517d4a55U, 0x7a3172ad96b95c75U, 0x7e53525c678f4371U, 0x3d6b73646e979081U,
  0x42727a6e5eae3c62U, 0x6e57758f6b627472U, 0x5d856c5c69636584U, 0x687e837374546f67U,
  0x89746e5662585370U, 0x6d5c5972647a5c90U, 0x555a738e52577f6dU, 0x8b73527378604e52U,
  0x924b63876c57957dU, 0x8d865270a0579c3eU, 0x3891a46e639d6e63U, 0x73638e845d787b46U,
  0x93636c7984649086U, 0x60785d5475697865U, 0x6b685dbe65596177U, 0x766d476599686a60U,
  0x58737f559e705370U, 0xab6c96796a8d853aU, 0x8171833c7f7d7445U, 0x76847d52505a4854U,
  0x6070734f64c58c91U, 0x529863736670604cU, 0x834f7b8395846b88U, 0x7d7d507676c48f51U,
  0x6b8c777678874e5eU, 0x915f577370685d8dU, 0x587a6b768a38747aU, 0x5c96726e7b92846bU,
  0x847f75877c6d6c69U, 0x7e9474af744b7928U, 0x5c73565963549961U, 0x926d5077375d7797U,
  0x4f73a992385d6b68U, 0x5e5ab750365e6f86U, 0x7281637989783c71U, 0xb6647a4b7170a377U,
  0x973b9c8b6d9d516bU, 0x6c84b45c7636ae5cU, 0x5b8a81986c72ab66U, 0xa74e6074a8958737U,
  0x593c6b907a70514cU, 0x86756a697359734dU, 0x67664f51a3886397U, 0x5b61667f93873e48U,
  0x8f8c884f688e8494U, 0x3a5b773e594a3f6bU, 0x8165876782769233U, 0x8955846b8781528cU,
  0x8f586578895e7b84U, 0x8663505c8a997d53U, 0x675e68631e627971U, 0x518f62589f625485U,
  0x72896782916f7675U, 0x47883a6e6682577aU, 0x755e7164685f6462U, 0x6e4c7c607c41646cU,
  0x4d4c6e72567b5e5cU, 0x5d826461727b3985U, 0x7f5c675e86707981U, 0x6574758a5e687777U,
  0x7286525476618070U, 0x8c47556674768390U, 0x75947b784f726049U, 0x83546e60835f6f6fU,
  0x865f88627c68814cU, 0x6486785f7376807cU, 0x616c6a4c73b06c65U, 0x62575d7c7e6e545fU,
  0x6f7f5c5b507e9572U, 0x5f86694b70ac3674U, 0x72676c626861774dU, 0x664a66566e56776fU,
  0x88776a6669467f40U, 0x5da7445959686a4cU, 0x4c7e677080697774U, 0x5388723c84676b7cU,
  0x96a39e9a56618061U, 0x7e7a545d6675685fU, 0x8c7b394c6756c58fU, 0xa0a3698e27607d7cU,
  0x6682658f25545c68U, 0x5372538180a95d73U, 0x996c66877f716877U, 0xb4a89182a57d8468U,
  0x73458b6a3f81574dU, 0x7177809a6a937f75U, 0x466793916e697476U, 0x3c5a78527b495780U,
  0x467b556c9378809eU, 0x70732f94577f675fU, 0x74544d7357566d4cU, 0x4a915f564580602fU,
  0x56896f9270867b7aU, 0x6273923e68844777U, 0x785c7a72839b5e5fU, 0x9c747c673d4d357bU,
  0x878765697b5b4c87U, 0x4d636276897f6e75U, 0x6078398f5765967fU, 0x7d7f83684746386fU,
  0x68758e6ca14c6f46U, 0xb1593d8225718d55U, 0x5884708f64958c81U, 0x6b358e5fa3997541U,
  0x6540a08659645971U, 0x486e5f707c51726cU, 0x73616066636c718eU, 0x4472707d66756b62U,
  0x7f5c74947b766e53U, 0x7084525f56856b6cU, 0x8a7778696f965974U, 0x8d71486a697f676bU,
  0x676c6a52a37e8261U, 0x59525a754c72866eU, 0x696d4e856f4e6d6eU, 0x616f6a909e837a50U,
  0x666c636d504f6098U, 0x576c805a838a7e69U, 0x67806969bdb17fb0U, 0x689d758579638572U,
  0x5c909670a867696eU, 0x7b295b628f9ab37cU, 0x6587786f64568372U, 0x624a454c5775677eU,
  0x665e6f846a7b8775U, 0x5e75846584755e53U, 0x575e628565496c8cU, 0x8979755f7a776162U,
  0x5b745e844e558c69U, 0x698a8e803f72499bU, 0x5f5668566c8361c4U, 0x4488a78484a6ad6eU,
  0x63762c927670be69U, 0x917d6b5172736d41U, 0x76668a5a957e8174U, 0x73756f3c634e839bU,
  0x577888737e8c734cU, 0x6c7f3f656041839fU, 0x516d4791674d5161U, 0x607057797a515462U,
  0x8054a4905b6b569fU, 0x7d4389754e65625aU, 0x616b82798d807f79U, 0x66457b517490ac56U,
  0x714269796b6a5e60U, 0x829a6986806b7f65U, 0x6176925558654e52U, 0x569c72418573717cU,
  0x985e6378736d7a6eU, 0x8b5951695b59775bU, 0x7c7c8d664373746aU, 0x795a4d4278717c61U,
  0x80816b6f67a7535dU, 0x688b8666594d577cU, 0x586a9e5f9c688770U, 0x627e568c735b6964U,
  0x6990484f73738678U, 0x64756f4f85827a80U, 0x5e629da8cb7b8251U, 0x6b85379773816b77U,
  0xb481655c7da27973U, 0x8149586d646f9098U, 0x7c6a59478a5e6898U, 0x626d7e896778535eU,
  0x744c7c4f60616ba4U, 0x7a6b915855647443U, 0x7a5e7f3e67624259U, 0x653190476b665868U,
  0x904551466374364eU, 0x578cb6707e8d9a5dU, 0x6bbc4571768c8a6fU, 0x6474496e7f7c6678U,
  0x76b4837c49605678U, 0xa488985e4b97535cU, 0x7b0b557083626c77U, 0x875c3f585b7d7200U,
  0x85737f94607a7165U, 0xb277776a5b4c5c75U, 0x788b768988909e68U, 0x745e955d5476616bU,
  0x6b526a5d849f6f66U, 0x626d7e7881754c87U, 0x906d5e88503f7887U, 0x73987d577b3e6266U,
  0x9284427a7242876bU, 0x718e59725f5a5b83U, 0x4640696f9c556e7fU, 0x5c806871907db087U,
  0x9490906b3957967dU, 0x5f5d5b3c716d8b56U, 0x4d6b4379396fa270U, 0xa18890ca916f535fU,
  0x5b7755887a5b6255U, 0x6659864c6a636c50U, 0x776183577556788bU, 0x606d9991549c693eU,
  0x847370679953645bU, 0x1d5b52876b866069U, 0x767aa15e5e897456U, 0x676169337f4d2d64U,
  0x576c4e7c57915749U, 0x615d538690804388U, 0x416e6750625d7787U, 0x6d720f7e648f7ea5U,
  0x9336297e588a575bU, 0x8f5d5a846c845c7dU, 0x716f8f626f636681U, 0x658790645a527573U,
  0x4755884f75527031U, 0x399a9e708e6b6a45U, 0x755d7e9571567351U, 0x936d5c596e927b50U,
  0x7d48866b73816867U, 0x5481678c545c7758U, 0x58567b6373767f59U, 0x68645457697c8b5cU,
  0x8e8a5f7a606a6956U, 0x7f6d79746e797d87U, 0x529385475a6f9064U, 0x4c7c7769798b5b6dU,
  0x57777d7d706b7d7eU, 0x75733d4d636a7d81U, 0x5d8f955c6c6e6b7dU, 0x779c5b8b67778f79U,
  0x66ad815d7a70633bU, 0x885d5f6e71556680U, 0x72614f5c7d7b9a8eU, 0x6686718074756051U,
  0x5769676563756071U, 0x5d3a596472747888U, 0x9954718b7d7d8f83U, 0x767b877a896c638fU,
  0x7657567450965d7cU, 0x6b74986eb27b5e4bU, 0x54497f807c781282U, 0xa0468276743f627dU,
  0x60208c493f66707cU, 0x85716f7a6493586aU, 0x7c5d8480a2828037U, 0x7a876f636a6a5e79U,
  0x7e807c4f676c814bU, 0x4e5867a74d6e6486U, 0x7c6383574f7f6f6cU, 0x5f7560625c855550U,
  0x5256566082987266U, 0x60825f90816e707bU, 0x645c785a92955869U, 0x875b8ea36c498877U,
  0x64427f4e95627a77U, 0xa45b4e9e43529e76U, 0x4f73617a94465858U, 0x5a797e5d7da6cb56U,
  0x40936e6eab787549U, 0x637243697929ff70U, 0x9c6d9f704983664cU, 0x437573703069675aU,
  0x7c508080845a5191U, 0x55597856807c6589U, 0x8f9098783f817f5cU, 0x624f68406a707159U,
  0x7e747d8b0a4796a3U, 0x417c87567e867350U, 0x8f9c5542685e4386U, 0x63879167d5547055U,
  0x6b58706d9967573cU, 0x6668642a66509b9bU, 0x7182783f4e7b9861U, 0x28826f714d712968U,
  0x617e5e7f5f689984U, 0x703c546e81a84687U, 0x6ba2637e6a418b53U, 0x4f6fa375447167d4U,
  0x4d6a693a7576636bU, 0x816c7a7e6070866aU, 0x6f75565b748a546aU, 0x88555b757464797fU,
  0x6e79606280776236U, 0x56837a657f4a7355U, 0x544b6b5d97868272U, 0x52866350694e6673U,
  0x32a92874404d7f6cU, 0x82686ba04a8a7048U, 0x41664e616a3aa128U, 0x44939058665d855fU,
  0x9593b66d67856944U, 0x6f4a69567e584938U, 0xa26b837774928449U, 0x57578666408d438aU,
  0x806f6622a968756bU, 0x5a6781a392414394U, 0x713b6e9986688586U, 0x6f9967837a85704bU,
  0x5baa5565512e6d8aU, 0x83885956697e5d4eU, 0x746f8b6b7d696f94U, 0x7f7d614f9aa8777dU,
  0x7e7d897387616770U, 0x907285569795af83U, 0x3a4f755f86726c7fU, 0x5ca4467f8ca84e75U,
  0x95729a8b6859ab69U, 0x725c515a2a5b5346U, 0x5c7c7493897e6b65U, 0x5d59608a8e7e8254U,
  0x5951443a5a927a6dU, 0x8f5d8480884c776aU, 0x487036545eb5677fU, 0x68805a6c9c7f4f67U,
  0x7d5d60526d806b6bU, 0x8655707b3e746a65U, 0x847a626d788d7c53U, 0x4d6e745b82778686U,
  0x6b6a51676f85464eU, 0x786a6e7f48708375U, 0x5a8362556e7f706eU, 0x58ab7a7978627297U,
  0x707b785f63868870U, 0x70686068516d5167U, 0x8363837c80857938U, 0x6564636a8268b66aU,
  0x5369885677687a47U, 0x777b787172626173U, 0x4d656b3f568d7596U, 0x417f6f7b5374429bU,
  0x80726773787f756cU, 0x6961486553685841U, 0x815e73624f624b57U, 0x828f787b835e7347U,
  0x7e7c628c3f587c43U, 0x6258829480846a8fU, 0x58737f43826f7969U, 0x56807b63627f6b76U,
  0x747a564485787c61U, 0x4152575d85776669U, 0x8e86887451257b59U, 0x6c594a7865628486U,
  0x69867a7665784c6aU, 0x7d63517a50946c8bU, 0x7b536c717f5c5d4aU, 0x7c6f788f533e9372U,
  0x6384678496649665U, 0x5550534356637263U, 0x45a94fc051495c68U, 0x4e453d2f776b8d88U,
  0x755b767087687c6aU, 0x917d915086658751U, 0x6ca3546a655a1c96U, 0x7b867a6f8f436b70U,
  0x79769172a16b6b99U, 0x8b597c50679a8e67U, 0x654fffffda4U, 0x17b0000040fU,
  0x768ffffffefU, 0x3cc000005f0U, 0x199000003d2U, 0xf000000198U,
  0x38c00000bdbU, 0xfffff82a0000068cU, 0x4200000097U, 0xfffffe27fffffbeaU,
  0xfffff4ec000006d9U, 0x392fffff8f4U, 0xfffff4e3fffffde1U, 0xfffffde700000149U,
  0x28bfffffb97U, 0xfffff629000006ddU, 0x13700000f60U, 0x7cf000007f8U,
  0x1c5000004b3U, 0xfffffc21ffffffa2U, 0xa99000000cdU, 0x447fffffd06U,
  0x3c0fffffddcU, 0x5e30000028cU, 0x1fa00000145U, 0xfffffa5bffffff89U,
  0x583fffffcefU, 0x8acfffffb8cU, 0x84a000005d6U, 0xa37ffffff1bU,
  0x204fffffeddU, 0xfffff9d3fffffb51U, 0x9e92333ec5b0af43U, 0xa12539a257358fa7U,
  0x83c047ad464a789bU, 0x569d3ec09eb450adU, 0x8ca547a1b60c67b7U, 0xac3ba64a9fbd4cc5U,
  0x9e7955409ba33370U, 0x3d5a97a3994e8e53U, 0xb5b5282fcdb2bf38U, 0xb54b2cd03e27a29dU,
  0x86aa35ba303d6945U, 0x3dc428b3b2c7269aU, 0x9ebb38b7d02a4fc4U, 0x6f37d22fb18b34b8U,
  0xa25c3434c3b11079U, 0x3d41c5b6ca479f33U, 0x949953529f848e5aU, 0xa0815da1594e8971U,
  0x837d4c91535a6f36U, 0x4f9d4b728693507aU, 0x9595549698565297U, 0x3d5fa859955e487cU,
  0x87544f599e99397bU, 0x5f60b09aa35b9a48U, 0xb4a3262c64bac423U, 0xc31b1e75381bb3b8U,
  0xb6b238c13b2143b8U, 0x2db8218cb2a42aceU, 0xa9b13ebfc73429c1U, 0xca2aca23ccd93cc8U,
  0xbc523212b4b6482eU, 0x3b3aacb25323bd2dU, 0xcecd1f1e6ecdd705U, 0xd6330aa10f0cc3c7U,
  0xffbb13ce0f142252U, 0x27e00058d1a404d3U, 0xd5da22d9da7d12caU, 0x8123f20dd9c113d4U,
  0xd1150920dec01926U, 0x2313dfe56316e30eU, 0xa59356586c949345U, 0xa88743b2454a977eU,
  0xca8a38a3354b4839U, 0x52ab393e9c772ea1U, 0xbba940a7a1aa3d83U, 0x2958b9459d854198U,
  0x9d283a59ab9d404cU, 0x3a41c8b2834ead49U, 0x9c9057515086924fU, 0x9d58495152449397U,
  0xab88539c5a4749b2U, 0x4b904d4f936f51a0U, 0x978859a19484348aU, 0x9252a934a8995b8eU,
  0x9e5d4746929f7c41U, 0x635490913a40a73eU, 0xa090584f32949c3cU, 0x9e6040594543a7a5U,
  0xcda13f9f433d2395U, 0x489a38319b5f35bbU, 0xb29b4eae9caf267eU, 0x7949b929a6b4319dU,
  0xad26355f989c6617U, 0x493aa8b01c39c439U, 0x937b71615385805bU, 0x898c527c54688c89U,
  0x939352945458475cU, 0x668e503e8d4f4499U, 0x9a91608e8994525dU, 0x555a96567e905582U,
  0x932e5677797d6f42U, 0x4b509e90595a8c67U, 0xfffffffc00000032U, 0x2f0000003eU,
  0x600000012U, 0xfffffff3fffffffcU, 0x130000001aU, 0x3100000003U,
  0x2b00000015U, 0xfffffff100000001U, 0x36ffffffc8U, 0xffffffd5U,
  0x1d00000034U, 0x38ffffffd3U, 0x160000001cU, 0x38ffffffecU,
  0xffffffa1ffffffdbU, 0x43fffffff0U, 0xffffffe1ffffffffU, 0xffffffc700000023U,
  0x1dfffffff0U, 0x1b00000009U, 0x31ffffffa4U, 0x410000000eU,
  0xffffffc800000032U, 0xffffffcefffffff4U, 0x3cffffffdeU, 0xffffffbeffffffbeU,
  0x320000002aU, 0xfffffffcffffffd9U, 0xffffffd1ffffffacU, 0xffffff970000000eU,
  0xffffffebffffffc5U, 0xfffffffffffffff0U, 0x8f7b7b8275755a9dU, 0x7a8a63737f966586U,
  0x684e786c766e5781U, 0x77733d87787d5369U, 0x809d416d6d90717fU, 0x50827e69738d7063U,
  0x78a57069869b6c64U, 0x8752777f7db57588U, 0xa0667d5f80818ca5U, 0x6e749194956c7480U,
  0x635d70668c758e7aU, 0xd63086527b6b5f52U, 0x77487088a46a7289U, 0x74575771917e8081U,
  0x4855517f37409260U, 0x59897b73826c4774U, 0x8186547f86957f96U, 0x8469837e4d617979U,
  0x81748f9d768f807dU, 0x8186a87d6d6e697bU, 0x8371854f78697f68U, 0x7b596e632a597058U,
  0x7d6c81898b646b71U, 0x949c6b6d5f645d7bU, 0x91747f7577659b94U, 0x948b896b7d416960U,
  0x7d8877726769943fU, 0x919b9d6c50736493U, 0x80755c64639b826cU, 0x6763625d7a86a366U,
  0x7c28455eb6605e67U, 0x7b8680954b7c8e5eU, 0x364375aa24547d61U, 0x8e79738067899b95U,
  0xac9d695b7d968878U, 0x518e79858a6d7277U, 0x72965e639279894cU, 0x984a996474bd9093U,
  0xb3b49850835d4c7aU, 0x6f7268616d786b81U, 0x7293c0805e955d70U, 0x65785392a3b48882U,
  0xa8438a6b6c5c8d5fU, 0x8996776d6eb7918cU, 0x3894875f50707974U, 0x5b8d288d999e7887U,
  0x7477334975667d9bU, 0x726f8c566e9c745fU, 0x6d958a578a938f77U, 0x7d8b97989d74754fU,
  0x895c786d99637262U, 0x6d795e918194b97eU, 0x659b8c6a8d99446eU, 0x806c90696e685d50U,
  0x668fc6952f5e569aU, 0x5c84ad8378776dabU, 0x5f6d907b8b868873U, 0x79758560668e7981U,
  0x898c9f9697855076U, 0x758281916e484c5bU, 0x8f5c35834c87817aU, 0x6f5f7255647b67a3U,
  0xa4a082813d516f6eU, 0x6e6caa835f6d788dU, 0x52888e7c9c625481U, 0x6a0e6b6c6a887186U,
  0x7095875d54758796U, 0x3f959c777c6fa678U, 0x639a5d8e7f7a714cU, 0x919f9f72525975a2U,
  0x939c7687585b4e42U, 0x2d517673945978bbU, 0x619889476d8570c4U, 0x749466955b908660U,
  0x656d9f987d7f7570U, 0x62a698774f418295U, 0x687a76819c583863U, 0x8e697867757ea36dU,
  0x846f7269976b9270U, 0x996c32826c628284U, 0x5fa760789c829180U, 0x5f97b41e6e8d779bU,
  0x924b7c7999706e9aU, 0xa5347992684e7069U, 0x936e4a704d56739aU, 0x823b8365c0617c9dU,
  0x517c9f7e70719ea6U, 0x9b78814d7770733dU, 0x7e978b6f786e6486U, 0x5f7f3d6c8a925983U,
  0x73568086665f687fU, 0x6f777763b56d9c70U, 0x883b87844f815b96U, 0x5683bd8b99b79a7aU,
  0x5f698d9170a36177U, 0x819061977e5c554fU, 0xbf5c824d7375729aU, 0x6272828b79a57289U,
  0x9a5f94bd586d7096U, 0x6d89728b9787594cU, 0x7d475b7b6d58556dU, 0x82877676757b778eU,
  0x51606d8f9797686fU, 0x856c6f5e9eb0676aU, 0xac5c99b3a5819f3bU, 0x817aa66f755e844bU,
  0x87818152687f6573U, 0x7173bb85905f7e7aU, 0x6d973fa85e877374U, 0x45586d8074936866U,
  0x826b59807e67619aU, 0x7d927f6253715d6eU, 0x78a1807d88715f7eU, 0x47825081947b7b63U,
  0x768f6a30447d14caU, 0x739575703e334875U, 0x2e806e7866985869U, 0x74638787496ca560U,
  0xad418589be9c8c70U, 0x6d6f6c9457758791U, 0x6f678b55887f8d5cU, 0x427c6b7d886f6767U,
  0x725871a75d5e607aU, 0x6072ab71985f9496U, 0x7c337ac15679726eU, 0x609c78778a67806eU,
  0x516c8f995b9c7f4eU, 0xb773847b935a8482U, 0x4c5a5da074267587U, 0xad784d7f7fb59b7cU,
  0x6c84705276729191U, 0x6b8452703e6f7f49U, 0x60a16e5d79767884U, 0x6846734d92a2a05cU,
  0x846f79b364724f68U, 0x90836a668f816b7aU, 0xbd80506a228e725eU, 0x5a6d9995795b4b73U,
  0x5ba459697a7f5e7aU, 0x626f746e6ea16c87U, 0x55949a7c6d8f617cU, 0x9a7c749c955a845dU,
  0xb06a8c788f757c90U, 0x46529b90717578aaU, 0x747498af8a8d8742U, 0x8a74946d807c6d98U,
  0x727479716c61828dU, 0xa3599c751b7e937dU, 0xaa61717f51848160U, 0x6c8b3f77757d7f8dU,
  0x80858c71779d8e94U, 0x667f5e9759619263U, 0x668f98a98a96825bU, 0x7c9149755f6b7d8eU,
  0x746e7f714e884b63U, 0x5c8f928445967e72U, 0x777f688d63862c45U, 0x8b817f886190768aU,
  0x989277c6517c6866U, 0x82946e699d54bc83U, 0x6c807b7c6e7e7058U, 0xa47f7b815f977d61U,
  0x5fa25d8f97844678U, 0x70969686505a6e82U, 0x7a707b8784987c7dU, 0x72571f695e788474U,
  0x98686b72865c998dU, 0x884f8c6b808c817fU, 0x965d6b6d7b61636dU, 0x8b787175878b8f8cU,
  0xaa93578c69746875U, 0x8770958642706b7dU, 0x8e7f672c707c715fU, 0x8760078349626778U,
  0x9c6c707b86716c6cU, 0x754b6e505593878eU, 0x8760419c766c786dU, 0x754f715d887c729bU,
  0x6d708ad584c17737U, 0x7f5d64b9a38f8065U, 0x605c6c653bcd529cU, 0x9a876b9c96676b5cU,
  0x7570708f575e5a73U, 0x83808f826e937d8dU, 0x518e7e956178785cU, 0x89386060356a8592U,
  0x8b5e844aaa844289U, 0x7db3628c51998f8eU, 0xa167736c5ab74f69U, 0x8c718b5f774750abU,
  0x7fe3998d175b5962U, 0x3e919f65af59839aU, 0x5d8591559d6d4269U, 0x5e8b7353a7927e5dU,
  0x6f7c5b657f7c6e85U, 0xa5668e818e7a8160U, 0x8f967b8d61a36f76U, 0x816f8275537e7a74U,
  0x5f8eb1b76b909665U, 0x74707568727aa28bU, 0x87a08e706c85876cU, 0x4baf7c5f8089a968U,
  0x75b15c6a65725489U, 0x7f731e5c775e7483U, 0x647079575f6f4268U, 0x7762817d5d65756cU,
  0x57827c7289a97cc4U, 0x2864c56252a32bb2U, 0x559b6e7b637d8d8bU, 0x987580785676666fU,
  0x70747aa39d547658U, 0x6e92a9943a89638fU, 0x6e5a6fa881627a53U, 0x79775e5e734d7e64U,
  0x739e697a6469ab4fU, 0x829a6f32a8656d7eU, 0x8e765d81816563a1U, 0x786d7583687f7e89U,
  0x747a96a16b697561U, 0x9b6a8462738d7860U, 0x78739748937a9277U, 0x82827f8952755571U,
  0x8c5c596c8c7a7076U, 0x7e986f8f693c3e76U, 0x677d9d7a84747b7bU, 0x846b74707c3c7b72U,
  0x6e91868a98835661U, 0x5d897d7f85767a8bU, 0x736f685171807674U, 0x6974ff7c7d607760U,
  0x748557768d7e6a75U, 0x826c6d7c6e76846dU, 0x6764717d607b765fU, 0x623d8041918a5e7eU,
  0x7672896a64766458U, 0xaf796f8162798672U, 0x655779445daf9182U, 0x5f79593d97666da9U,
  0x777573887f7c9675U, 0x696ca26645707e7fU, 0x6e69767365876375U, 0x633b7b969073645bU,
  0x6c7c786c777899a5U, 0x748a748c81829791U, 0x788989776f877e70U, 0x7b767c797c639f4aU,
  0x7f598f7d8c8e9b57U, 0x573a6774587d7e89U, 0x807d888b7f874270U, 0x6f76a6748872578cU,
  0x8c6a818261986251U, 0x876b918d7c745f65U, 0x945b5774626e987dU, 0x829e952b8a5f8366U,
  0x4f6f7c686f757860U, 0x934593858e728570U, 0x979a588d84535995U, 0x6f63a55d997a7885U,
  0x7658929a67768e60U, 0x9067747aa06c8786U, 0xcb915c746d75857eU, 0x889163978c776b75U,
  0x85876d69745c5c95U, 0x637d4d906d634967U, 0x6e8560859a82914fU, 0x9a6f6f707397767aU,
  0x71bf336bb0795862U, 0x75817c8b389a7593U, 0x82875c5075887c71U, 0x787946534f64706eU,
  0x766978516b7488a4U, 0x93536f5e96a38e7eU, 0x716129a8aa948e81U, 0x7f7a968071806e96U,
  0x6d4cac4f73925e68U, 0xa8895fa6539f6663U, 0x9762726c8aa673b8U, 0x757e3b9993847992U,
  0x8e9cc3a476ad4a94U, 0xa6a3726665755e73U, 0x5e8e77a498999488U, 0x887b7d657673556dU,
  0x56685f55bbdc6f6eU, 0xae8a517a53948299U, 0x9574745f84767a99U, 0x4c8d5d459677c577U,
  0x5f89b377508a8375U, 0x7c32818c8566a26aU, 0xa2b8908464683a99U, 0x675485ab6474258fU,
  0x9a95858d82584e74U, 0x69519f61918a73b7U, 0x825240907087818eU, 0x628c7c636e44c068U,
  0x518b889d8a759577U, 0x5f60667398708584U, 0x8c5f6f8970858741U, 0x7e66a1b3695c768bU,
  0x7b40887b69675d46U, 0x5b595c706b803a4aU, 0x85a696865d7a5668U, 0x977e7d5a9a559c7bU,
  0xa2779fbb716b5376U, 0x8a824f926c758286U, 0x85957c5e9f849456U, 0x689381595283848cU,
  0x83786b8b8a68788fU, 0x61606b655170927fU, 0x7084936a7c817374U, 0x5e8641aa8b94798aU,
  0xa989a06a9768619cU, 0x5e5a47635d656f7dU, 0x48677675934e774aU, 0x85926f527d6c707fU,
  0x846b5983296e928fU, 0x948a776a6f694549U, 0x6ea6715f3f666585U, 0x8b769a7f93908a69U,
  0x4b6c6797926f4d62U, 0x8856696c8554ad74U, 0x3465435e6b9b9883U, 0x5d6d12903d7ca674U,
  0xa67046cba6b69e67U, 0x6b78714b53695b61U, 0x5a7077a463af7456U, 0x637e5da0af578265U,
  0x817f6db46463ad56U, 0x8391574d7b76ae8aU, 0x9e7758a08f6e757aU, 0x8a8c965983609790U,
  0x616d918c608c7190U, 0x879665675f6a5d6dU, 0x8cad7b197a755e73U, 0x837418805d6c655eU,
  0x9d8f51947c5f5c74U, 0x866667627e807775U, 0x5a5d2d6ba35e925dU, 0x9c964b72d38f6e69U,
  0xaba062236dae3c4cU, 0x767d9b8e9b736b96U, 0x777c8e848a9f8390U, 0x4664858576687f9aU,
  0xa77d7a7a808d7781U, 0x92539e868e537564U, 0x5f94708c8251757eU, 0x807da15f5e6a6d82U,
  0x71778e777c4a7d85U, 0x56948d46688b6564U, 0x7870727078599182U, 0xad857883777e9d7dU,
  0x3085808b6769598aU, 0x7f7524555d9d8051U, 0x6e8b687b719b6481U, 0x738a6f63814c6761U,
  0x7260837e76807868U, 0x99615566927c995dU, 0x698d86785b6e8e6eU, 0x715dc395805c5572U,
  0x8589949059756a6aU, 0xa58893a354728cc3U, 0x8670518b557f8d69U, 0x9e9e95916e9779b0U,
  0x9870616cd1907b49U, 0x842a6e7468a24f44U, 0x6c776f81836b5882U, 0x735e9d92937f4a8bU,
  0x6c6f7b6640798e89U, 0x7b879794b6609358U, 0x4b97625468b39149U, 0x62857c7271804c6eU,
  0x98875c8277709794U, 0x907e9a838c916d69U, 0x624a966277799e68U, 0xa8518669986b7373U,
  0x6c6394638ac2654aU, 0x6c40a65f70488877U, 0x6d8c5960732ab35fU, 0x767c85867e489f4bU,
  0x2f97925b8e887a7fU, 0x55575a8668999485U, 0x5a81a27f72ad44abU, 0x4e7772b382406b67U,
  0x749278a85e7f33b1U, 0x9680739b66626db4U, 0x453f526d7272a84aU, 0x6f5d5f83497f6669U,
  0x82924a5844716f7fU, 0x656769a44fa27471U, 0x3a8e9e6778a0ac5eU, 0x745774429d527c60U,
  0x777967875b74799bU, 0x62869b2e4c4f7ea6U, 0x8a7b8e5e70a1ac68U, 0x6da0bd7b5a7e7369U,
  0x647f8b92578898b2U, 0x814dc58f7f7b9a87U, 0x75509380a08c967bU, 0x82958d7d60707a6fU,
  0x6a738b5a7a976b5bU, 0x8d7a9776815f7f76U, 0x80b0a3a16f457769U, 0x3fa786824f5a712cU,
  0xc56976745c79635cU, 0x779068647b43915cU, 0xc47b3bca9a4784b0U, 0x538c4b8bc45a7690U,
  0x5d977dc8856d6b98U, 0xc43ac56e678252a9U, 0x84826d9269725869U, 0x818262525f8c888bU,
  0x725f878359857b87U, 0x6f54795887697c51U, 0xac77666a56626e52U, 0x4854678483718275U,
  0x5d7d868581939b63U, 0x71669969898e7180U, 0x78688f845dae738eU, 0x76665b7872746a91U,
  0x4776aa807d864d53U, 0x39936ea5714e7063U, 0x8270988936559d64U, 0x498c6c9ba7b76e76U,
  0x9f8d7171926a5b6fU, 0x6f765a6f4a738e5cU, 0x63687f75967a816eU, 0x7068639d83597867U,
  0x8a85818c788d678bU, 0x67648489857067a4U, 0x887190957b815964U, 0x755dc69083586b71U,
  0x5e777c8256a27879U, 0x82858e7b7c798271U, 0x7a747071496c729aU, 0x749c728a5c768976U,
  0x8a3d9888a5877a7eU, 0x9e3071915f7d5c5bU, 0x6e71616c6271868aU, 0x7b5b7798a6549e77U,
  0x7d477e81848d9558U, 0xb78c8aa77c7d766cU, 0x7b4a919853726084U, 0x967730b55e858a92U,
  0x1f60696c798db9c0U, 0x4e796f5768b39564U, 0x5f73868648a26360U, 0x75647e664b57737dU,
  0x9bbe628b9052aa00U, 0x627a4576555a98a5U, 0xa086a6ab7c969640U, 0x5e7b9c6275556688U,
  0x5f6a6c48be6ca381U, 0xa530654374628068U, 0x868b90425c7a467fU, 0xa35787798d44a043U,
  0x667ca0809c9b716dU, 0x86896eb979856983U, 0x88ba9958808a708eU, 0x6181439d578a917aU,
  0x8f766d5b7e857c56U, 0x5780517061b68067U, 0x897f675287a24564U, 0x82708c8383537279U,
  0x66abaf6b867a599aU, 0xa66957538fb76f79U, 0x9e61716c8d748b59U, 0x6fa27b677c808b68U,
  0x629480916a566480U, 0x6d74a576b0785984U, 0x61987a7e83770a5bU, 0x766b72505f91618dU,
  0x4b6d6260a27f6d6aU, 0x786e7a76959f439dU, 0x53638980aca18072U, 0x6c65af7595874e79U,
  0x61818e7087538e75U, 0x9983996f5d2252b8U, 0x8271577f4b685750U, 0xb394784f6db66eb5U,
  0xa276869334583d7dU, 0xa38c78876b74737aU, 0x8385926f75498a90U, 0xaf424f7d64636158U,
  0xae8f7f537c8e90a9U, 0x7555b4396c815a7dU, 0x936b6e899669857aU, 0xad7d8aab627874acU,
  0x82766b68b4946c5aU, 0x7f6f7e7f51967077U, 0x6a7d7c906f6c7b8aU, 0x955881768f8e769aU,
  0xaf83948c6e74439cU, 0x87798489978079d5U, 0x5d737675adbcac49U, 0x24b07a6b62645e8bU,
  0x8f97719e5a664f9fU, 0x7b838e9bc5516199U, 0xc56276568d3e2a82U, 0x499b736b78546752U,
  0x484d77826f848991U, 0x6e60768a96548357U, 0x60714f5d7854376bU, 0x826784608151793dU,
  0x959681b74d86594bU, 0x8b84714f6ea28d83U, 0x59636aaea46f7443U, 0xa979535a97737088U,
  0x8c80686b78857970U, 0x916171996d946f96U, 0x6943b99b577a765fU, 0xad76978f949e4582U,
  0x6d65826d5f827c71U, 0x84889695706b8168U, 0x887b7f68919b4cb0U, 0x864056875da16886U,
  0xaf80888363815f9aU, 0x5e929f556ca6635bU, 0x7e7a6a63843d8d81U, 0xa98a816d7f9c7aa2U,
  0x4f5c705772b0ac78U, 0x83596b6757a35375U, 0x7c5e997f8f885e87U, 0x3174694c93566079U,
  0x63806f5590908770U, 0x9784794f554b686cU, 0x88677a6b5970845fU, 0xc5899ba089b28373U,
  0x70826e8b4f634b71U, 0x5b84976d747ea0acU, 0x424c6f746f838f7dU, 0x519b7b5585646e38U,
  0x9d8c5f6a695c6a68U, 0x7599779a877f5c96U, 0x59675b7a8288685eU, 0x5a587953698a9761U,
  0x6b7c82ac705876aaU, 0x6f6582404783b37bU, 0x63799b6d4f4b666aU, 0xaa6c7389433fa2aaU,
  0xe0907376612d6ea1U, 0x6eb1914b4ea25ee9U, 0x6c6e89706e6f8146U, 0x6a487083406e3d7cU,
  0x79862a48859c7489U, 0x4c9a76a1b2680f63U, 0x5e50956f8a85826aU, 0x6471b16f898c7a95U,
  0x699e796da53e8364U, 0x7f5dab6d5d638d6cU, 0x6a4fa3a19a708660U, 0x7067805963857196U,
  0x6878817c7f9c9f76U, 0x65c8847a606d6c55U, 0x279458846f7c747eU, 0x6674607268796665U,
  0x927073725c6d7763U, 0x8a7665766687a64fU, 0x6b6d9a746946b470U, 0x7d5f928b8d72b78bU,
  0x907d937552907a87U, 0x9b7b676c7358949cU, 0x60528194705d7e93U, 0x726d775e796c71bcU,
  0x718158777b905b5fU, 0x8a6978787e537c65U, 0x928259777c66893bU, 0x7771707071b66e8bU,
  0x89f18a7c166e435cU, 0x468a934c9a84737dU, 0x672f671f864b7481U, 0x47829f7b7a51ad3dU,
  0x604e6c6b79749a5eU, 0x8d566d90ad4b906eU, 0x99733d8d9c817491U, 0x714b735cbb4858a7U,
  0x4c7f527c4b626462U, 0x8463a54e63c953c3U, 0x4b2c7496ac4f8676U, 0x99516b7a7b705a90U,
  0xb563739866838964U, 0x72a684a38964875eU, 0x8e6d6ba661928d47U, 0x6a8a608e77836c96U,
  0x72c779bd6a438b88U, 0x7e7b7d8c6d442a71U, 0x8c6d70846b528b73U, 0x7ea869798e573d5aU,
  0x907e652a455a6e80U, 0x9260535a8e907477U, 0x666d794d5a937664U, 0x9aa8838b6f925860U,
  0x7c787c598b936383U, 0x7c537c7b88975493U, 0x55a495ab3f645666U, 0x7174602baa6d5d6eU,
  0x6270846c81727a80U, 0xae5f8f325b948164U, 0x765478714c6f8240U, 0x92b17b88696e7788U,
  0x6c735c7d7e8b9f7cU, 0x8c6b92cf74626f9bU, 0x50679d665d5d917aU, 0x2aa58a9e97908c5bU,
  0x677068906a6a9171U, 0x799b7f79776b925bU, 0x66607bac6c937e62U, 0x9a7572a076909044U,
  0x896975767c748f75U, 0xb9867b9a6d6d943bU, 0xa9477476ac7e8a8bU, 0x503495718f499859U,
  0x598aac63727c8c70U, 0x81a2646b9d5d876eU, 0x85609755828e9075U, 0x1f7b7c877d658965U,
  0x86567fa4835b4298U, 0x7b818aa586848575U, 0x6b755fa2745e5a5dU, 0x918a855ab2a96b67U,
  0x6a6c91696ea9997aU, 0x9d8563797c767a51U, 0x578d706a3c757987U, 0x8781459794817c61U,
  0x837e6b9b8a758e78U, 0x785d888d6d60937bU, 0x828b747761797c8dU, 0xab709395a9648b74U,
  0x6870a18fae7f7b82U, 0x974f727f5c8e9757U, 0x6776707259338d87U, 0x4f6e5391af95622aU,
  0x464f6247ad9a8b8dU, 0x856d8555667fa40dU, 0x7bae83a2a8b09191U, 0x7e7863847f3f729eU,
  0x9e8c7f75908b646eU, 0x8cb19bc07eb141bdU, 0x7b6b9f8c6db09b63U, 0x84745b5a9a823167U,
  0x9c765266a2657465U, 0x78557990967c813bU, 0x6465966f8e267f84U, 0x957d6e81a178719dU,
  0x716b764e9b538464U, 0x8f837f7c6455917aU, 0x948a7974688a6951U, 0x756c577b7888606aU,
  0x71796d98625e4b7cU, 0x82a2448b7f855163U, 0x9870948276866c50U, 0x518086846d63737aU,
  0x5d708678946a7a65U, 0x81646d6d815abd5cU, 0x6d4d967b28939f5cU, 0x7280849e7b5d584aU,
  0xa08b819d6b61798aU, 0x727f816084937b7cU, 0x58934f508371924fU, 0x657978548973a756U,
  0x5d868c4e2155628fU, 0x762b646c8777d864U, 0x6c6fb43a5b899ea2U, 0x4c8c90a0747b1483U,
  0x59567d5e5c7e45a4U, 0x5ac39342b3738e9dU, 0x9892677f47515c96U, 0x805c937e6135875eU,
  0x63925d868b97aca0U, 0xb57f826845846a8dU, 0x8f8d592e6dad948fU, 0x8c6374688b914662U,
  0x8178877c9a554b78U, 0x5a7c774e5aa86c60U, 0x848a5f928845436eU, 0x895b6d99747d6f71U,
  0x716d677d763b766cU, 0x74396d6a625f624cU, 0x6a6792825e7a8875U, 0x856d4d6b7671865eU,
  0x69586f8997788268U, 0x769a857686875e67U, 0x95558460c095b483U, 0x8f7c7466a555af8fU,
  0xddaa73429351794cU, 0x6192468ea7e24888U, 0x643e81546cb18d8cU, 0x8d77805e49515067U,
  0x7b8d5b82a470767dU, 0x72887889748f6863U, 0x9771687270649074U, 0x979a83658f66648aU,
  0x596a778b7ba48885U, 0x8739ba6a466d65afU, 0xb79a9e8165697842U, 0x806d74772c8c6a5aU,
  0x9c60818265897d77U, 0xb2985fae74416573U, 0x635bb3ac944d577eU, 0x904882b8aa527098U,
  0x7787a1889d8e5d7bU, 0x6d5c6a5b7c6fe5a4U, 0x894f7b475e8fa85cU, 0x848a6da570a45144U,
  0x8f6a126f7385769cU, 0x726f7d567fc08c55U, 0x7660906e85957b6aU, 0x6f9567744b988b7cU,
  0x89663f7ec96e3957U, 0x60526c4a5c887e78U, 0x3484566262a57342U, 0x6b778d4c7e736f6dU,
  0x827c3d516280828eU, 0xa68e6c5e75568e7dU, 0x7e945c6b6e737f4bU, 0x6d6c8586815c929bU,
  0x6469d29f6d86467eU, 0x683da05b7c4f8361U, 0x587f717c465e9881U, 0x8c71676a7344945dU,
  0xb6807c868d76695aU, 0x86729e8b7c5a678aU, 0x798790ba62626952U, 0x82726db8777cbb57U,
  0x88ea837d6c7c8f77U, 0x657f8f365c998d7bU, 0x795786a19c8b4768U, 0x876b75895f6071a5U,
  0x3a598c8382c68675U, 0x728685b4989a8f6eU, 0x898e8d726b7f865aU, 0x446ea29290846770U,
  0x8268799e66777b8fU, 0x825ba48c779ba08aU, 0x8579857554a16b6dU, 0x80ae5d67574c7373U,
  0x69835582997d8b7fU, 0x5e7586866a5d88a5U, 0x84a294aa919967a0U, 0x97715e4659aca07dU,
  0x76979ea37d9c927fU, 0x5481697764845c73U, 0x6d784b3d7d69638fU, 0x867b76a1708e8b67U,
  0x708d69885d857582U, 0x847c78864785466aU, 0x549188937d9a8f74U, 0x65865b838170ca61U,
  0x76589d689bbe7b6aU, 0x7a804e849f6b877bU, 0xa99e8b695c958581U, 0x5871738686636970U,
  0x7774977142636ab2U, 0xa06f7e7d48896698U, 0x65776d8965979787U, 0xa2b5805a646f6a93U,
  0xa05f8f605795b69bU, 0x73467a97908c7574U, 0x687359773d188e7eU, 0x9f37507994947193U,
  0x5e70844e97697b6bU, 0x7a81674f62946f35U, 0x7a347c88a365b062U, 0x75823570a74f97afU,
  0x6a8b7562a3b7b34bU, 0x635f856686657b8dU, 0x91498946597f8e7cU, 0x8297889bb782a64fU,
  0x568e3b8c75794e5eU, 0x9256ac5545985b70U, 0x7369698f6f7a6f4fU, 0x844d6b858a67868eU,
  0x697d6e77868c6654U, 0x9162658d76966e80U, 0x77558c704c858085U, 0x7d61827676646b7dU,
  0x6b7a74958287a364U, 0x746f7f93998c9c72U, 0x86a36d496b745dd5U, 0x5b7e59688e9a4a52U,
  0x916f39a6b4779c71U, 0x97606f73817d7360U, 0x5d7c48646f7e5b63U, 0x93899982a5708d5eU,
  0x8c787d855c944a46U, 0x7a8166687252587aU, 0x976076857e81754aU, 0x6c7d6a856499a497U,
  0x5a84827676858e69U, 0x70795a7f6d58625cU, 0x7c56a66c6e7b6662U, 0x744e6a7390887c6eU,
  0x9979aa7990936b5cU, 0x82869b7e865f4c8dU, 0x53855d8f58685477U, 0x877b8073a06e9553U,
  0x5963807099ba7966U, 0xef5f876b764f958cU, 0x72aa8085876e937dU, 0x833b9b4260856454U,
  0x5bab536f71529c81U, 0x4f86ab6f7385b681U, 0x5e666f787e865e69U, 0x8186857db8796f59U,
  0x5e447a53737f5f4eU, 0x9487616299566c8dU, 0x637475954f588170U, 0x8b5c5d70966b7e73U,
  0x85767a736870847cU, 0x896e8182406e9d68U, 0x739ca76da3679c53U, 0x9747a44f70768188U,
  0xa991548b595a946aU, 0x4c5376a96d9a7a92U, 0xb8574c8b80786898U, 0x7eb171a474934ad3U,
  0x4c638c6269935591U, 0x4d49978e265f8e61U, 0x83857e7f95713f69U, 0x7d4b817da76e9a6eU,
  0x5e977685656a6470U, 0x4f777a6d6f7da058U, 0x997a906989757c64U, 0x92d07a956ea87d87U,
  0x754376988f7e6772U, 0x84656d6a7f808165U, 0x8d5c7a9483855f66U, 0x8e835f7f83757599U,
  0x5f6f836268887671U, 0x7b7378568b7a527dU, 0x896a9e6f7185882eU, 0x938873747b76746bU,
  0x6d6f69856b7a8e3cU, 0x7a769c808f897f71U, 0x627c7287658d738aU, 0x69963f96746c4ba5U,
  0x7c4e445e957b3d8fU, 0x66635f646d556690U, 0x9163857157847c79U, 0x6268828e9466727dU,
  0x9ba7a0714f7d8e86U, 0x6589586588717451U, 0xa5926a5e61786073U, 0x7b8685709e5b7f49U,
  0x777660615c6d6e7fU, 0x617e795a75767755U, 0x6b737a6d73b28a83U, 0x5270908b642c2d7cU,
  0x777261a382768995U, 0x6ebba55e5f2a798bU, 0x7d7d6f728e8c6284U, 0x9870546d786d4d94U,
  0x6e6e2a5e706f6b57U, 0x568a334f82856a83U, 0x7580655c64896279U, 0x6aa68c7c6b817e7eU,
  0x6d7f83876a996c7aU, 0x6c5476819e8c7689U, 0x4a85796da4957974U, 0x388b765f7076c276U,
  0x788f92c6a5936047U, 0x7e8b797d9e746d7bU, 0x6487847f7d966390U, 0x7769602a5f6fab6dU,
  0x488c628f73856d96U, 0xa8577169568e868aU, 0xa87a836584736e92U, 0x857e8f8ebe673175U,
  0x512c5a706f70646dU, 0xa64c816e4286836aU, 0x517a588159635c85U, 0x73b178898770667cU,
  0x7578619262776973U, 0x6382a6635e66aa5dU, 0x706069aea4977b85U, 0xb3618c5b8a776e76U,
  0x755e611c6d699782U, 0x6e8b738f35676184U, 0x459f5d53675c7f7bU, 0x67715959a59db585U,
  0x6f968d53726d6065U, 0x6d86618688677f71U, 0x5d976665816da4a6U, 0x94866e637d58973aU,
  0x99aa5e7f786c5fb9U, 0x5e6c978c60924161U, 0x618c7d5d904d6e90U, 0xa55d9d9b76707b4eU,
  0x93736370947fb388U, 0x8268824a58828689U, 0x65857a8c64595b94U, 0x627c4b947ab1727fU,
  0x7b80887276708269U, 0x696f5f7f9769a558U, 0x9aa15d937b6f7559U, 0x8885969a739e975dU,
  0x7a877e857b6e6b79U, 0x5767798f4775468fU, 0x687448925d557f75U, 0x686f58837e6a9386U,
  0x7670787d777f9a86U, 0x7c8988829c805a53U, 0x9b91937b8ec18e5aU, 0x5d4a618e7664974fU,
  0x6b897d6b82868f61U, 0x9e9672ae7e835968U, 0x49aabd758f7c495fU, 0x9c95757887817872U,
  0x77944c76927e9aa1U, 0x815379716b818a70U, 0xac8e657678706d6aU, 0x5861758a748f6285U,
  0x668391886c9f8979U, 0x6d4c8259989c756fU, 0x87697d7eaf866e6bU, 0x2b3690977abd9d12U,
  0x26b0c3687b5bb794U, 0x7ba16f443e779465U, 0x48b5a567b4849977U, 0x4d90867d7ea9ac73U,
  0x5934942aab764974U, 0x775180aa7167943fU, 0x816f688a99628391U, 0x6a975a6968889076U,
  0x98793c7f8f436c2fU, 0x6f847b2d4c7a5f3aU, 0x7aa86174a49a5c7aU, 0x68829246458545baU,
  0x968155768184766fU, 0xae8e689e42595bb6U, 0x82478f698775a15fU, 0x64677670ab846965U,
  0x7482326096887b84U, 0x8d8d6774a37c9584U, 0x698073976f7d6f71U, 0x7377637e95846a85U,
  0x608e6e7b7b5e7f97U, 0x4c63745c7a95bb6fU, 0x876a37a16655b22dU, 0x8a9f934aa852636eU,
  0x6e7384598e818b7fU, 0xaa8c9283808d7b78U, 0x9c5f7a63949c93cbU, 0x697f5faa857f9587U,
  0x83926a87495580b0U, 0x6b7a947781948076U, 0x6c7d837b8568aa9fU, 0xb0888183504c7b62U,
  0x5cb03f9a9e6ca09dU, 0x7d3b692985975863U, 0x9f756d557d466ca6U, 0x67247086a34e8f5fU,
  0x6271b2888b807b6eU, 0x6894876b4e4f5d7cU, 0x8058a05c72873d88U, 0x478770768c9b6a76U,
  0x565a74a293558478U, 0x80593c617a77877eU, 0x4c67878849888f5cU, 0x7d635c6c8e82725dU,
  0x5a8468955aa07a4fU, 0x798aa4af656c5790U, 0x6ca9c29f97746087U, 0x83876a7c9c95bb97U,
  0x6d7f97a08b886085U, 0x83724d5971778089U, 0x92b07f94679b534aU, 0x886a667b4d715a42U,
  0x606f928b5f648291U, 0x5e765c8777607d63U, 0x4e8562675d6a753fU, 0x7b6062607251b956U,
  0x8383825a77796fa2U, 0xa3815c807b5596a5U, 0x863b8361bca16e56U, 0x748e7867616c9b9fU,
  0x617a80ab6c6e2287U, 0xa5a0816598766decU, 0x567a7a79a09d6580U, 0x677d625c956b787aU,
  0x898a4e8b7e558b43U, 0x7a74805c5e696572U, 0x7f5b734b7d707f82U, 0x88717f7c84867b78U,
  0x814e627a6fbd5251U, 0x99a1be737d708d87U, 0x625fa987367d477fU, 0x535a6f98867b7d5eU,
  0x66a4726d5984955bU, 0x76a5838387637999U, 0x84858e8771638039U, 0xa7b07c6f388e969fU,
  0xc66da08067435d4cU, 0x45727e8b847183d5U, 0x7a78606d9844b361U, 0x65902f8f85136657U,
  0x4d8e84546a457e80U, 0x6860b14f6c65b76bU, 0x7e6786777e89a251U, 0x853e8ee87f637d77U,
  0xa2a96ba78f997b71U, 0x9fba9d40747f7c6dU, 0x5184a8957b4b7e77U, 0x936f9ead8c719076U,
  0x429c906e81729f6fU, 0x6a8b5f5a8a757864U, 0x8b7a89817173997aU, 0x766b729687905c51U,
  0x69606a756c3c4baeU, 0x5f824d7e5f685955U, 0x9197635d7c637299U, 0x554f8c629b999e49U,
  0x7b7b7f8c7d54819dU, 0x8645846b78ae686cU, 0x648aa08862777a74U, 0x9a62837290809a35U,
  0x7314989c7a68a386U, 0x9b5d587b49837f74U, 0x817783a566495f84U, 0x46687cbc8d798083U,
  0x4b6d528e96888987U, 0x745b743c9d7f7486U, 0xad7686cb805b3e63U, 0x858a6d5680488f6fU,
  0x6281499d6e407a6cU, 0x655b3397495d6561U, 0x85c0000069eU, 0xfffffba6000005acU,
  0x51afffffe22U, 0x56b0000058eU, 0x370fffffd7eU, 0x5d00000080bU,
  0xe6000003cbU, 0x4f6000005fbU, 0xfffff54c00000d93U, 0x1ce00000c12U,
  0x2c4000001a5U, 0xfffffff0000007c7U, 0x92f00000e32U, 0x32d00000a5cU,
  0x8eb00000038U, 0x31300000accU, 0xfffffd6b0000056aU, 0x4800000064cU,
  0xfffffccb0000090eU, 0xfffffc8700000466U, 0x3fe000005d9U, 0xb84fffff8c1U,
  0xfffff87800000723U, 0x845fffff7e6U, 0x3bd0000000bU, 0x7e800000348U,
  0x19000000145U, 0x65500000b08U, 0x1d300000bceU, 0xa4bfffffe40U,
  0x637fffffafcU, 0x6840000107eU, 0x15a0fffffd0eU, 0xfffff07300000375U,
  0x78c000008c4U, 0x6080000063fU, 0xa7400000d57U, 0x102100001ea2U,
  0xcb400000864U, 0xffffee2400000092U, 0x142000001171U, 0xffffff0d00000359U,
  0x1b200000720U, 0xe7f00000b4cU, 0xb2800000393U, 0x617fffff92cU,
  0xbbe0000048eU, 0xaa00000059fU, 0x737ffffffc8U, 0xbe30000001aU,
  0xffffefc000000632U, 0x64500000607U, 0x4e40000096eU, 0x3f9000001f3U,
  0x19c00000d09U, 0x4a6fffffd9aU, 0x708000003dfU, 0xfffff3fafffff919U,
  0x74300000081U, 0xac2fffffa56U, 0x7ff00000e92U, 0x6b2fffffa5bU,
  0x442000008d8U, 0x34b00000654U, 0x696d7d7a656b5170U, 0x6d7472797178767aU,
  0x8f81717b6d828d61U, 0x86907e7a7c56729fU, 0x586d7a5e6f727c83U, 0x6782716e73627470U,
  0x646d5c66775c736fU, 0x7e4e8c849a7f7276U, 0x7b5d6a7b7e568769U, 0x8a688c6a6a707959U,
  0x7888706a50896a64U, 0x9496668f927d836bU, 0x616978636e656176U, 0x406e567b9062658aU,
  0x66617e8378676a67U, 0x6064866885946372U, 0xa26d86975faa8f41U, 0x241c72795b559584U,
  0x67a32e6aa8c69e78U, 0x8e58ac8cc52ab2c1U, 0x78756b7a5d752792U, 0x774b59628957855cU,
  0x58786c5d6b57674dU, 0x7c2fa3a4540e63a5U, 0x6a2a3758823c809dU, 0xbc779b435b4a9a5eU,
  0x4892558946a66682U, 0xb5703ac1a35ba442U, 0x4c1e75455442273cU, 0x823d75a2b4507435U,
  0x5393acb4823b7878U, 0x46318f81684f4a4eU, 0x936a6e706d8a6d71U, 0x9072768e6f766071U,
  0x86766a6c57578b67U, 0x8279876c6c66748aU, 0x7374746f80876a85U, 0x779065658e6b616cU,
  0x7282656d556e7385U, 0x7e70638476838271U, 0x7f6589786f5d8a70U, 0x8644775c756e7b76U,
  0x787e6a897e756c7eU, 0x65639263717d706dU, 0x8d6c6b6775796a5eU, 0x90896f5f857e6e73U,
  0x7377766c925e7c6fU, 0x71378f6b7c64a168U, 0x2954aa3d4a4c799dU, 0x679588628c5273a3U,
  0x5b8f6bb09e88717fU, 0x90c25f9b8d783c91U, 0x577865393f8a7d22U, 0x774a2b5a6f56ae79U,
  0xbccaca5fcc4c755aU, 0x814584a1aa893a31U, 0x6a92527d8e84c788U, 0x85c7a27d415060a3U,
  0x5d65738827893228U, 0x959850799f678038U, 0x699170ad5f5d7795U, 0x45322a82853260b7U,
  0x61a994807e88777cU, 0x84858488b9b0bb4aU, 0x6929be2e38c0d037U, 0x5281dc202618e5deU,
  0x452031b8a38b99dfU, 0xce2d8acba0c1315cU, 0xaee16bd2d7b4399U, 0xe733362b9e93c211U,
  0x9f5063236b30ff27U, 0xc881cbc2d7eae4dU, 0x9342e00d9824ed6U, 0xae8dc3cfd9e581bcU,
  0x190ee6c39ad7607fU, 0x992b338ba41510a6U, 0xba6f0a811c314c69U, 0x646b2bcb22bf4276U,
  0x15bfb4a3cd2edebbU, 0xcd74b9dd4e8459faU, 0x8b7b6f7770899e72U, 0x857d5ea88d7a7265U,
  0x8c64724650539558U, 0x946f7c6c5f8b9d78U, 0x5d6d60916fb28994U, 0x57958b65b9574874U,
  0x4543447c535c7d93U, 0x9e6d93915a8ca585U, 0x7a6176696f454384U, 0x7c4a6c6f807a566eU,
  0x78874b895d6664b0U, 0x6451886b62849e6dU, 0x906e75417786585eU, 0x9f8165508e8a7363U,
  0x685d7b548dac787eU, 0x5d6e8c69206d4d66U, 0x6f5e79808c587f8dU, 0x837f758c88996c6dU,
  0x3f62897968669064U, 0x7b704c746c75797eU, 0x796d7f6777817d6fU, 0x6a7a6d7079485e8aU,
  0x7b8172627f6c7f81U, 0x78649b7a7686744fU, 0x7e807f7c635f746eU, 0x6b74827d766a5f7aU,
  0x8370748d6b5d6276U, 0x7b7b8b5c75838368U, 0x8a977d7578867698U, 0x7f78715f78775777U,
  0x75707a58897a6889U, 0x80887d6c69758d6aU, 0x8069707e945695b0U, 0x9883768eb4746d5cU,
  0x47649376464e8e5fU, 0x818c3d7359877c6dU, 0x626f71615ca89979U, 0x6d975c57683b6084U,
  0x72876371727788a0U, 0x957a6d768c9e7c68U, 0x866a877668577e5eU, 0x787b648a79702e90U,
  0x8a56727964635372U, 0x74ac8b55848e8962U, 0xa086736a8495869dU, 0x8e7680416f784074U,
  0x6a5a5a3e855c71a0U, 0x8e7a796c648b8b6eU, 0x8972757b837f7784U, 0x6d7b747b80865a73U,
  0x6c6b7b727b708f6eU, 0x837265726c798582U, 0x766e737e718b838fU, 0x738a7771916c6c7cU,
  0x6c61697572687d63U, 0x706c7663957a7363U, 0x79807a787262817dU, 0x798b77827b806286U,
  0x7d786d83666e6180U, 0x7067755f757b7b73U, 0x815c6e6568746983U, 0x946c686e757b7165U,
  0x7f766f6d8d81687aU, 0x77896c735d6c587cU, 0xffffffe4ffffffe7U, 0xfffffff300000023U,
  0x1c00000024U, 0xffffffd0fffffff2U, 0x1bffffffdfU, 0xffffffeb0000001eU,
  0xfffffff0fffffff2U, 0xfffffff800000002U, 0xfffffff8ffffffe9U, 0xffffffeeffffffffU,
  0xffffffe700000017U, 0x2e00000008U, 0x1c00000007U, 0x13ffffffe3U,
  0x100000000dU, 0xfffffff2ffffffe8U, 0x190000000dU, 0x400000009U,
  0x1100000005U, 0xffffffb1fffffffcU, 0xfffffff8ffffffe3U, 0xfffffff7ffffffc9U,
  0x1b0000000fU, 0x270000000fU, 0xafffffffbU, 0xfffffff70000000eU,
  0xffffffc80000003fU, 0x1300000042U, 0xffffffeefffffff7U, 0xdffffffeeU,
  0x1afffffffbU, 0x35fffffff4U, 0xfffffff200000037U, 0x100000001bU,
  0xfffffff200000004U, 0xffffffe1fffffffeU, 0xffffffd900000001U, 0xffffffdbfffffff7U,
  0xfffffff1ffffffecU, 0x200000016U, 0xfffffffafffffffcU, 0x19fffffff2U,
  0x500000000U, 0x80000000dU, 0x800000016U, 0xffffffed0000001cU,
  0xfffffff400000012U, 0x2300000017U, 0x1000000029U, 0xffffffec00000020U,
  0x180000000cU, 0xfffffffe00000002U, 0xd00000004U, 0xffffffe8fffffff2U,
  0xffffffff00000017U, 0x400000013U, 0xffffffdcfffffff9U, 0xffffffe000000012U,
  0xfffffffefffffff8U, 0xfffffff800000015U, 0xfffffffaffffffdaU, 0xffffffeb00000008U,
  0xffffffe200000028U, 0x19fffffffbU, 0x6a7f527c7c786177U, 0x7a8c9e667c537170U,
  0x837b775f926b6479U, 0x7b744f737c566d5aU, 0x58746d6167607e7bU, 0x5977897a93688477U,
  0x6a99777e93598c8aU, 0x577288812e947a75U, 0x53516f6d705e5b6eU, 0x828b735e56859889U,
  0x7a7861835e969587U, 0x7e9a836563916b7aU, 0x737e8a947f89486eU, 0x69676f825d7f8e6eU,
  0x748a7e7086b88171U, 0x6fb95e7937804b79U, 0x8c6c6e45637b6a9dU, 0x427f6b7572635e84U,
  0x6393716080685284U, 0x8363958278704a79U, 0x70637b9273737a67U, 0x847d9d4d71517689U,
  0x8b955c8f7f6e6ba6U, 0xb78a5d864e695877U, 0x84ae706b837ca73fU, 0x7d7a68a290675755U,
  0x7497716663648131U, 0x6e8382795e6ca374U, 0x6f968a7883859668U, 0x525f617e886b636fU,
  0x897c8f74644e6c79U, 0x5c85767b728e8a8aU, 0x756d8669877b6681U, 0x856666ac5c787775U,
  0x787064a28f977965U, 0x6e63704c728a6f76U, 0x4f8362a96ba66c74U, 0x7a765f7e73639b80U,
  0x7953567377805752U, 0x637f6e528d628031U, 0xa67c886c76797f79U, 0x7f8b9f799673746eU,
  0x81646f766b7a6d3bU, 0x7584807984797772U, 0x7e738c78826a6290U, 0x99935f7b806d827cU,
  0x8c8170668a737c69U, 0x6a667a8881648876U, 0x66898e5173876a7aU, 0x6c6d69887c85867fU,
  0x5d837e6572598c76U, 0x736a5b57688f6568U, 0x857d5b8c797a6770U, 0x5f8869a386797086U,
  0x6c907b646e886160U, 0x7162706495706781U, 0x8b9c8277897d4e77U, 0x56876d5473897aa4U,
  0x8b63637784617078U, 0x5c83796f5f60807aU, 0x717265738f6d8968U, 0x8c8c5c78827f7386U,
  0x7879746881727571U, 0x776879504f656999U, 0x755c80846d796e7dU, 0x706e78686c5c6b8cU,
  0x558095818184846aU, 0x78876e737369826cU, 0x4f87647c86797984U, 0x8c74676b7a6d6e64U,
  0x84657279777d5977U, 0x84757250819e6e58U, 0x7f6a867e846f8363U, 0x8d807f6b77708076U,
  0x9776666f7f889b7eU, 0x727c7b838c717189U, 0x7e9676695a756a80U, 0x738f9f7a7c818069U,
  0x736b69756b78799fU, 0x90666a8076826d9aU, 0x80894a63876a5179U, 0x7474896482757180U,
  0x6da5948980777183U, 0x6d857e95ad4d6d4bU, 0x83768a6a93977d75U, 0x685c7e7962776861U,
  0x6c807b7b6a7a696dU, 0x727a865b8b878a65U, 0x6a95468581826b81U, 0x627f4a7484666978U,
  0x8795617d7f5f7b7cU, 0x647d80bb6a838d91U, 0x735b8b877e7e7d69U, 0x7471775a967b8678U,
  0x7d7c854e658b6a76U, 0x7f756e6e72676d87U, 0x887482827a7b8a62U, 0x747a5b6c647a5582U,
  0x8a627d7d82806d94U, 0x5b7b7072707f857dU, 0x80686b798599787fU, 0x605e647468708869U,
  0x7171818d7393628dU, 0x745c757683797286U, 0x707382656c9a737bU, 0x7b7d8c85756d7583U,
  0x6f7e986a7b517e74U, 0x9475647f6663767eU, 0x946aa48365756e82U, 0x818b79917e729e5dU,
  0x7f68796e6c7a6d8eU, 0x84667f616a848389U, 0x738f8f8b5b4a3f5bU, 0x8e69838b5e8f705eU,
  0x838e8263716e7275U, 0x566f678470668673U, 0x6a67966eab74695dU, 0x737aa5897f925b5aU,
  0x8773636f7a6e437fU, 0x597b957f847a7e7cU, 0x568878928e82507dU, 0x707d7677838a6882U,
  0x6b8a867756527a7dU, 0x82826b996c6179a9U, 0x846f89908f7c8760U, 0x717d9c82a08e6163U,
  0x8a847a7583999687U, 0x788e87bf84907344U, 0x72578b9b68948e80U, 0x776b948a6e848069U,
  0x75707075727b7783U, 0x6c856f646c796b87U, 0x7b67866b50776f83U, 0x8a7d785f6b5c6e84U,
  0x67697e7881705579U, 0x7186805870746e70U, 0x667e5b7e81686c7cU, 0x6c8d9f7977b95988U,
  0x665c5d867d726275U, 0x69815a7589758375U, 0x7580757353806775U, 0x708866878b735c79U,
  0x507d7b678091977dU, 0x7f73958a666e77a4U, 0x81736b7c835d708bU, 0x7186707e69607c93U,
  0x687282767785906cU, 0x798c7175836b9484U, 0x836760646970806cU, 0x6b6d6f7647747681U,
  0x74736f7767655f6fU, 0x737d7575777a6861U, 0x8b606675718b7869U, 0x6889785b716a8a7cU,
  0x76777e737d7b655cU, 0x827f83847e679078U, 0xa67e7c6065698291U, 0x7b6f738083827a75U,
  0x7e6a6f5365626079U, 0x80737971787c7977U, 0x637c82818b526188U, 0x6181857b65816072U,
  0x7e598a836172767fU, 0x6a738879486b7c76U, 0x706983757e80766eU, 0x8256827c70794e6cU,
  0x7367826a767c7c3eU, 0x5f7c756078438487U, 0x5e6c87826d70736eU, 0x8379927a717d7f8cU,
  0x7a827c7b81617d77U, 0x667a6e4d836e8166U, 0x637e667d6b60905fU, 0x6e77916e72776d5eU,
  0x6f7971ce71747a7fU, 0x7b7e7c807b697f7dU, 0x9d7f8a848d456470U, 0x998a707d78606c83U,
  0x757879757f476e7cU, 0x8a779a6b80998873U, 0x807a896d67618057U, 0x779095786b7c8286U,
  0x82877a9f3e5a736cU, 0x7e8b78726e626284U, 0x8f6b727a759e8a74U, 0x8c93787f767c7687U,
  0x757066665a97a147U, 0x6b6a7f586e7a5a79U, 0x896e5a6a85648f48U, 0x785467858e8b545eU,
  0x5d7c768562725d6cU, 0x687c6f74805b9974U, 0x739482786d667282U, 0x8973828675748181U,
  0x557574825d838e6bU, 0x675b665279758686U, 0x6e585c6a645e7e4cU, 0x657d7297697f9b93U,
  0x5d8e576f8b8c516eU, 0x5a73586d6f6c8a5aU, 0x7061836a8f6f7674U, 0x7299939f8f617e90U,
  0x637a8e684b718d64U, 0x7d846e557e7475a0U, 0x69965d6e7e786c83U, 0x66785b806264796dU,
  0x7793798193736d66U, 0x8a8a8c6dad67757dU, 0x7760697d6b726b86U, 0x617782757f744967U,
  0x6e5d7976858c736dU, 0x7a7d9f777b636c91U, 0x89657b7a887e746fU, 0x84776a7d77647c7dU,
  0x7f736d5c82846785U, 0x7f83646e75ba646dU, 0x9a546e756e637172U, 0x798d6c7b86696785U,
  0x6c617f6a6c8a6c81U, 0x81827b696d626c6dU, 0x7c4d71797784916eU, 0x808c7d786d7b8462U,
  0x856b84798284707dU, 0x8e8a8c716f5e7189U, 0x778b7f956389797cU, 0x817453698d7a5e65U,
  0x7f7c778c7178606fU, 0x60748b31695a737cU, 0x6762876f77627f68U, 0x62697d9a7b4b736eU,
  0x90787860855a5c81U, 0x87837a7d6e7f6387U, 0x948b667f4e787686U, 0x74726f6668808f72U,
  0x868e725f82748476U, 0x7582826f8292628fU, 0x8c7f846c847d908eU, 0x877f847763769763U,
  0x7c6a5f4f777f5980U, 0x8c68655c87757258U, 0x8373838e6f6a8c7dU, 0x7e777b776c758872U,
  0x75725a8266638687U, 0x557963148781827dU, 0x70755d7576808385U, 0x808582c28d589182U,
  0x7b739d8e696f5473U, 0x806978727b7f6f79U, 0x707475767d766a61U, 0x656395697370747fU,
  0x655b65926f6a7a85U, 0x6c7b837d797e7c76U, 0x7f7395798c71696bU, 0x6c7773897a727e77U,
  0x6579776d8979678aU, 0x86787a67817c807fU, 0x6a716b95917f4997U, 0x6b907f837b896160U,
  0x7e5b838f8e796078U, 0x798967785b807288U, 0x916f675d5e82716dU, 0x6c738b7989906960U,
  0x8c727a717a60767eU, 0x726575707a797979U, 0x6b936d7c5a5f6c78U, 0x825e78626e756760U,
  0x856d587c7b5b707fU, 0x8271467b6c6d636cU, 0x7c7c93736f71767dU, 0x7c928f6d81737c8bU,
  0x755c5b707193877dU, 0x6d6c74797564847cU, 0x827a72726e517172U, 0x5a8b8d5b58897a3eU,
  0x7c7681544b2d7379U, 0x946d6180737a776dU, 0x628185586a857d6cU, 0x714a738728635a7dU,
  0x4e618b5860645f8fU, 0x676e86658275607bU, 0x708c74786174846fU, 0x7e68958a6e97756fU,
  0x7a896b548a7a848cU, 0x83697884617f7599U, 0x78838c7d787a8b76U, 0x7b5c5e72836f8576U,
  0x87737d7968828f86U, 0x6d849152518d7e81U, 0x3c8b748c6f667d9eU, 0x71785f7a7b7a8176U,
  0x9e776f7e6a89a55cU, 0x626974886d5f8f79U, 0x936b63739c637c53U, 0x8275695f5a5c647aU,
  0x7cb245569b84596bU, 0x5e6d60625c72937dU, 0x5f7a6c7677878170U, 0x6871897d76517d68U,
  0x686f8166a0766aaaU, 0x8972907b6a89617dU, 0x7287908a7c846292U, 0x797d787374686470U,
  0x8d777d7b5c8c5178U, 0x857c7a6c5c787f7cU, 0x95877b7662aa5191U, 0x7f5c6e5857707067U,
  0x5e5e7574596e6b5bU, 0x71878b6d7190597eU, 0x675572a46b75867cU, 0x567c83847b7a8491U,
  0x76576a765e797975U, 0x8b5249766e698484U, 0x7377667b7c71956cU, 0x8b87837f7a89718aU,
  0x62545d6b7b8f5f58U, 0x9b84747b7d803564U, 0x736d61a7846e8580U, 0x7276764e6645748dU,
  0x686a6784878d8078U, 0x8368788c6b528173U, 0x6b8e778d7d886986U, 0x70675f788961926cU,
  0x71797e56796b8451U, 0x7e70777f64818b87U, 0x53727e637c716b6eU, 0x8471597c757c4686U,
  0x6b85d77e6e694d83U, 0x78808377816c9183U, 0x9a648a707a79866fU, 0xa07f82894f715181U,
  0x7e72676d7865889eU, 0x8d70837a8d839a9dU, 0x57758991736f8279U, 0x4e7a706a5d575c9aU,
  0x8885818a765c797bU, 0x686e7e6f818e7083U, 0x6f787468667e8465U, 0x716358705c6f9193U,
  0x807c507682818976U, 0x9d7b6d9077896d84U, 0x896ba2948158446dU, 0x6577776365847078U,
  0x7a7465856d838a66U, 0x71696c89656c8c7fU, 0x8f8767508f967b8eU, 0x67833a7e736b8f79U,
  0x7b6f8b7670818d78U, 0x747b8ba089568686U, 0x8c7b62829b6a5384U, 0x8786758b5c88755dU,
  0x777f72728e72a176U, 0x826f4b827f68756dU, 0x7e6d578d95686c85U, 0x77776b6f7b695c72U,
  0x6a5a9252717a729fU, 0x777e8d766775686dU, 0x985c7576778aa276U, 0xac74896d7a7d746eU,
  0x59617c6a74697590U, 0x817167617775907cU, 0x74805c9447867a54U, 0x4f739194856c7381U,
  0x678c7363667b636aU, 0x7b8970747387809cU, 0x646f725d7a7e6e56U, 0x828e7b9373797b82U,
  0x758d8667639b6c71U, 0x5b71776c777a906cU, 0x8a787275816d686fU, 0x6c6e795b7c6a7a8eU,
  0x815f99516e888d98U, 0x79947d896f7b7d68U, 0x4c725e857e6c818fU, 0x6c6b6e717a83835dU,
  0x835b765c8987667eU, 0x655c5e527e8e638aU, 0x82724b875a61767aU, 0x597f8c7d7a816d84U,
  0x776f7a7e6464836bU, 0x68737f7f7f8d8269U, 0x517fa06d7d7d5a66U, 0x64745e79608a7756U,
  0x6e826a866b6b5a5eU, 0x7c5e5c7f7a717d86U, 0xa27b6c8933796672U, 0x6e877d7284978bb6U,
  0x47787682ad7a8572U, 0x68ae688689857ba2U, 0x6b856a8c7d806876U, 0xa373708e5c736a6fU,
  0x9d557068797d6173U, 0x6478516c54647891U, 0xa95c617bb0737e50U, 0xb0898e7160969b77U,
  0x7e66ad7365817a94U, 0x7b887768625191b7U, 0x8da6546091809570U, 0x8872809a808c805dU,
  0x8196736e78835f4dU, 0x7a717067886e6a92U, 0x749885717aa15f8fU, 0x73615563719a7177U,
  0x656e6c504a7a5698U, 0x7f896c6f704f5c5eU, 0x7371468794607060U, 0x8e8c727a99867068U,
  0x8378699092697a7eU, 0x759180705f7a6a7bU, 0x8c9186627680844eU, 0x7d757e92795f6586U,
  0x6a99987982657a7fU, 0x7c767b6a82777476U, 0x779678af7b6d869aU, 0x5996726b873d7c94U,
  0x8a69727a6d807f7fU, 0x7aa276747f824470U, 0x6f6b6f5a80818592U, 0x75846c6b40856d75U,
  0x869a8c6f82618078U, 0x887b82878f7f7274U, 0x937d79845e79817dU, 0x917575796e6c6f78U,
  0x71788a6d688c8465U, 0x848d6770865b8878U, 0x728b736f75957b6eU, 0x7e50646477707d58U,
  0x746c76737daf8e6eU, 0x8d5f77787a885d84U, 0x696671869a6a7869U, 0x736c5a74937b708aU,
  0x787f827785536c62U, 0x677c5d5288785b6bU, 0x81866f7465765b77U, 0x7c76647791826382U,
  0x6b7a518985678c89U, 0x926b78ad88877374U, 0x567b8c5e4c7f7378U, 0x7f758b5677598070U,
  0x776f717d8493706fU, 0x767b7a65807b825fU, 0x8a74586877765f71U, 0x7c72787672837167U,
  0x7040614d5570767dU, 0x797359705681898dU, 0x81789b7345816c74U, 0x717a759b80705e7dU,
  0xd16c697a8c778e88U, 0x3d6252af63828198U, 0x5a7c726d57747c8dU, 0x74787b74938c8d99U,
  0x645d8881755b8276U, 0x81507e828276736eU, 0x7e676a7a81987d79U, 0x847c7e9082766c77U,
  0x746b6b68637b6479U, 0x6a6f7d8588588c7bU, 0x6d847c6e62809c7eU, 0x785488596f737778U,
  0x5e7b719884627a7cU, 0x8e6f7c8d7f47996bU, 0x7c427f716783766aU, 0x516672688378787eU,
  0x7e695d86873d7379U, 0x7e1f7e659c775c88U, 0x7474938b976c8e7fU, 0x7172507c69546a8cU,
  0x5f657b7286675d6eU, 0x7a835f757c555e69U, 0x789a855985848d71U, 0x785a6f747a947e49U,
  0x5e647551596f5786U, 0x6a76804b647f9787U, 0x6e5d687b5f687873U, 0x848e6e807d5a815bU,
  0x70b26d6a6276626bU, 0x7180697f8d807c7bU, 0x556e84957b72875eU, 0x706b81645b95676eU,
  0x797c72597c638867U, 0x6e667f7d6b7a5a75U, 0x75939e717b907873U, 0x7d6c87716c827892U,
  0x775c6b9d95704e60U, 0x5b67595e507f7c66U, 0x6a6a6580605f8bafU, 0x82375f6876851f7dU,
  0x66568b7181696d59U, 0x3e8e9b8b677d726bU, 0x726f738577879077U, 0x79886d6b83728478U,
  0x85768c677a6b797cU, 0x7d7e8d6f7b747370U, 0x6655749f79629f90U, 0x7478648a675773a4U,
  0x7570879b6c827673U, 0x74686f8477a06a5eU, 0xa65f7e775a624c6bU, 0x787b673548796c61U,
  0x868f808362667973U, 0x6e8e8f98647c427eU, 0x87746877924f7d71U, 0xb4717053586c7574U,
  0x7087825469667d68U, 0xa79372547c88777fU, 0x4e4b679267997757U, 0x706b4e6890667659U,
  0x9680a16564729283U, 0x8390658069929380U, 0x6d67949076606a6dU, 0x65799589788c6d93U,
  0x6c7572918794438bU, 0x89746e59736e7766U, 0x917b81647a8ea867U, 0x688386858567845eU,
  0x6d5f6e7a74805e64U, 0xa28f8d8978616b81U, 0x735eb2799a576598U, 0x64388c8473628073U,
  0x958c768761707279U, 0x715a657462647893U, 0x5b8e87597b836594U, 0x7d98858964847b78U,
  0x4e6f88777873827cU, 0x6376718c8f715e87U, 0x6f6f6369437a7176U, 0x635c9f8d5f876378U,
  0x8a708573669b8f57U, 0x887a825b7f6d8093U, 0x817e86837854886dU, 0x926f648a67856793U,
  0x687d735a7a7b6581U, 0x5c958a7973706790U, 0xa55395718b5e7570U, 0x65867b6271936883U,
  0x8c4e6b7793905683U, 0x7875547565716a8aU, 0x767b744ea5937975U, 0x65816a5e6e99617cU,
  0x607f6f7e81847c90U, 0x658271698367656bU, 0x7b8680657287766eU, 0x76678a6f94768168U,
  0x50874c7f9e81816cU, 0x81716d9c885d5f6cU, 0x6b597871a19f7171U, 0x7093875f71895069U,
  0x8f88aa94916f716bU, 0x80747e71864d6e69U, 0x8041906b747f8c64U, 0x6f79816ba9658184U,
  0x7d6a87855e515a81U, 0x6d7d6c5f868f766dU, 0x727555b14f956093U, 0x5561746a946c736dU,
  0x6a6d64898c687455U, 0x74726ea48188815eU, 0x6360a6896380858eU, 0x76857c7773735674U,
  0x774e7e49657f788eU, 0x8c8363657f665b9eU, 0x72459254836ea16eU, 0x6778ad8d64966673U,
  0x76865e6d60756f93U, 0x91767f6b768d6e65U, 0x698783718a344979U, 0xa47f69826571665bU,
  0x6d7581916a8a8766U, 0x6f6d7176857e8a7fU, 0x61a07e84806a7586U, 0x46805d67a6815b8dU,
  0x88599681919c827dU, 0x4c687b789d799661U, 0x5c8c4a885f88426fU, 0x5d7e7890a476486dU,
  0x65607f5f906b758dU, 0x9375989b77888e77U, 0x776d614a6c627195U, 0x8770726c6a7b6c6aU,
  0x6367745c6276697dU, 0x5f748d7463346b54U, 0x7b6b877e8763555dU, 0x75848d587b7c7a8fU,
  0x857289769961668cU, 0x729c8c86637b8666U, 0x6a77798484877473U, 0x707d5d877b767781U,
  0x787d6f5d84678e72U, 0x917d7d6c62857059U, 0x8082808875847f8cU, 0x6e777c6266898c76U,
  0x757b8673798b5694U, 0xab8c6e8666665e8fU, 0x618ca74a6d807874U, 0x62847f5d7866757fU,
  0x63a4837565656161U, 0x776e8569817b5968U, 0x75767a8494746c6dU, 0x623f7374829e5c7dU,
  0x706e74766f495f53U, 0x6e7c5f757d716e82U, 0x5d847676a5787c90U, 0x8d8f4c6a8867978eU,
  0x8490a66f83728174U, 0x705d986b838f8f6bU, 0x686e7f9483846f71U, 0x7e7f858673737c7eU,
  0x61735d88616e698fU, 0x6e6c716b7389805fU, 0x8286818a60776f86U, 0x6a7c7e7d646e5169U,
  0x7e6f7f71796e7c69U, 0x7589877c73646b60U, 0x65557b8981718a6bU, 0x6b6e747f51896a7dU,
  0x797d6d677d886060U, 0x6e6b6561827c727cU, 0x85777a796c61787aU, 0x68738668798e6577U,
  0x59896c8676765c7aU, 0x85668b7b7c7f7973U, 0x7680965d727d807eU, 0x698c5e657e7c7270U,
  0x6062616061816858U, 0x77836b6782606d7eU, 0x798b7f7386747c89U, 0x9e79666265906663U,
  0x5174908663667357U, 0x6e6f8b73958e8c60U, 0x75548a6977736c72U, 0x659398795f81728fU,
  0x8863757f72955387U, 0x8a84666b645a6971U, 0x899a758c948f786dU, 0x8a726d7872638c5dU,
  0x5f73736067646665U, 0x777e519374827983U, 0x7d728762717e7787U, 0x6d968a5f74606880U,
  0x825f856277867172U, 0x677c7b678d6d7788U, 0x916b6c7d6f6e7d85U, 0x6867858d714b7eb8U,
  0x4d7f736e9e8c6e6cU, 0x70a87b7781829080U, 0x8d696c7178966170U, 0x5699417266886169U,
  0xa65c5d786c724663U, 0x7e777a8a6f855871U, 0x8c6a6a887e7e6867U, 0x66796d5880737e8cU,
  0x7d705070876f6577U, 0x54788e7275799063U, 0x848e735e717b6c6cU, 0x697386919f73788fU,
  0x836f4c787a907375U, 0x9a6d708689547b85U, 0x79806d6d744b5779U, 0x7b7166655b7e706eU,
  0x60668688666d706bU, 0x818d8c826e8ba573U, 0x738b566561694f7eU, 0x766f878173898566U,
  0x9c627b7c638b6e74U, 0x62886b718f74789dU, 0x818370885b896573U, 0x765e6f65657c9d90U,
  0x9a6d58758c727a73U, 0x72756b78866b6a89U, 0x636769639164633aU, 0x7f76855c947a7d38U,
  0x7487538674876a75U, 0x824781609f5c7f7bU, 0x677168888065848bU, 0x815a6c6d887d686bU,
  0x92977c5673546278U, 0x7a667a666a74667aU, 0x6986687a818d8a13U, 0x9094626d82669875U,
  0x627e7861866d828dU, 0x8376826e646e5772U, 0x856d8772736d7b6aU, 0x5f8583667e658468U,
  0x6974937172717155U, 0x7b765f7966866984U, 0x7e4b8875897c7f84U, 0x22817b796a397495U,
  0x794c627f8b7e7878U, 0x707775797b6e7b55U, 0x93796f718487816eU, 0x5b827477377d725aU,
  0x6b73746a6f877970U, 0x82665d7e8d727599U, 0x959874808278808bU, 0x7e778c7d548355aeU,
  0x627e766d7b886b93U, 0x6e556e805d758264U, 0x8a72847b798b6a71U, 0x66887f907388625fU,
  0x5283847c60a35c72U, 0x74925ca89a5d5494U, 0x717b746f914b7a7cU, 0x7a7c737263746281U,
  0x635f72637b987d76U, 0x7f82817f7e597974U, 0x4269696c7e6b6056U, 0x779a776175788781U,
  0x5861618c9e8d656aU, 0x7966827b7e7b3b73U, 0x8258636774527478U, 0x7634666b507b7577U,
  0x5d916367ad70646cU, 0x948b696e66555881U, 0x8280838d84714c7dU, 0x80626574767e7c58U,
  0x756f5d6c59928fcaU, 0xa27a8a8b996c51a0U, 0x68a06a477345917bU, 0x8176815c51777e68U,
  0x5978935f8ca79455U, 0x746e73399c985b76U, 0x8c7b5195647e6b62U, 0x7988887c79627264U,
  0x799b766362625188U, 0x759287727b6a716bU, 0x7359a55c63767a54U, 0x75908e778e7f797dU,
  0x7f73638c5c6f597aU, 0x657c8f6774758a79U, 0x73676376725d5e69U, 0x7c79637982756b80U,
  0x636c728d6f7e7e8cU, 0x726a6c766d828186U, 0x7e815a7f73935f67U, 0x91668870b1707576U,
  0x74b276655b869670U, 0x7e7d9594675d858cU, 0x5372716e7968895dU, 0x7667805c6b808a7cU,
  0x837a7577656f8175U, 0x886c7b81707e9174U, 0x6894778b94886889U, 0x987b755763697e63U,
  0x6a58708e658db178U, 0x787178818870714eU, 0x68848d597f898063U, 0x6f7d596660679b88U,
  0x8c3a9174708b757dU, 0x937b716f77946366U, 0x997466687a816f84U, 0x7178747661617a55U,
  0x7a7c5b9d6f586e77U, 0x6e775d797599705cU, 0x828c43938879ab5dU, 0x7b64739577667f6cU,
  0x7a50707781777f80U, 0x8779864a5f767f71U, 0x9675545f69767164U, 0x8f876f78a5885a8cU,
  0x75667e7d897c827eU, 0x577e627f766f6a75U, 0x7f7a8a6f7ca66f6aU, 0x78896e797a84af7fU,
  0x8c599d9774625e79U, 0x6f817a499e679d75U, 0x6b7a52878f567479U, 0x6c958f77986a6155U,
  0x65848477818d7a83U, 0x7979697b7b717f66U, 0x6e99647b85865a78U, 0x75697b747b856769U,
  0x52816b676e708559U, 0xa4696b6f6f71797fU, 0x62756a8950568279U, 0x986d7d7c6c41768bU,
  0x8482847679737771U, 0x8e7d9080636e846fU, 0x78718894347e6174U, 0x73738367785c5572U,
  0x778a9e6a78817178U, 0x87788273a3996884U, 0x7c6977867b6a7491U, 0x806e6890667d7f6eU,
  0x66697478878d7650U, 0x988163587182875bU, 0x4a926274605c7978U, 0x8f7662817070756aU,
  0xa67787925a787574U, 0x6c616f867b468230U, 0x905e63537a5b717eU, 0x706b707166667b7eU,
  0x4f767168365c6b67U, 0x5eaaa28c97977f87U, 0x3a727774877bbc79U, 0x647567788494644aU,
  0x8e8e7086666aa845U, 0x92566c8844795c77U, 0x895b725a6e7e956dU, 0x7c555c6a87706293U,
  0x8191a16a597e8e97U, 0x7682896c83727da1U, 0x65835b7fa0655452U, 0x9753867c92704d6cU,
  0x5f7e887c85657674U, 0x7f797b6d7482b883U, 0x807d637a86878459U, 0x668479876f7e7e6dU,
  0x9569678d807b707eU, 0x644f7b7178317585U, 0x8883919a55746a65U, 0x4980737f5c548e7eU,
  0x847e8a967d577e6cU, 0x658b815d598c5787U, 0x7e7677725b768f76U, 0x71768e677173715eU,
  0x7d6953907f9e7451U, 0x78825b6d6479a78aU, 0x7479558e806d6800U, 0x956465576a8b8077U,
  0x636573627e773ea1U, 0x8162557776749177U, 0x596f75679694677aU, 0x6174917174877b66U,
  0x6a7f6f56987d5a80U, 0x799378657e87a97dU, 0x67847f8f62857762U, 0x856668874158b276U,
  0x7c7c9d82996f5778U, 0x846475866198a679U, 0x7f7a7f7e79815e7fU, 0x7b5b6e614e9d755dU,
  0x8e8f6a89706d8573U, 0x65719e688f9c7177U, 0x905b7d746b788d73U, 0x6b5b786f7c838092U,
  0x4a8e6d7a7c557c7cU, 0x4c90837c8eab8a87U, 0x8a7f6f7f64717b6dU, 0x9584987b86608878U,
  0x8b5c657b76797f64U, 0x7c5e7756714e6c66U, 0x75855d7175626b7fU, 0x6e62785e6f6c80a2U,
  0x6b74775ea55d8793U, 0x8d7f676b937a7677U, 0x4785857367745f85U, 0x6c66727ca05c8183U,
  0x5f55437482835468U, 0x8164698e8c7b967fU, 0x7b718a78687c6678U, 0x8b5e60775fa8903fU,
  0xa67283604e7c6f71U, 0x80516f767a7f7559U, 0x5468817978659394U, 0x69857c7c8e786e54U,
  0x6585707573726c8fU, 0x8a8087a39d5c5a8cU, 0x8690647f775f786eU, 0x7a5e6b6c957b5988U,
  0x766f7571786f9886U, 0x8492766a715f7f83U, 0x63766a7d80957088U, 0x877787697172726aU,
  0x8d886661787d7687U, 0xa0888a7c77808491U, 0x715c7065804b6166U, 0x71697472608d7764U,
  0x6c907e807480816bU, 0x857983878c57678eU, 0x6793679e7a887175U, 0x76818b7564638e74U,
  0x8654987081638387U, 0x908481837f669c72U, 0x8d6c7a7f56747161U, 0x69718e7f6384809cU,
  0x86877c8d7a7a6574U, 0x7b897c6b8878778fU, 0x7e786f7b79696884U, 0x728c70697ec96f39U,
  0x726b8c74677d787eU, 0x8c816981675f644fU, 0x537b83727f7b7185U, 0x6970926d877e6850U,
  0x6374876c6f72845bU, 0x846b777e88766984U, 0x647a84896c8c8e76U, 0x786a767080788a77U,
  0x6e70a682bf61737fU, 0x5773696f896d6069U, 0x657f858a83617473U, 0x8d687c628b618185U,
  0x7f808a6f837c6978U, 0xa07a456a807c5360U, 0x6d6b8f7a65538493U, 0x71958f5e7a808071U,
  0x78696f7c7c747a7eU, 0x6a627c5f7e5d567cU, 0x776f7e6f7e6b7482U, 0x986d678c8068698bU,
  0x77544778818f7f82U, 0x4b79817684838668U, 0x8d9d805e81775268U, 0x667a708363877b6bU,
  0x7f5e816083905f75U, 0x5578625e758d8480U, 0x996a827b6c7b7a67U, 0x73587f855d64997eU,
  0x5d9b8673688b637dU, 0x84546c7e6a637e55U, 0x826c7e7a7e5b6f61U, 0x5f7c6361737e8f6aU,
  0x7a946b677a67986dU, 0x61808d5777756e93U, 0x6b68817a73797a60U, 0x687b757c8a977277U,
  0x5a6d64947f646943U, 0x70806a5b6a8d8d81U, 0x9d71787187668a96U, 0x8a7690716064925cU,
  0x857b707668867a95U, 0x8c6f4a6e727f735dU, 0x7b8c816b70708e68U, 0x7b646a5c4d596f5eU,
  0x6b81a0367a677f8bU, 0x6b726b677fa38787U, 0x88867a5b578d7b73U, 0xb26f838c78847b5cU,
  0x7d4e5e867d905068U, 0x6b6b7274a17a8156U, 0x686b7860825d7299U, 0x7170898997756c84U,
  0x6995716dab956e53U, 0x7b8d8d875d847070U, 0x9090576866775590U, 0x855a7f54746d8376U,
  0x854f6453738e6e54U, 0x808463725e2e725cU, 0x92918985796b7159U, 0x655e5870616d8b75U,
  0x5e8a7428896f7876U, 0x6f6b67678578668aU, 0x97547d72986b898cU, 0x845386718e6f807dU,
  0x8f776f785d907861U, 0x9285835594818852U, 0x9a63718b5d6a727eU, 0x6682726e9865826cU,
  0x5f897d77718e5074U, 0x4bcb6e807c67647bU, 0x797e7377657f6e79U, 0x676b8f817c618170U,
  0x9d5793799a737384U, 0x83856a5a74816155U, 0x7a67496278676b61U, 0x878b8653655c8283U,
  0x7e677e8478797478U, 0x735a61736e827089U, 0x53b47bab7f8b6fa6U, 0x5e696e796a677c64U,
  0x787d718b7c9b6a72U, 0x7c98847c6d7e9163U, 0x5f8c657f6d737d82U, 0x6e7a7b7e6e788781U,
  0x6b777e8083727f78U, 0x767473818256949aU, 0x5a5a90676b597386U, 0x6769647673866b6aU,
  0x807d759970745865U, 0x6267586963937868U, 0x6e74416e68808963U, 0x646d94566278715eU,
  0x54795f6d867d7471U, 0x957e868c608a7b72U, 0x7d7f774b59ab7380U, 0x7c7b7d836677845fU,
  0x735885846c857266U, 0x7e70798d906b6f61U, 0x75595f8e84666b81U, 0x95786f3824788b86U,
  0x7472b537827c7962U, 0x667a898564759682U, 0x7a546b7d689a926cU, 0x849b67655a77295aU,
  0x8b687f718369828dU, 0x5682656985726d6cU, 0x926464845e846e75U, 0x6b677263707b6e75U,
  0x9469948a747c6f85U, 0x6882637c6b838089U, 0x7e7e8677716e6b90U, 0x50858068706c8883U,
  0x727f62737279857dU, 0x876e7a86737f8281U, 0x84537a567d69726fU, 0x73716c807d706a8fU,
  0x7279876b7e747d82U, 0x6184657e77806e6fU, 0x857f768e81897d79U, 0x98634b6e69706881U,
  0x8c51746669915a62U, 0x71808b7a815d6f4fU, 0x7e698166947b856cU, 0x80807b597a606b6fU,
  0x6d6a817c867f5b54U, 0x856c6a666771826dU, 0x967e86586c627f86U, 0x65656c786d71767bU,
  0x6798716664658278U, 0x666d878c6c835e7aU, 0x578b8987758f6079U, 0x7e78905279646594U,
  0x74747d597666576eU, 0x7c9087686f698771U, 0x806f676871999055U, 0x698a6f7b8c657f7aU,
  0x685560595b757295U, 0x7377896c7f6ca474U, 0x6d87876c7475836bU, 0x6891776aa1736673U,
  0x4f6d736a666f5f6fU, 0x78b0936b888c6575U, 0x7345816d877e8573U, 0x8c928891727f7972U,
  0x6f646c8375828178U, 0x777d8e68965d7183U, 0x5a747e7d71786065U, 0x6372818c63826f73U,
  0x83738d947a71577bU, 0x7a3f75804e759264U, 0x7e777f78767f9585U, 0x8a725186757a8b72U,
  0x6c896867776b8489U, 0x7f6e7a5b6b6f6e78U, 0x81957f90817c6769U, 0x60c173807a868556U,
  0x7479697b75657e74U, 0x91a66a7d82879055U, 0x696675657a736d7cU, 0x97825f587499786bU,
  0x6b7f6f8b84746975U, 0x787d757b7a75686aU, 0x789456756e7b628cU, 0x5771716565747383U,
  0x749d988692858a72U, 0x5e804b6ca070758aU, 0x65644d745c978e8bU, 0x8b827c8363787d47U,
  0x6e697477786f4a88U, 0x6d9f76745e4c6491U, 0x75739388739e794bU, 0x847a79695e6e4e85U,
  0x6e8b938a739e8b79U, 0x5f6b7aa47a60727dU, 0x9c678d7b74747487U, 0x68874c5c709b8a6cU,
  0x7c7f725e53747476U, 0x7e6567757585876bU, 0x6d7e696e976a7c66U, 0x928a786780616699U,
  0x4b6879736f696f6eU, 0x847a715e70828379U, 0x9e4d888469967166U, 0x5179687c59766a50U,
  0x606a847b6a666f97U, 0x6b66807b766e7e6fU, 0x7b6c776469896f83U, 0x96797780787c8c91U,
  0x747c72649171856bU, 0x857a6f988d65577fU, 0x87747f8374687268U, 0x877fa1796d6e7b7bU,
  0x5a5f5a80557e7681U, 0x7780487d5f87a177U, 0x7d7f8684946a6953U, 0xa17581708a5e4f6aU,
  0x7473696580867983U, 0x896e8e6c697d7d70U, 0x6073688953718576U, 0x807477646b6f9a88U,
  0x6e8c65867f807f99U, 0x4e9468787274717fU, 0x866783907077696aU, 0x7288b6808b7b7c77U,
  0x6d8c9b6e87896e7dU, 0x957d567d6c806579U, 0x61576e6e775c8163U, 0x86826d867f5c6974U,
  0x78708671797e8465U, 0x7a6e77727b7f765eU, 0x79825d6c5d5c6480U, 0x9365654e5d627d88U,
  0x7b7b47277a696e73U, 0x5e758f988e69a98bU, 0x716b576571857f70U, 0x71837d9b727d5987U,
  0x5b94ff7893916ba6U, 0x64816b8795787a5cU, 0x7893877771597e72U, 0x728d789085627289U,
  0x6a5870a3947990aeU, 0x8f7676629d725d6eU, 0x7c747c5a89709386U, 0x5880946093847681U,
  0x7a73a369787d6c7fU, 0x7a6c797c877c6e85U, 0x798d5c798d8c6361U, 0x867881719480666fU,
  0x7b5b666866868166U, 0x6c85836d837b957bU, 0x5c78826c828889a5U, 0x82718b6d726369a3U,
  0x695bb66872746f74U, 0x7d906766926d70a2U, 0x7e7085ad75b06f7aU, 0x696c917d4478846dU,
  0x697b75569a8d6d69U, 0x73749180667c737aU, 0x856c83a27d6f7972U, 0x6b609e8e71927e84U,
  0x7381876c75827984U, 0x7c87837f70647a73U, 0x7e80977479646d7aU, 0x6c814d8b83725764U,
  0x7d6b8480777d8da9U, 0x5b756b596a8c5476U, 0x8e6f956482938c8aU, 0x6b7aa29b7d5a6179U,
  0x6a81716079826d6aU, 0x81877a786663787cU, 0x866e786a857f6970U, 0x76727c86737c7378U,
  0x5d967c826f826e58U, 0x867a7d606d5e7c75U, 0x835a926f8b588a6cU, 0x6d8882674b70967fU,
  0x66617d6f648c8979U, 0x607a6a8d62967d8eU, 0x548b787a7178737bU, 0x7fa8887367747d75U,
  0x627e8f737b4e6e83U, 0x7876588782494d4eU, 0x6a7e6b7390706a63U, 0x836e6c79799e6c7aU,
  0x856a5c5c70685274U, 0x6595876a6f6a6840U, 0x6c6c5d8c87766668U, 0x8d7f64756e6d6883U,
  0x808f99797c6e8a80U, 0x79717c6a6b7b6aa5U, 0x857a608d65759c91U, 0x7a7f886c739c8b7fU,
  0x668f8070709c6e67U, 0x659c87685b86549fU, 0x737c797871796f68U, 0x9365773a726e8c78U,
  0x9289555f814a7b7bU, 0x647380706f6a636cU, 0x706b6a6179687876U, 0x68667a6d7e73a976U,
  0x9165537c6d797378U, 0x87526d7b71626281U, 0x696f898361746c84U, 0x808e698a776ba955U,
  0x697582766b858c67U, 0x83586e7553a48f52U, 0x7b7477716e844f96U, 0x5a6e5696725c7d6fU,
  0xa48c7982847d8574U, 0x6563696660847175U, 0x8389617a60706181U, 0x89757c6880766781U,
  0x7a6b7b7e757f7077U, 0x6789837b8e5a7b87U, 0x6659877669668c6dU, 0x7e79766f6d806e6bU,
  0x7576726886826f70U, 0x5b82736e7f766f97U, 0x68696f897c976c77U, 0x6a8d80608084937eU,
  0x75605f89937f6264U, 0x85825a6d80548084U, 0x7e857d694a568b85U, 0x8c9a9580626f7d7fU,
  0x737c6d673f807faeU, 0x7a666b6f64716d81U, 0x785d6c7483926e75U, 0x756aa35e6683996eU,
  0x738b7f7d7a804f87U, 0x6e8c69744987845cU, 0x78657a5e71798d85U, 0x8f7a7c898b637f6fU,
  0x6d80757f767e6880U, 0x7b727a7271936684U, 0x7579926d677f8056U, 0x8a777873a25a7d9dU,
  0x82575d64827e7684U, 0x707972837e7b8086U, 0x4b7e748e4c8b6f6fU, 0x7e65a56255507b7cU,
  0xa672607d7082619aU, 0xac80a571766f8ca3U, 0x6c706467745b887bU, 0x4a7f738782744b72U,
  0x666d7177817a587aU, 0xa293af6b6b717b7fU, 0x80625d5f7784677dU, 0x9b7497757573717eU,
  0x795f759078756378U, 0x834e505c6a6b7985U, 0x7a90868d3f6c8147U, 0x636a7f6d73888181U,
  0x91607b55a1716979U, 0x618a5a4f8e767e85U, 0x637691616b848363U, 0x69b885949f796483U,
  0x6c5b968c7b716772U, 0x485c56778f676c78U, 0x7d6191815d837478U, 0x8d7ca59683716a7fU,
  0x5e70757f89808077U, 0x638d60847a6b6587U, 0x72597799846465a5U, 0x7276676684746669U,
  0x9a5b9b69847b6056U, 0x4365995c6f8d877bU, 0x6f5b7664806d6069U, 0x75746e888c7d8a6bU,
  0x807e9b986f835b8aU, 0x7ba5766e6a625585U, 0x7c518b7748706295U, 0x917b8f4f3d718352U,
  0x887c83778b856b70U, 0x6e816d826e826572U, 0x70a27ba665707973U, 0x5f8d52956979835dU,
  0x7c58954e7e776a74U, 0x818a4b788b6c827eU, 0x8b5f84744e88537aU, 0x6b80a06486829e70U,
  0x8f8d6c5683877567U, 0x6e888b676a757f88U, 0x809776865e75816aU, 0x5b7478696896876aU,
  0x696f75687d7f6374U, 0x9a925a7185775086U, 0x9f6b7d4d8b61618dU, 0x71a88b7944686870U,
  0x3c6474916285767eU, 0x48687277816f7b7eU, 0x669164385e9c5577U, 0x6db1577d7b7e828fU,
  0x85658996796c749aU, 0x6d6f847d6f6c8e74U, 0x60807984698899aeU, 0x96887a7586536e85U,
  0xa67a7150857d606aU, 0x6c837e716f627b88U, 0x857d7d8f5c969454U, 0x7494767c8f76887cU,
  0x72876560717d8677U, 0x72839a747397689bU, 0x748e6b8184866e7dU, 0x6d776c647e7295b0U,
  0x9c8b826b6e87937eU, 0x77847d8b8c918756U, 0x81836a925d8d6e80U, 0x8157667c9e916c6aU,
  0x5e7a53a6916c649cU, 0x607b817862778c74U, 0x845673756d6c826bU, 0x687e827b717f8c5dU,
  0x91787772687a6c45U, 0x6f775f617f636d81U, 0x7b896b796070825dU, 0x7a7c7e59737f7568U,
  0x857483877169827bU, 0x709b5f7674765b81U, 0x767ba2675d63876dU, 0x7f73894b737a797cU,
  0x7b5c7e607f9a7975U, 0x687e68857e6d826dU, 0x6d946672806f6a6bU, 0xaaab6c5f70648489U,
  0x66ad8e907249956bU, 0x267f6664a7b48d2aU, 0x4f8c737aa571b395U, 0x6f90558f73547a77U,
  0x84528a47586b6f91U, 0x62889f7360517b91U, 0x2a6f844e76a15a66U, 0xbd8073348f78875dU,
  0x8767558a798f555aU, 0x5c73598456847e94U, 0x43756c737b83ad78U, 0x749b6b865e757e7cU,
  0x78826a6d746c7c58U, 0x31877d9a76737f43U, 0x72a58491874d3f70U, 0x697b8e745d7d7742U,
  0x998f7e8551827c8aU, 0x776c7c8976677f37U, 0x467f6f63887c7e60U, 0x8b6aa3825c90686fU,
  0x6e9e657f64826e6cU, 0x6a958d69836f4f92U, 0x9e9b5e9c618a7570U, 0x657e6179846b8465U,
  0x8e6f81687c698e73U, 0x7a7c817a766f7577U, 0x7e87817c95758c69U, 0x797c8a7d607a8d61U,
  0x8d5c836464987567U, 0x6ca0687393617b54U, 0x8676908a787e7868U, 0x7f6951867b757383U,
  0x5e7169655f73946fU, 0x5f7d8f2e716e74aaU, 0x6c76796e7277625fU, 0x7066817953705f71U,
  0x876f70a36d775d64U, 0x8c8f7a61827e5b73U, 0x947e697b47777673U, 0x7682937b74757b72U,
  0x887b94a6777a6d7cU, 0x5c84a2628c888c7fU, 0x97856f6086ad6b82U, 0x776d70d26c6f5e72U,
  0x667a4f7c87638670U, 0x7e5e9f8c7d817669U, 0xa8767588576e6e65U, 0x8b8883697b555471U,
  0x6d767f6d7b887a7cU, 0x6b7e7d6769817964U, 0x73758e6e80657c77U, 0x5e8064735c826879U,
  0x7aab8374a3787582U, 0x7262656f537a6569U, 0x7444696387593c7cU, 0x8da97f7c85726c87U,
  0x728479733e6d6078U, 0x6a816f67577b626dU, 0x6b897f81766f646dU, 0xa38f7e7d567c7b7cU,
  0x708872668d7e7479U, 0x777c737041759178U, 0x876265918b898197U, 0x73896959726b5877U,
  0x886e7f74818f7d7dU, 0x5e6b9a677f676878U, 0x885a9e787764797fU, 0x8341786163795876U,
  0x75866b77838e8371U, 0x606f926d616e706eU, 0x8158573e607d888fU, 0x7b888b83797c5b90U,
  0x6857628373836b7bU, 0x7d84728a79567376U, 0x596f8e846d577364U, 0x95a37c598d9a4c76U,
  0x6c7f786389727374U, 0x758076916556925dU, 0x9175816463658969U, 0x7a5c8e6a86686b8bU,
  0x6a7d6a5b877b6091U, 0x7273ab826b937155U, 0x6d679d7c7f5a8e72U, 0x8d6367558b535792U,
  0x3f8d6b767f7b7780U, 0x8a978e906d978290U, 0x8061827f7f777860U, 0x667ea35d7a61796eU,
  0x6b7d636e7b716979U, 0x937e9f515576b177U, 0x31946e6a875c762eU, 0x8a74727b6d655f73U,
  0x73758a7892715f8bU, 0x8f8c7e817e63946bU, 0x73747182767c7d99U, 0x876c70777774596eU,
  0x5e6e9474a4605c6eU, 0x80ae838787878981U, 0x9f6b694f6460627dU, 0x886d65844c976472U,
  0x8c5a747b70746e6eU, 0x24826875625b8e89U, 0x887a5974887ba759U, 0x7d757d57846a608fU,
  0x6d6474967c7e7354U, 0x9d53706f70716667U, 0x564f69618473795aU, 0x8c7e7f6b9771677cU,
  0x89695f8a62835e5dU, 0x58617554b1628281U, 0xa37c789d6a635066U, 0x826f787c672d616aU,
  0x7992779d8e79885aU, 0x53a07c4a7d71788dU, 0x7089916b747f7f86U, 0x735083625e84776cU,
  0x68865e8a587c7271U, 0x6a816f47338d7b59U, 0x6c5b6b81607d6a92U, 0x7cad905887687745U,
  0x908b747e8168788bU, 0x662f6a7aa77a6b85U, 0x5fa78371667a6688U, 0x6563817c86647154U,
  0x7c9078895b788490U, 0x809b768978a76573U, 0x726f8e7f7892785cU, 0x525170765c7c4364U,
  0x8068565589728681U, 0x807a7a7485756b57U, 0x74787a70887c9d64U, 0x7a61896463786c59U,
  0x7a7f6c6f6d85972cU, 0x7f74795f896b6d74U, 0x578b647c8c8b6c61U, 0x4e8b7a658584977dU,
  0x5f8772808eba708aU, 0x7d7f788e8b787c67U, 0x74856a6c98657565U, 0x766d87788d708b6bU,
  0x49748f657e89424eU, 0x8e6c5c847d647970U, 0x847b664b939b9477U, 0x5f67756e8a68877cU,
  0x81925d7270784e87U, 0x8378696c7d6d6789U, 0x807b817b6e6b576aU, 0x858f71668164764aU,
  0x64766c6176518872U, 0x8b92747062709172U, 0x5a65594b855a827cU, 0x7476516a77708859U,
  0x766c808d8a9c7e80U, 0x769c69935e537d6fU, 0x6f5a566d7a5f767bU, 0x7d6b857f8e71887cU,
  0x6989916c8162918dU, 0x7860858260764262U, 0x5b663c6c847a827dU, 0x8c7a934988727f61U,
  0x778c7e8c6a775875U, 0x65825b758c733f72U, 0x69676a4b747a6d7aU, 0x797c4679847b7f98U,
  0x6e53747a94636585U, 0x4e668f8175656368U, 0x9e77917c78694e5fU, 0x7472576cb34fab60U,
  0x8484db82727c825cU, 0x737a86846b53997cU, 0x59717f838f718b7aU, 0x697f7a7980565b73U,
  0x9074655f53715365U, 0x78707e4d6a7f5aa2U, 0x868862748374865aU, 0x5f89715778697469U,
  0x7e6f776a8a84598fU, 0x80877268588569a0U, 0x78646e6d90847776U, 0x417a6f846e81706bU,
  0x89777979829b6d71U, 0x71817a71626f5a76U, 0x6e6e9434747b847dU, 0x7b7461734f538385U,
  0x7595948a83887d60U, 0x727e666c807f718cU, 0x775b90817c618268U, 0x807377725f738277U,
  0x7778687c8386666bU, 0x5c6e607167687d22U, 0xa06e5d795f93513aU, 0x65656c88885b86a8U,
  0x469057675c8c7992U, 0x748d477f7e718d69U, 0x74647572866da66dU, 0x825098665e8d6773U,
  0x8b6d5d90638d6c78U, 0x866e63609d7db891U, 0x92576c5e7d70bc73U, 0x739991972e877677U,
  0xb37f7b868c7f6c63U, 0x626e9366a168627aU, 0x6e93847d6d636888U, 0x9792877b56b1756dU,
  0x95824867717a7b7aU, 0x8860787a74647ca7U, 0x717585896561647eU, 0x648258716d6e8c7bU,
  0x6d767c8179718983U, 0x7d6a776b788c6770U, 0x676773898581966fU, 0x65798e737c836866U,
  0x8971797395758079U, 0x6e738c7e5a888384U, 0x6675795a7a636a72U, 0x756f636b747c7968U,
  0x88806c73796e947fU, 0x5a7fac53858b777bU, 0x738f83727e9b6f75U, 0x765f737c69887581U,
  0x7479639d8d775965U, 0x66656275697f8c5fU, 0x6f7c6f6b6058666eU, 0x798d807f8d635b9bU,
  0x687e7f7274568286U, 0x8160816d99678a71U, 0x796a6d677e898d78U, 0x7e73767f5c6a778eU,
  0x647b5b785a705c8fU, 0x66876063786c718eU, 0x76767c8273775d63U, 0x66707db2366991a0U,
  0x7f876e899d727c98U, 0x667084736d708671U, 0x8966787568717549U, 0x7e7e83637da78675U,
  0x7272718167518573U, 0x5a6d6e82497e8b93U, 0x84795f7778787b86U, 0x696b4178867b8f70U,
  0x7589816d7f72769aU, 0x547d826e956f7294U, 0x6b5570728263737eU, 0x6b74847082668f69U,
  0x9587777e7c897073U, 0x7370748659688473U, 0x6c7a6d6467867d85U, 0x78537b5d7a7d6180U,
  0x8168758295679a6cU, 0x797e808a636f8176U, 0x86808e7878565779U, 0x7b866c7c6d727973U,
  0x5a904c7a838b95a4U, 0x7c7d7376727b8780U, 0x868f6b726c646f73U, 0x7f678d6d71737247U,
  0x68636d7c788b667aU, 0x8073707789827d48U, 0x9678817767767096U, 0x8c8a647d5d817786U,
  0x656f6e525c7c7c6cU, 0x868c6a60916f6375U, 0x716e7989777b5c5aU, 0x7d7e6d7193738971U,
  0x916f7a586783755dU, 0x698b8b7d53838378U, 0x77708b4c75787964U, 0xab5b836f79787aa4U,
  0x72907e6d7b874e5cU, 0x755f835d716eb96aU, 0x8a9990766e6b6473U, 0x92635861766f7d75U,
  0x4e6d779077555f7bU, 0x857e66767f83606fU, 0xa3757d6253887375U, 0x757d7a7e819f6c5fU,
  0x716c856e824a7871U, 0x64534f8c866e7381U, 0x6558828688747d7eU, 0x6e6d84787f7f6f80U,
  0x518a9b785d7b7a78U, 0xa976747d5f787e7eU, 0x9157787d737d7183U, 0x826da6696c897a73U,
  0x687978637a767387U, 0x9d639d61926e9f73U, 0x6d7c897d6a736a86U, 0x79815b66697d7e63U,
  0x7f6665743f71646cU, 0x716d75776c427961U, 0x775773b87a8980a5U, 0x8d6e8d6d767b8c6dU,
  0x6e6e597f5f725270U, 0x7c9a70778a89678dU, 0x788767806a8c7664U, 0x5c787787839d7370U,
  0x7677768387707697U, 0x7b8b658065646f6aU, 0x76906c7471718d77U, 0xa57e7b5b678f7154U,
  0x7376877c77866595U, 0x9b8379756e9167cbU, 0x6a7475686b7c8776U, 0x7f9370696b75886fU,
  0x6d83936d7a835096U, 0x4f70756a7493816dU, 0x91897e557b547185U, 0xa48066726e6f8186U,
  0x62796b5f6361888eU, 0x7f936981728584a6U, 0x7c7277826aa05250U, 0x8d6b877978467576U,
  0x9c658b6f5f658c69U, 0x8344538f5c998362U, 0x668a82445f776b55U, 0x84967e788e689576U,
  0x856c73698d6c5f79U, 0x457a637980639f51U, 0x9a657a7680816d84U, 0x7351814d92866874U,
  0x795f7e5a81766d9bU, 0x73717c7e775f5083U, 0x4b6d7e83b06b834fU, 0x7356727b81a2686bU,
  0x5d567a777277817dU, 0x6a6b4d8968915481U, 0x768f70795b8a9c5aU, 0x47837d76519a5070U,
  0x6d816481539c7878U, 0x998991618567805aU, 0x876f718181506951U, 0x8b6f786e687a7c6fU,
  0x8075885f526d7085U, 0x80857767755c644bU, 0x8178767d6385797eU, 0x887c6d64887b8c8eU,
  0x748b667882788086U, 0x737b737b7a797966U, 0x8a6e857f847c7369U, 0x7c746c7684658078U,
  0x7f778397766f7d79U, 0x7896729871746470U, 0x637a787e878e5382U, 0x6b8a637270637262U,
  0x6e9f917c718b7d6eU, 0x66789667656f6574U, 0x767f7e7e7e968e84U, 0x837c7a8b61688c7eU,
  0x8464746f6a71696dU, 0x8d7c6a867a748657U, 0x74615f9284757d4cU, 0x706567835f66866aU,
  0x4b7d736555668865U, 0x757960856b727b91U, 0x968c679e649b7f8cU, 0x8c6782684c419468U,
  0x927a6276727f6f6bU, 0x77688c816b496969U, 0x67695c815c716a78U, 0x836a6d8977585b90U,
  0x554d7173735e4b74U, 0x6d7c697d7685718dU, 0x9170507d7a754f9bU, 0x5e6d9caf766e6d60U,
  0x81845c92797d9a88U, 0x736c8e82817f9787U, 0x6c716172686a806bU, 0x70927f7480675f7eU,
  0x61965e6c5f6c7186U, 0x89b7937a835c6574U, 0x6d5967597275778aU, 0x6a6c80836c696b96U,
  0x895b6f8f7c687168U, 0x6c5d93786a598958U, 0x615b846176939380U, 0x6c4b66738d727698U,
  0x7d5d5e7f616c8d7eU, 0x9b53716587a07575U, 0x708676576c7a7275U, 0x55815d648c818b6bU,
  0x8186987c64838789U, 0x5e6a6f6f9a5f6b76U, 0x789a87596c5d826cU, 0x938b828b99817977U,
  0x846e6e7a795b56d4U, 0x6c5c88676c68666fU, 0x707973638e7c697bU, 0x6798898776868953U,
  0x98786f7784695c53U, 0x6e717d72856f6e80U, 0x75867c8e816a765cU, 0x5e77826072758593U,
  0x62868f8c916e756fU, 0x6d76746767918260U, 0x76838e786e7f7875U, 0x707e7d73867a8781U,
  0x6e7f659889736364U, 0x83726b7f79706993U, 0x5f7888857a7e767aU, 0x837266807cb27e63U,
  0x6564947c71725778U, 0x6b5d81576d6f845dU, 0xa46a7795856a8769U, 0x7f787aa484766f68U,
  0x84707784726b7570U, 0x83846291af7c8081U, 0x74b07a7865908a83U, 0x624b688280825c83U,
  0x687e7977778e796eU, 0x7475747470586e77U, 0x77767e78688fa270U, 0x6294958d6f75b06dU,
  0x7f5d606a6e646c78U, 0x6966797da5808272U, 0x5b6469878b5a6f8dU, 0x5b60636c6c7d935bU,
  0x88797185af867a7aU, 0x74757a83767b9a76U, 0x8f6370755580746bU, 0x8c864a837a647860U,
  0x85598d7469566d86U, 0x6d88a28168736978U, 0x92865f8770516c7bU, 0x73825e5784767a57U,
  0x6f5e767b7f6d7e5bU, 0x628c549373706d69U, 0x7d5779707e9d6880U, 0x5c90676f5d737c96U,
  0x962e717f7a8f6c53U, 0x6c8b747964725486U, 0x7f696d7a63656576U, 0x687e95816a7d5570U,
  0x716f7c758c8b857aU, 0x7a5e817b66686f75U, 0x657a68607a7c7382U, 0x5a736667688277a0U,
  0x6e577069658c5974U, 0x556764636d704376U, 0x816a7e6b826b7169U, 0x797f6eae7cac6776U,
  0x8573876755827564U, 0x6056768d6f88376eU, 0x95768a60816f5965U, 0x667d6f8a6f7d6758U,
  0x7b7e869374797883U, 0x7877737f4f7a7360U, 0x747c7f78647d8c6aU, 0x7c4d717c846c767aU,
  0x776d6270726d8582U, 0x6a6263476f7f8180U, 0x77767579737d6378U, 0x7e7b8e997e636d8eU,
  0x7b69856979848478U, 0x677b6f8e63655d76U, 0x5d78765e8b7b7779U, 0x6e7e7b8e71766f7dU,
  0x7c71788a5a687278U, 0x686d7771657f685dU, 0x857c7c6d927d6381U, 0x65655b7b667c6f5cU,
  0x897f7b7479746a65U, 0x876176617c5e727eU, 0x7872747960a8929fU, 0x78938c74908b7964U,
  0x8179326b6c8f6198U, 0x99717432585f7387U, 0x8c9160616b766da0U, 0x84946eaa64868977U,
  0x686ea8966b7b7f59U, 0x78706b5568626876U, 0x638f936d7f6f8e2eU, 0x73848e8b839e4e89U,
  0x4e617286618e7c98U, 0x607d7a7f9582608dU, 0x789a665c81777c85U, 0x7670806692767481U,
  0x5f6a8d895b8f7670U, 0x7382a174655f817eU, 0x69788a88816b6c67U, 0x801864635e897f7fU,
  0x795958798b646b9bU, 0x756f6d734b7c8999U, 0x697d6e5f85836972U, 0x7c667b6f5e887441U,
  0x8671536186a16f72U, 0x5d756e797a7a4f7bU, 0xa1855a777273648bU, 0x8f7d73846e5d848aU,
  0xb568828a7a636b92U, 0x73748a896d6a856cU, 0x7c84807f867a6b68U, 0x7c757f5e78456a58U,
  0x719b5a6d748a827dU, 0x6852897171856272U, 0x6e7b66995d80687bU, 0x81816a666f7b6e7cU,
  0x735e80697164826eU, 0x5a7387787a545b4cU, 0x806b727f7c82967bU, 0x7b7b8c6e75688976U,
  0x8c6e65517d8a6b89U, 0x6f928d5570728857U, 0x8173798e76697060U, 0x9d69795f7b887587U,
  0x8761826d725f7c7bU, 0x7670756671835aa7U, 0x96828c8391688b7dU, 0x73956b8a817e837eU,
  0x717f89775392577fU, 0x8282666d7167629fU, 0x6a7a6c7a7b77827fU, 0x6970817e70835e77U,
  0x6353657a87624e7bU, 0x7c85776e7a786970U, 0x629a846d70898085U, 0x987b7492796f7056U,
  0x5f736c77736a8578U, 0x72885385748e8087U, 0x607f849262876c73U, 0x4074706b6f7c866cU,
  0x8d8651834da29580U, 0x7478776a795064a0U, 0x575547737a74a26dU, 0x72648b65606f727eU,
  0xa2848471807d9168U, 0x646a828b7e80868cU, 0x778a82786e7fa062U, 0x73827d58715d8d6dU,
  0xac93796f90905f78U, 0x78607b6c61707472U, 0x778c948d7d4a6c6fU, 0x726a73a86f7f7667U,
  0x6f8d7f6975917e77U, 0x588c6a88687b7576U, 0x6b5b6f7c7c936998U, 0x8587678475885e5dU,
  0x6a73807c7b779f70U, 0x7865869879584f8fU, 0x5d806d8671857d73U, 0x6e6e6c916f7bb46bU,
  0x9480667c3f6b8068U, 0x7d717e76586c547dU, 0x7679797974617058U, 0x7e6d65778f7f5e7bU,
  0x838d7c54776e6695U, 0x9847827671686f80U, 0x854599865584787cU, 0x406b606d71767985U,
  0x7a6b856980672f78U, 0x72858f6258766d5dU, 0x8a8377835d8b5e9bU, 0x6e79777a64cb757cU,
  0x61737c5e7d696e64U, 0x6b6d877073717c68U, 0x6c7d757e8f8a7c80U, 0x69936b828a9c756fU,
  0x8164427e876a7d71U, 0x756a6d596f5e8a67U, 0x8e4d69867b749871U, 0x7c60698a739a736fU,
  0x5c796f65707d739bU, 0x667a857b83866387U, 0x6e52816d6175626dU, 0x896a715e765a7f84U,
  0x7a746e9a668a6f7aU, 0x726b6d6f8b768191U, 0x60a367777d50667aU, 0x667b87836b6c7366U,
  0x979f837a618b8476U, 0x57976d795b6f768fU, 0x63767b6464895b60U, 0x76755b9075655c6dU,
  0x6c726c80778b6963U, 0x73667d738d876a73U, 0x5f6f4d788653788bU, 0x878085634c763f6eU,
  0x726d856e9268747bU, 0x5a627f5d6570465fU, 0x6b80786d6d5e696eU, 0x797f77667b867b8dU,
  0x939c798e6f7a5667U, 0x4e7b988056855655U, 0x896b789263857b3aU, 0x7c448c7f79968a6fU,
  0x858a7d6a905e997fU, 0x5b8a72647b82b066U, 0x7c6c61626a5d897dU, 0x667d7f856b6f7472U,
  0x5d82858c6e66666aU, 0x7e8760536675458cU, 0x729983786760659bU, 0x536e6c6d855e6080U,
  0x7c6e607491b27d75U, 0x647dae673760777eU, 0x7f7096847a785b64U, 0x64507486698a8371U,
  0x916e738573516683U, 0x48875ca74f6f708dU, 0x84536669727c6c65U, 0x93697e7a79917289U,
  0x797a6b8c665d8a88U, 0x88728c7b6e618a79U, 0x6e7376737f967070U, 0x5f767096718b776aU,
  0x7c827a976d829174U, 0x846052916946656eU, 0x807f728f895a5989U, 0xb9667076837c606dU,
  0x865d61837cb36885U, 0x647d805eaa768371U, 0x836b886f66636179U, 0x6976746a64886972U,
  0x7b825f83946a7f76U, 0x5892877e7e8f7684U, 0x957a429e6e7b798dU, 0x707a86738d778375U,
  0x785d726399885f77U, 0x5577916c76617267U, 0x7171845a8a737d7dU, 0x8683757679657265U,
  0x7f7273576686717bU, 0x6f72817964818573U, 0x866a75717757676fU, 0x727d82767a797166U,
