
/**
  ******************************************************************************
  * @file    network_data.c
  * @author  AST Embedded Analytics Research Platform
  * @date    Thu Aug  4 12:19:42 2022
  * @brief   AI Tool Automatic Code Generator for Embedded NN computing
  ******************************************************************************
  * @attention
  *
  * Copyright (c) 2021 STMicroelectronics.
  * All rights reserved.
  *
  * This software is licensed under terms that can be found in the LICENSE file
  * in the root directory of this software component.
  * If no LICENSE file comes with this software, it is provided AS-IS.
  ******************************************************************************
  */
#include "network_data.h"
#include "ai_platform_interface.h"

AI_API_DECLARE_BEGIN

AI_ALIGNED(32)
const ai_u64 s_network_network_weights_array_u64[ 51597 ] = {
  0x330ce382c402e7faU, 0x12e481b1fde9f407U, 0xfef7eafc02f80220U, 0x411fed85c7ffee02U,
  0x23eb81b400fefc07U, 0xfbf4ebfff9ff063cU, 0x41b000fd0001fd07U, 0xc40e11dd384e811bU,
  0x80fe642338e2024U, 0x27bf180ddcf2f619U, 0x1dU, 0x0U,
  0x0U, 0xd9eedfec00000000U, 0xedc2ddf1cfe6ebc1U, 0xf8f7efc0d5df81b6U,
  0x63f8ecf4f0e9ebf6U, 0xd9f431cae350c0ddU, 0xef3da8dd779fdc7fU, 0xf9e4fe1acf0626d1U,
  0x8ffU, 0x0U, 0x0U, 0x0U,
  0x0U, 0x0U, 0x0U, 0x0U,
  0x0U, 0x0U, 0x0U, 0x0U,
  0x0U, 0x0U, 0x0U, 0x0U,
  0x0U, 0x5f6b1c3c1818600U, 0xfaeae8b1918a1ffaU, 0xe70219d4fa1c1f16U,
  0xd000612U, 0x0U, 0x0U, 0x0U,
  0x0U, 0x0U, 0x0U, 0x319f312fa62b0000U,
  0x813c478d2f1ad512U, 0x92ad6021cc81c44U, 0x8f4105fff50b18deU, 0xcf0afd1bf8da25fbU,
  0x8d02703ebe905bfU, 0xa64307dbdc09ce81U, 0xcdfc00010c86U, 0xc00000000002ef7fU,
  0x1be450001fadeU, 0xbfffff80c0000000U, 0x40000000bfffff80U, 0xfffef424c0000000U,
  0xc0000040c0000000U, 0xffff2c0a0000d653U, 0xc6ee1e02f38101ffU, 0x49f7db81d5c34031U,
  0xdfc8f981149e00feU, 0x61f804867f81d95fU, 0xf2f00005090001ffU, 0x290242165bac0572U,
  0xfed67f03140f02fbU, 0x7381d999dacd5431U, 0xe78144577f0cd67fU, 0x7fb7011017dfde41U,
  0xfabaed0317138112U, 0x2c0f32cad0b0ef60U, 0xfceb5cfb03570001U, 0x2ca77feaef007f6bU,
  0xbcd33d0c602bff00U, 0x34b90e29eff6ff72U, 0x81eafbfa1c27fe01U, 0x30e2c02e7f9bd7fU,
  0x9df3ffffff9aU, 0x6700004bceU, 0xffffbff500004354U, 0xffffffbb00000551U,
  0xfffff03e00000002U, 0x2a5ffffffd0U, 0xfffffc0bffffffa8U, 0xaa4500015807U,
  0xff0002ff00U, 0x127f0000fe000000U, 0x810a00f9f306U, 0xd804000034000000U,
  0xffff000081c7U, 0xffd000008000000U, 0x37ff7fd82aU, 0xe50b0000d2000000U,
  0x1ff00fea081U, 0xf4050000f9000000U, 0x104400081d02dU, 0xe6ff0000cf000000U,
  0xff7f0e00fff906U, 0x401000030000000U, 0xfe7f00fe10eeU, 0xc000000f4000000U,
  0x52b7ffffb72dU, 0xffff9a3d0000543eU, 0x3cff00007b3aU, 0xffffb4e1ffffbb28U,
  0x0U, 0x813701aa034819caU, 0xfd10fc81fc9005fcU, 0xfefdfd81f586f900U,
  0x9feefdb1f7467f44U, 0xed5b812e69c4e7U, 0x7f3026d7402029f7U, 0xaf981f38704feU,
  0x7fc3f82bfbdb30cbU, 0x2e40b7f0c6fed03U, 0x7f0952e642180702U, 0x30d0300fa00f87fU,
  0x811d2db72c411813U, 0x9231267047f1803U, 0x7f143ae3351913ffU, 0x33efcd8f81d5cb04U,
  0x0U, 0xd720538124d82505U, 0x7ff3fd1e0cecf40dU, 0xd8ee4da37f54f3fdU,
  0x902fdefbf130481U, 0x7fddc93ec58ddcefU, 0x681f40208fa7619U, 0x81089a13c0f5fe01U,
  0x71cfe97fe082effdU, 0x0U, 0xceb47f812f645845U, 0xf0107f0c65fa02U,
  0x204b43ab7f51d4ceU, 0xfff5020000000b81U, 0x81deca19dce9e6ffU, 0xfc14f1820681f2f0U,
  0x0U, 0xcafc7fbe332e07faU, 0x8c7f8cd6bd3672f3U, 0x81eeb412caf0e7ffU,
  0x204037f067e0501U, 0xfdfc0784f481f902U, 0xfd047f097c0101U, 0x7ff2c645b28207feU,
  0x81221d9f386a19f5U, 0xff7bf00311fe81ddU, 0xd40055d754157f9eU, 0xfc057f0182fcfb02U,
  0x31f49ffe7f06f3fdU, 0x7fd8c85cecaddc04U, 0x47f0e7e0003U, 0x7f28dc1c01eecee1U,
  0xffffe91cbfffff80U, 0x7000000a75U, 0xfffff8a6ffffec0fU, 0x600000026eU,
  0x7f7ffffee67U, 0x18bc000001dbU, 0xfffff72c00003946U, 0xfffff357000002dbU,
  0xfffff1a240000000U, 0x23c4fffff91dU, 0x22ae00000767U, 0x12e00001ff2U,
  0x40000000000033aeU, 0xef4ffffe4f7U, 0x1d410000283cU, 0xd51000009dbU,
  0xfffff2813fffffc0U, 0x112fffffc3fU, 0xbbbffffff3fU, 0x1cf6ffffff39U,
  0xee00000288cU, 0xbc0fffff436U, 0x2097ffffef1cU, 0xfffff2270000064aU,
  0xd9b09b049e05e1fdU, 0x8ffa71f6d01d12e8U, 0x2a8f9bf8c3d73326U, 0xcb32812181ee190aU,
  0xbaa261a4d93b7f05U, 0xed324b56e2c3a2aaU, 0xcc815c208b670c44U, 0x90bf76594a2e0605U,
  0x6b37e42b81bf3d2bU, 0xef631351449d2b64U, 0xcd8272a3810a3775U, 0x439a77fd56afa5fU,
  0x94b76241f6f01921U, 0x30005b57016fa20U, 0x207f7fbb15ce272dU, 0x12a6913f9b2ec8aU,
  0x7ffafed5de36ffa0U, 0xafe0f28087d6bfeU, 0xb93a8be19cfefa1eU, 0x81387fe1fd1158ceU,
  0xcab6b8bee41c3037U, 0x7f17ecbd76021e06U, 0xca98719501c931d0U, 0xde0a70a4afc42e98U,
  0xcd697f3781817f4fU, 0x857f7c7f06fa817fU, 0x8113e53883683f52U, 0x1d022381bb02637fU,
  0xd6817f81fb81fe6aU, 0x7f4481065b75477fU, 0x812d7801f3136437U, 0x434ff9d100d1559U,
  0xcf0f697f07f3277fU, 0xfc0b0fc908fe3385U, 0x59f203cc0611c781U, 0x3af508be46523be4U,
  0xf8fcde1fe9fc1ef7U, 0xe6f112f727cd96daU, 0x1b1c043d5430ea28U, 0xb5c7111b051404f1U,
  0xfce21ae21caddce4U, 0xf5c5143bb4d0f5e9U, 0xed1bd37ff01c5f15U, 0xe2b01022c6817d76U,
  0x370ef1b96c7f8166U, 0xf4810b40047f7f1fU, 0xf5ef1ec443a9941dU, 0x7781e0fe7da9d124U,
  0xe5f5a24bfdfa567fU, 0x5f4f0e881d5ec54U, 0x18db08cc24feb660U, 0x3bace1bfc4e64ebU,
  0x11fbf8ff1e059cb6U, 0x440c14db7f8181f4U, 0xffffecccfffffd47U, 0x58d4ffffff48U,
  0xc4fffff34bU, 0x39979000152d8U, 0x4effffd275U, 0x126900000ce3U,
  0xc3200000364U, 0x477000000502U, 0x20ffffcda0U, 0x10e61ffffd204U,
  0x2d7fffff301U, 0x468f00000a4bU, 0xfffff792000008e9U, 0x1ab00001b56U,
  0x10e500000378U, 0xfffffff400000e97U, 0x29510000aafcU, 0x18310000c084U,
  0xffff42ef00011988U, 0xfffffd820000643eU, 0x5fe00000506U, 0xffffe0df00000743U,
  0x5f6fffffee49U, 0xffffd365fffffff8U, 0x14f1fa0ffd060200U, 0xfdfef4b7db110731U,
  0xfb73f614d9ff0a00U, 0x5ed30fe03e30023U, 0x50dfa030ffaff1aU, 0xe90182e75d278188U,
  0x8f0fbff1695ff00U, 0x2fe7dd000105a5feU, 0xeafb1803f6f4db00U, 0x81fd0326860300f7U,
  0xfd22f4020604092eU, 0x1b1fcf3fa000706U, 0xfbe312170201e900U, 0x40904ff643c03e3U,
  0xfc0f16d4aff41100U, 0xc281f002d00007U, 0xeffe010131d9feafU, 0xe50010d30df1d60aU,
  0x634d50afdfae200U, 0xfef4f5fa40aaf9f5U, 0xd1fd0e57f2ae500U, 0xf95cb115f9e90002U,
  0x200302feb942dabcU, 0xf2f9e92d18fdd3faU, 0xc0ef120898cc0c00U, 0xcadf7beb01fad802U,
  0xd4061504081b4a00U, 0xc4230649cff700f6U, 0xf2a37f89f4d2ffd2U, 0xeb1cde06010a01U,
  0xf01fae8fb09fa00U, 0xf9f4f7cc25f409d8U, 0xfb8ff2f803fe0000U, 0xa09ea07071d0008U,
  0x809fb02f90a12adU, 0x1c048d11a5d97f89U, 0xdc2fdfd0e20ff00U, 0x19cee0e07f81ffcU,
  0xb600060517fdfd00U, 0x2d01fc7f23f700fcU, 0xfc09e81a01fb0af6U, 0xfd1600d7fd01fc03U,
  0xf6021f0304f80d00U, 0x3f7fdb1f301f9f7U, 0xfcf1810504030100U, 0xf5fe0f07f7030063U,
  0x58fe0000010ced0dU, 0xf926fff6091137U, 0x4a4000061adU, 0xffffaef300006f97U,
  0x951e0000a574U, 0xffffe05b00000d7aU, 0x13fb7ff7afe30691U, 0xe9870a0ecf578100U,
  0x0U, 0xe31592ddf0030681U, 0xf281dfc45acbe5dfU, 0xffa7ff7e40a0788U,
  0xf007fcdc7f92f2d9U, 0xefd7ff3f90e0899U, 0x137fff30cc2c5317U, 0xf601110f517ff0f4U,
  0xef73c00a68102d7U, 0x7ffe0af0120af21fU, 0xf037f13172d0c8bU, 0x7ffde5040c14ecf4U,
  0xe33c8b98e1fec481U, 0x157f0ef93cd11f04U, 0x7e5011206027f02U, 0x7f0ca6e00c1efdb0U,
  0xfc81fcc7a82ae30eU, 0xf38101b4a7368201U, 0x1d89f2088150e410U, 0xb4ea1c7ff808a10bU,
  0x24d7728119dfdb66U, 0xd10492e0f4f44581U, 0xc7f0427fefe3609U, 0x8110f5d7ec0c07ebU,
  0xea159cd67f630366U, 0x4af971f50b0a0a7fU, 0x7f02e8041209f1f1U, 0x3f7ff326925d6d18U,
  0xf3a0f2d98123dd19U, 0xf00106045a7f00feU, 0xb7f022e0afa3401U, 0x81fc42edfeec0e49U,
  0x81fd2bfcfcef0e21U, 0x687fe2099c3c21fcU, 0xef1dd0eaa813822U, 0xfa7f03465ecd20efU,
  0x8fd7f02e4120288U, 0x810802f4e6f518f3U, 0x48ee6bfc0efa2b7fU, 0x0U,
  0x815c1d1ca31d3428U, 0xef634fca281fcd3U, 0x7f0411eb0ff5f01eU, 0x8b3fb81a93a0df9U,
  0xf0bf33cef0b81f0U, 0x7f22bcca0a35d8c7U, 0xdde00001d94U, 0x1bb40000000U,
  0xa9e000031e0U, 0x2575fffffde0U, 0x14600000b4eU, 0x70000b725U,
  0xae200006c7dU, 0x1904fffffecfU, 0xaefffffd74U, 0x38ddfffffbb6U,
  0x9f100001833U, 0xfffffce9000004cfU, 0x3700001374U, 0xffffff2600001702U,
  0x37040000005cU, 0x3ed000021e1U, 0x23d00001640U, 0x1cfd000000aaU,
  0x4e700000d0aU, 0x58000022d3U, 0xc00000000000001fU, 0x2d700001a5eU,
  0x211000001b5U, 0x1ce000006f5U, 0xeff909007fb2c6U, 0xe401064ef5d0e301U,
  0x413f97fef10fef9U, 0xe4d0020001f7f800U, 0xf7040507060503e8U, 0xeaaf8df7d60c03faU,
  0xea2e9724bd5c8190U, 0x4dc9f57ffd7f1efbU, 0x101ecefac810c04U, 0xc881efbf07d6fd1aU,
  0xfb5d8107d8f8e518U, 0x50b6e01a2d4d9cfU, 0x2ced2efe006be1f9U, 0xcf01f41a00a8feffU,
  0x14fab9e31bf501U, 0x17f003f9003702fdU, 0x8d4031a0d00f800U, 0xf7000307b0158e02U,
  0xfff32ceffd0d2f4eU, 0x39e5abbd73b196e4U, 0xea7deca57f04d312U, 0x476b22d300167f0eU,
  0xabd40a240f07df88U, 0xd3817f811aebf509U, 0x817f7f817f307e7fU, 0x817f7f9281fb7f7fU,
  0x81a27ff411a47f81U, 0x7f9b817f8181cc7fU, 0x7f86777fec7fd47fU, 0xde7199727fe49f7fU,
  0x68e28406f93e1a0eU, 0x42e9fff70c3fe8a0U, 0xf3f4d86e64f2a710U, 0xc04800e1137fdffcU,
  0xf27ffd3eeed17f03U, 0x7fe9edf3853081f5U, 0xfbed0a07000316feU, 0xefe50f609f2c705U,
  0xff81fe0c2308f9f1U, 0xfdf1e4f106f907fdU, 0xdbf5fffbcb05eeebU, 0xecfc0edf0c05c705U,
  0xc0e31825c9e204d6U, 0xecc18f0fe6fe49f3U, 0xf978c501ae231835U, 0x2f4675b1fdc60615U,
  0x24e3043e7f0cef13U, 0xd5d4f910f67f85b9U, 0x3de6f0fbfe0f0912U, 0x7010af2ff03fa06U,
  0x20500f4060eebf6U, 0xf2f206f3043de7faU, 0x206fdf806f21701U, 0x2015fe0baaba9404U,
  0xffffff76fffffb15U, 0xfffffff3ffffd4b4U, 0x2dd00003404U, 0x4fe000003deU,
  0xfffffc5600000015U, 0x2ec00003ad7U, 0x16dffffed48U, 0xe100004effU,
  0xffffff3d00002569U, 0xffffd8d000008ae1U, 0x35d3000095faU, 0x1281fffff80aU,
  0x2a9cffffca0aU, 0x771afffff25eU, 0x38e0000678fU, 0xf48000008dbbU,
  0x60c4fffffcdfU, 0x3b37fffffd42U, 0xffffffd1ffff705dU, 0xfffffd36000007c1U,
  0xffffff1ffffffcdeU, 0x15300003d76U, 0xfffffe30000005abU, 0x4f3f00003c9fU,
  0xe9fa87f6a700f5f5U, 0xfc5100f92729fc12U, 0x5918cc090efcd1fcU, 0x7ea01e226cfaffdU,
  0xde7ffee619c11b01U, 0xcce305cbdaf80044U, 0x3af6f309cc000a05U, 0xca0fcd0d1b0612c4U,
  0xf7f7ac2611021781U, 0xfbf8f4ebce1906eaU, 0x1dcef00b2f110dc9U, 0x7e4fb0dcc00d5U,
  0xce209010b000202U, 0xf0b061e35700f04U, 0xfc0af5f20bf506fdU, 0x7faa0a1bf9f8da11U,
  0xdfc03523af63405U, 0xc10704c89c3300f7U, 0x1726f5ffdf000bebU, 0xed04fe04c37111efU,
  0x10fe050de615fef2U, 0x507ff0eafe0150f7U, 0xfb0ef945a713adf4U, 0x5cebfb4db6c60014U,
  0x39f2efdcdb00f1e9U, 0xcd51cff01b0321d0U, 0x5e23b5d17171b37U, 0x10fedd23a631f8cfU,
  0x28f3d101633419c8U, 0xf703da0efc8100feU, 0xe3f77ff1b200fd1fU, 0xf83cfd0501f8df0aU,
  0x520eb8240511ce1fU, 0xe9fcf7d23005c3edU, 0xd890f5141bb703fbU, 0xe3d9ffe21fd3003cU,
  0xfcd80ac52300c9cbU, 0x8cf18cbfa210607U, 0xf919d8d33529fb06U, 0x2f0d5e219fb0381U,
  0xf711c70304f7fdd4U, 0x2fd03fbf5390008U, 0x2bf10b05f500fce0U, 0xc2229dd39d92810U,
  0x122949a310052ee5U, 0xeaeb32a430fdecU, 0x4600fdf7c7562b00U, 0xf4361d09077f0027U,
  0x5c37fffffd7aU, 0xffffaa8affffb376U, 0x3d5ffffc28cU, 0x5cb000006efU,
  0xf504c6095d7fed3bU, 0xfc010a0ef9ff8107U, 0xfb097ffb1d971394U, 0xf8022001657ff2e4U,
  0xf00f810e4a28e77aU, 0x98e530777fab250dU, 0xbc607fae799624ffU, 0x4999985881329afaU,
  0x4216f5a17fb8dce4U, 0x6fceb01a1810312U, 0x27f1037fcf232ffU, 0x55e2ab7fd308cfcfU,
  0x10f77ff7d8e6fd83U, 0x7fd0706f110d2372U, 0xff97d02f2150381U, 0x5f1ce381fb068cf4U,
  0x6401b17f09f56cbeU, 0x43f5c47fdefb9aceU, 0x1aefe30f7f8ed7c3U, 0xb7fd388123ef4835U,
  0xc2ee0c5981422b1dU, 0xf3050cf87f1008efU, 0xfe97806ccecf981U, 0x1acdeafb8178050bU,
  0xf304810318cced7eU, 0xc81a81d9f71ddd99U, 0x13e8e02e8159fa43U, 0x1381dedd050716eaU,
  0xbc7f47d576c13527U, 0x22c5eb197fa8c5c0U, 0x2bfdf61b81280103U, 0xbfe7ff3d6dd118cU,
  0xfd1e7ff6bd45209aU, 0x12f37ff4c6df0e8dU, 0xf80f8106853fee75U, 0x762fd481824ed8f9U,
  0xf61ad2fe017f082fU, 0xb67f2fbdc72c4d46U, 0xfeb5f21e7fc2dde7U, 0xb5ee3881f2fadb42U,
  0xf203cefd59810430U, 0x914fbc27ffef3U, 0xf881fab60412d405U, 0x4807c17fed1095ceU,
  0x60535f3812a0bd5U, 0xba7f68b855d4480bU, 0x2002d95cec0681e5U, 0xf90e9524ef061381U,
  0x79f0000011aU, 0xd000001e5U, 0x8200001096U, 0xf2700006e5eU,
  0x2d0000006eU, 0x1198fffffea6U, 0x17a00000dbfU, 0x36300000096U,
  0x66e00000145U, 0x40e000001433U, 0x44a0000003eU, 0x2fec000015e1U,
  0x31000000c2U, 0x56f00000968U, 0xcf1fffffb95U, 0xf5200000d9bU,
  0xd7c00000124U, 0xac000000cdU, 0xfffffa9b000000e4U, 0x12300000182U,
  0x2f3U, 0xbf200000347U, 0x5353ffffffecU, 0x13700001076U,
  0xcfc0438ccfc93f59U, 0xb222341757bc3b2dU, 0x8d58ea1e16ae33c2U, 0x1ba5d22f3278c741U,
  0x38bf40d9383e79c8U, 0x39be22c958b145ddU, 0x8a7f427ab4ae5a79U, 0xa64c4d7f6caa5c4fU,
  0x8118d349b2f65fabU, 0x9620814f4f2aab53U, 0x549b51c54e5c55acU, 0x4ea4b5b1e19d5fb5U,
  0xf80f0a76d8da2631U, 0xde2f215933d63429U, 0xbdb1da323d4745d3U, 0xfa6c9f362181e623U,
  0x20d01be31f2be5d2U, 0x1cd9bfddd0d228d1U, 0x7f674c7c9fb0595bU, 0xb94758aa13a46250U,
  0xfc12c64c3081469dU, 0x7f81204f56f1995fU, 0x559956ba546168a9U, 0x59a85daa7f9c5bb9U,
  0xd6827f7f81817f7fU, 0x817f7f95f3817f7fU, 0x177f817f81127f81U, 0x960c1c7f7f13817fU,
  0x7f817f817f7fa681U, 0x7f817f81c3817f81U, 0xbeef39cac5b73745U, 0xc045323cdfc4423bU,
  0xd12b63b617c5fb4U, 0x957e053e3624d03bU, 0x35d441c3353d81a9U, 0x31ce01c4b2c83cbeU,
  0x21d9117bc5d9281cU, 0xe82d2f1099d43c29U, 0x58b7da381eb327c7U, 0x46c541382383b930U,
  0x29c521d02228f6ceU, 0x26e1b6d83fc71ed5U, 0x372741c5bab43a32U, 0xc13b40b681bf4337U,
  0x7b0bb63cb52039b3U, 0x37f4643a2f27b042U, 0x40cc3db4393e8cb1U, 0x3bd020bde0ae38beU,
  0xefff369de5d91822U, 0xd71a14efafdf1b15U, 0x3b3bdb0e2c402cd9U, 0xda4337071048e91fU,
  0x1cfb27db1e20f9d9U, 0x18ee38dcd0e121e6U, 0xfffffb1c000060e6U, 0x10588000053ccU,
  0x5d4ffff7dedU, 0x6c4fffff125U, 0x35000000271U, 0xff0000285baU,
  0x406fffffb8eU, 0x8e2a00000258U, 0x4c40000bf06U, 0xffffee09fffffbc9U,
  0x14465000007feU, 0x387ffffd633U, 0x91c100000484U, 0xe4efffffc2fU,
  0xffffff7300000f9bU, 0xd1affffec48U, 0x7df000057c5U, 0x2580000050dU,
  0x2eab0000e023U, 0xf960000d69bU, 0x10dd0000f06cU, 0x20200009484U,
  0xffffca490000be8fU, 0x28f00026f7cU, 0xfd05c304fdfd7f08U, 0xd305f9f8f5fc072dU,
  0xf4fd08d10bfb2115U, 0xff02f217f80fecfcU, 0x100914ff3b0bfbfdU, 0xee1efc0315020500U,
  0xdae3060e1be3b707U, 0x1b1781d9affd00f9U, 0x9ed30c52b4c56f1U, 0x259dde9000a2b98U,
  0x28c8dbd0d41b101fU, 0x84c4e23856fa2120U, 0xfdfef300e90cf313U, 0x2dff904f6f681f0U,
  0xfc0501fc060006ffU, 0xe02f3fbeffe0058U, 0x11e8200b1d04e6U, 0xf9f201aa0409a8ddU,
  0xfeffd6030c052ef2U, 0x90516f9faed0381U, 0x7fd1b5103fd10fdU, 0xff09faf7d3fa01f1U,
  0xed15fbf63b1e0503U, 0xfbe7ff0504120b19U, 0xb04fc0bfafeefe3U, 0xfdfcc2ffda2bee0bU,
  0xc605cadb14401afdU, 0x182cf31538191351U, 0xdc2502f5167f1213U, 0xbad603591716c6f5U,
  0x802fdf2f031f5eeU, 0x181f20805fffc09U, 0x13080820fd040205U, 0x30a0a00f706082aU,
  0x1f705e6eef3eb12U, 0xf5f2080dfbff1de6U, 0x7fc40fbfc037f0dU, 0x14060409090017e6U,
  0x306f81f0c044502U, 0xb030e021ef60409U, 0xedfa070595e9fe06U, 0x10e9070f09f3fbfbU,
  0x5030b04810806d8U, 0xf7f703f70a08b2efU, 0x5fcc413fc0502ffU, 0xf400110a110305fcU,
  0xf6f713f013fb0305U, 0x2fe0322f9002543U, 0xf9eb81c8a002e752U, 0x24f02352c2122c3eU,
  0xc857043c0efc11fcU, 0x58ffe6ac14f7ff40U, 0x102209d2a7cbbef0U, 0x1e09f0ec0ffbea1cU,
  0xfffbee3181a0183U, 0x1f3a61a0cefd313U, 0xe12e1a58105a2105U, 0x332b3ee0f1213048U,
  0xe9a05137fa9edfb7U, 0xad0a208116f9202bU, 0x709f1f023c103fcU, 0x13b132b1f04db43U,
  0x102a3f25edfdcff7U, 0x26ea25dcd30ef4c6U, 0xf9ad3cebe47feb26U, 0x1c0d0d5ce400d628U,
  0xf5f901fefc0401f3U, 0xfbf7fef1e4fe35U, 0xf504fcddf90dee00U, 0xfef881fef606U,
  0xc6d80a05e7ebfe01U, 0x6d4f708fe40fd04U, 0xe5f2faf401013ed2U, 0xfeeb1af7e270ec19U,
  0xecfc12f3d90b811eU, 0xfcf5f4b51ef7fdefU, 0xd6e8d905e805f203U, 0x29a8eaf7cf2cfb19U,
  0x352902e41ff003ecU, 0xfc0c01130806e726U, 0x131fb32208e11e02U, 0x180cec5a3110febbU,
  0x27fba2ed730dc0cU, 0xe1e7291bf50707dfU, 0xefec1cedeb09e9a1U, 0x38e82ee9ebbebdc6U,
  0xcaeb04e81de162e4U, 0xf4d0f6cf2bc8f1fbU, 0x7f2b0c098d07f11bU, 0x336bef3927aecc1dU,
  0xfafdd2fc0c0ddce5U, 0xe7e17ff7d112e361U, 0xebfc09d4200834a7U, 0x40edbec3b08d8f6U,
  0xc6fbe40247fbf1faU, 0x7ee8edef1d0809fbU, 0x378dffffbc9eU, 0xfffff148000061dbU,
  0x2061ffff9d85U, 0x6536ffffbc24U, 0xaada0000240bU, 0x7c29ffffd2a1U,
  0xffff67de00000102U, 0xffffffaf000014f5U, 0xdc0cb5291d1817fbU, 0x2ef150ae87fe4f0U,
  0x1f01150efb81fcecU, 0xe0e3e1d414d1b552U, 0x1f18e17fb7c19aecU, 0xe4ff051109e13bc6U,
  0x3e407fc34f1edf1U, 0x80507c77f04f1ffU, 0xf6e8121cdd1305aaU, 0x7ff627b7153e3257U,
  0xb3b934977f111a25U, 0x180ea4c9a8650307U, 0x13bbc14a7f820f00U, 0xd4421d280c74ce0fU,
  0x2fe37fcd07a81a1cU, 0x3f593e3a1de94886U, 0x140f7f4dfe40ef28U, 0x1ef6d000e953c8cbU,
  0xf4f41c823e212406U, 0x881e7cb853fe100U, 0xfabeedc77f4ee208U, 0xf5f40cffde82472cU,
  0xf96cf9d00e11f45dU, 0x7a7fede3e9fbe406U, 0x3904c881e1253515U, 0x5e21a0bfd0ee7feU,
  0xf8ac081df30653a4U, 0x81ed090202f31e15U, 0x4d007f68fda4061fU, 0x75811091027ced2U,
  0x1d1be77fc1b4b914U, 0xf0330f1531b51b01U, 0xf481fa11e1fa27c4U, 0xebed233908fceb0eU,
  0xe7ec3ae3e5060325U, 0xed225ef227282f7fU, 0xfc810701fbede2dcU, 0xcc240aff21fffd08U,
  0xc4923fe22f2e97fU, 0xb704f74b04fbfedaU, 0xfa810028f70905d2U, 0xcf32f7f33cf52bf7U,
  0x192ef32081f9e2e2U, 0x291745e40be706c2U, 0x14c930fd66f950feU, 0x7fa1e6cdd31338e7U,
  0x1c0f8119e8ebf4ebU, 0xfbf80dfc0c2b1609U, 0xf345f2f00a0a187fU, 0xe511033706f1e60fU,
  0x520581cd010111efU, 0x3fc2a1c1c002d04U, 0x9508b9feff8111f2U, 0x5e1140d08ea070eU,
  0xe61a2b94d172dffaU, 0x1dcfeff6ec812a0fU, 0x3e80d05f3e82b2aU, 0x1b2e0881fcec1807U,
  0xf6fbd3938b3de513U, 0xe745254259812b15U, 0xeffa1c9ee9f3b6ebU, 0x9e7ffd65d923c00cU,
  0xead2de154cf16f4U, 0xf40d8108ea18de2fU, 0x158f8e63205040bU, 0x7f7bfad83500de13U,
  0xf9811611e2fd24e0U, 0x99010fff1fe3fd2dU, 0x2d0e1d774cbdf51dU, 0x48b179b28153f7afU,
  0x29181881c10001U, 0xf5f35dd22bbfa5fdU, 0xf57ff6f40e4be232U, 0xbf24e452a7f2f8fbU,
  0x1e335b5625619faU, 0xcc612f7f549f0ac6U, 0xe7cd1198bc0d463dU, 0x30ba06268129d2eeU,
  0x16a1ef75c7cae637U, 0x9abd047fb8e84aedU, 0x13cab1431740e958U, 0xd14d4a81effb52d9U,
  0x561581adda5818faU, 0xfa011f22052f1bf4U, 0x6a1412e70b7f0d04U, 0xf8071301eaee0822U,
  0xe019f37fba16fef7U, 0x3cfe10e441cf38e0U, 0x810d39490ee9edfbU, 0x611e7fbfaf5f8ebU,
  0x67febd7c04f0ecbU, 0x20c80df536f3c2U, 0xce38048188683917U, 0xf6cb25f3091ea3f1U,
  0x81021e060ff8f308U, 0x1807fd0df4fc0eccU, 0x81fd03a20113e2U, 0xefe8f4e4a4061513U,
  0xf31d9421f8c7f2d3U, 0xc294d5a9ecf4b87fU, 0x7ef807f80b7f0610U, 0x2d0a1014e51027eaU,
  0xec7f20f85724e737U, 0xce2102481e06f9f4U, 0xd01081edfc0ff6f2U, 0xffd311fee9ed2a09U,
  0xbacdd17eaf8f57fU, 0x1da7f1f300110b02U, 0xeeeef9ec01eeeb81U, 0x350308bdee19f101U,
  0xdeb2bbd7f050cc9U, 0xe1b3edcba85afb24U, 0xddf000ff3a09ec3dU, 0x3eab1b057f1ff0e3U,
  0x7ff6e1d2f0430efeU, 0xf809160608f4001eU, 0x1e020608ff81f9fdU, 0xdcd8e2d70cbcc15fU,
  0xe8a9eb02ebdfe54dU, 0x15f1e381d80cf527U, 0x1c4c7201f0c01a7U, 0x7ffeceb605fcf6c9U,
  0xf9e5f3f97f2213fbU, 0x44e3d2e7370b1b0aU, 0xee1e0b2c39107fdaU, 0x763a1bda24d2121aU,
  0xf19ae4ca3a28ef75U, 0x263ba79f0f9e47fU, 0xacf9810b2081e8edU, 0xf53123311be661e0U,
  0xc310c1d8f07f0ff3U, 0xf6d7f5f3e61e050fU, 0xb7f0bfc3f1fe73cU, 0xd83f116e3504e7c2U,
  0x26270707c789e42cU, 0x7facece1c41fdff2U, 0xfd3bf7f92f080df0U, 0x7f19f5b637ff0105U,
  0xf9112dffeefaf80aU, 0x8035d1c1322307fU, 0x1ed7087f44c1c102U, 0x1302d106bfff54f9U,
  0x46027f2b21310405U, 0x120ee600f6ead30eU, 0xff18e21e2dfeddeeU, 0x7ff9dc9066f3e50aU,
  0xe52a13b5811f3410U, 0xdd34be908f3a103U, 0x2c5cf6668981b811U, 0x36f747f30298fdfdU,
  0x1281f1e5310f0966U, 0x55dfdc25d000e4e0U, 0x2a270f499281e8fdU, 0x1c90b2bdc22b1c16U,
  0x7ff9d1d300190b04U, 0xf4fe150c070aff11U, 0xe88104f9ff1c02cfU, 0xd0511ade73e81b05U,
  0x1eed2bd67f04d6daU, 0x27bff7f9a2112fdcU, 0xcfd646fdc4f8f376U, 0xbc97f207126407dU,
  0x622eef67f0014b1U, 0xc706ebf2d5d4fae8U, 0x29b31b386dd3a619U, 0x7fd8a6da8e4d61eeU,
  0x1d60dfb20ff06f5U, 0xecfd0ad47f0bf508U, 0xaeef248fdd61c1dU, 0xe951261e317fc0ecU,
  0x27f18183f3db3b06U, 0xf5f9412319f13eeeU, 0xff81d4ebefed3366U, 0xed1d86034ac0aa8bU,
  0xf47ff5e82d19141eU, 0xe3f4062ae704fcedU, 0xcd1be0d1bf90c2eU, 0xf4f19d010ecfbd81U,
  0x8a1081f009c3f7ecU, 0xeded0e0a01042cf6U, 0xf00338feee811b02U, 0xef8f4051be6dc04U,
  0x1ef8cd1c0e0f19e8U, 0x9bd9fead6e7d881U, 0x9ef481352b81e5fbU, 0x110e0e22ff1c55bfU,
  0x3df41b8801811f1eU, 0x3c372e4a24e271aeU, 0x54027f05f061170bU, 0xf9f5e0dbf0f3ac3dU,
  0xf7eff9e6c40506f5U, 0xff11f9248106040cU, 0x54a00000a05U, 0xfffffacd00001352U,
  0x18e7000019edU, 0xff80000022dU, 0x1aac0000075eU, 0x4043fffffbc9U,
  0xfffff8ae000006daU, 0x1dfe00000587U, 0xe100000355U, 0x12ecfffff4bdU,
  0x2625000061b2U, 0x98200002c79U, 0x842000061abU, 0x3a600002325U,
  0xfffff89300000677U, 0x24bfffffd0aU, 0x43befffff764U, 0x91c000010e2U,
  0xfffff5610000180dU, 0x1fd00001cbbU, 0x168900000501U, 0x2d2900000e99U,
  0x26b700000fa3U, 0x1f3000050b4U, 0xd5000003e59U, 0x14420000046bU,
  0x82810000050dU, 0x1388000007d3U, 0x4cf00000f31U, 0x9b9000006f3U,
  0x47f00001cf1U, 0xfffffc0c00000e7cU, 0x8b5000018b8U, 0x2027000012d3U,
  0x29b1000026fcU, 0x94d00001402U, 0x725c000013b9U, 0x245200001cf5U,
  0x1529000016a4U, 0x16da00003475U, 0x16b300001a65U, 0xfffff66200002a2dU,
  0x1466fffffe12U, 0x3328fffff99bU, 0x124600000663U, 0x5c0000002a8U,
  0xd500000808U, 0xec90000214dU, 0x1fff3a02f930073aU, 0x810109c502811cd0U,
  0x2010000e2a1a1ff3U, 0xa0605ccf904280cU, 0xa9fd12f204fe0afcU, 0xd1fdde0e1d34e7e2U,
  0xec0d0031fe1b0d0fU, 0x36f0f7ec09fc08f4U, 0x3cfa0008f9edf402U, 0xf8100cf1fe0ede03U,
  0xe1d9f6fb0cf9d97fU, 0x1bfc26d203c226a3U, 0xb102881157f817fU, 0x69160ec0fafe7fd3U,
  0x14f5ec7fd53fe6f7U, 0xbff108115fa7fdeU, 0xe0c02ee15deebc8U, 0xbc15eb65ea0c942cU,
  0xbc107f258137f8e8U, 0x1c818181100561ddU, 0x7ffd1cf91e93ca54U, 0xfbc2fbafd41bf681U,
  0x2c1ef711eced2457U, 0xfa4b26cdc981cb1aU, 0xf8fdf2efff101103U, 0x1f09fad9fc8817e4U,
  0xf3f4f902f10709f3U, 0x711f203f8190910U, 0xadee16230af80708U, 0xe3fc25d0f9d149ffU,
  0x1808e622022c0f11U, 0x1ec10fbfcfbbbf9U, 0xf8fbf207f909effaU, 0xe20ffbf6160add0fU,
  0xd3cb00fe07150910U, 0xe6f625e1f7deef7fU, 0xe0f7fb102da05edU, 0x631b100cf500e62cU,
  0x7f73eeea7f34dde4U, 0xce41a8c170a0fe1U, 0x952214d80fd2e7fdU, 0x22e6fcb67f27db6cU,
  0x7ff610eaa0f0054dU, 0x7f42752e0ad80481U, 0x4d620ebb356d404U, 0xebb7aa15db12052bU,
  0x2a0d881b13e9220bU, 0x7ff8fa16d1898f25U, 0x817fb1117fa1efe0U, 0xb7817f7f811c917fU,
  0xd68181b1e181817fU, 0x7f817fac7f81cc81U, 0xb47f81977f7f9c81U, 0x7f81817f82817f7fU,
  0x9681e381eb818181U, 0x5b1e461b7f7f7fa0U, 0xe18a7f817fe3817fU, 0x817f817f81817f0aU,
  0x7f7f187f7f9c7fd6U, 0xdc78817f7f079718U, 0xe08b933fbe503dfU, 0xe92208cff4bfede5U,
  0xc211f3f0b143fecbU, 0x16f5e70f46d4d1U, 0xab151d7f0eddf0feU, 0xbbe703610e0ee3abU,
  0xe20e0023772f0760U, 0x524047c611ef75a3U, 0x9e519efbfb5ed5fU, 0xeecbfa01f5170350U,
  0xd90a7f00fc7f0ab4U, 0xa37f0ad6deb01dd0U, 0x9040c23faef17ebU, 0x2715f91602c7fafcU,
  0x2718f609100b0ef6U, 0x60e0009eff9d516U, 0x9ed80e100cef0f00U, 0x261c298c17c331ebU,
  0x3c0feafb15040d13U, 0xf2e50103f0dda352U, 0xcb27ee07fe06f59fU, 0xe10d28031c14cf06U,
  0xe0d6cafa04f508f6U, 0xcac0d0bf5b9e365U, 0x26079f5d10fd11b8U, 0xdb0c0c16fdc5000aU,
  0xa5f4e9dcda27f4c7U, 0x2215061210e4c5ceU, 0x209527d429bc7fd1U, 0x226bf8d2ef0b00a5U,
  0x171610e976fb0aeaU, 0xf596c1540fcb0854U, 0xbb7f17fc0a7fded6U, 0xe7b86abeec2811c0U,
  0xf705130d07e014e3U, 0xd9ef0fe1c47fc7U, 0x8030c02fef31007U, 0xf50bf5c504b9f1d9U,
  0xf3f1f60b030a1bfeU, 0x1005f909f62ff81bU, 0x81ca071b0cf10704U, 0xd918db11f73cd615U,
  0xf30be90706230a0dU, 0x180a1626fef01056U, 0xe918f90afe05fe17U, 0xe9120506eb14ce03U,
  0xb5ec28fc0120dddeU, 0xf91329da0adc26c7U, 0xfffffd9dfffffe0bU, 0xfffff577fffffcefU,
  0x1e30000079fU, 0x2cffffd1a4U, 0xfffffee900004517U, 0x37f400008757U,
  0xffffd5cd00005554U, 0x400000014U, 0x4673000036e7U, 0x3dd00002ab5U,
  0x4103fffff98aU, 0xffffff7600000294U, 0xffffff4e000058f9U, 0xfffff0900000064bU,
  0xffffed6900007c7dU, 0xffffb8bc00003b94U, 0xfffffeea0000daeeU, 0xffffa331fffffffdU,
  0x3954ffffff65U, 0x5efe00000535U, 0xfffffe4fffffe44cU, 0xfffffbe6000008d9U,
  0x2868ffffee2bU, 0x3214000001ebU, 0x174ffffe285U, 0xfffff59100003ab1U,
  0xffffd47c00000022U, 0x8300004399U, 0xffffe36d00001405U, 0xffffe3fd00000322U,
  0x76e900000365U, 0xffffd3ba00004dd4U, 0x67dcffffd39cU, 0xffffff86fffffcf7U,
  0xffffb3b0000040e1U, 0xfffffad8fffffee1U, 0xffffed5700007123U, 0x51020000426cU,
  0x1d0ffffffeefU, 0x558c0000578bU, 0xffffc3b3fffff1c0U, 0xffffed080000002cU,
  0xfffffa98ffffedaeU, 0x4a700003b98U, 0x1781000054fbU, 0xfffffded00009035U,
  0x2b87000024e7U, 0xffffff45ffffb013U, 0x30eecff29d003ecU, 0x2bfe08e10ff7d1fdU,
  0xe90629f6fefbe4c1U, 0xeddffdcf0af0e1f3U, 0xcf0d21f60700e5c0U, 0x2ea3b00f7fa1013U,
  0xda547ff5ec000f28U, 0xff042008f3f9eef1U, 0xded8f72d0bef1aebU, 0x348bdffb0dd013e1U,
  0xb81c06040bfef70aU, 0x15f9f6edf500ea0cU, 0xdf3020fdfb01eae9U, 0x5ea3ef12708ff0aU,
  0x3f7ff9c867f9ebfdU, 0x6ff12e20d49d414U, 0xc6110d3eece3b9b3U, 0x624244309e7f4U,
  0x1aeab8d00c1df219U, 0xf1a8b6fc230a0c22U, 0xd5053d6e39f6e90bU, 0x523ebe727fa04f2U,
  0xe6034a0a057a1e29U, 0x6623e80bddccf43aU, 0x27d5f13618101e22U, 0x1100ec17d9f714feU,
  0x1716f52f1946fcf9U, 0x2d2ce60b87be40e4U, 0xab3e2a0d26192c12U, 0xb20e1e0cfa00120cU,
  0x22ee00f12c7e42eU, 0x1ac6fa42d709192eU, 0x2a2115391c1bf427U, 0x19f41521ec051081U,
  0xf8032feffe1b1350U, 0x46f31cc4e217fd72U, 0xf138180b12ce0913U, 0xf0f7bef2d1043beaU,
  0xf71f6b1808160ee5U, 0x10eee0b250508e4U, 0xf5b3ff02ed02051dU, 0xfcbce6f9d70b0806U,
  0x2dfff4dfef1312fcU, 0x4fc71fae1e620edU, 0xfb2d0d02f0ef16f4U, 0xb73003dfef8e81c9U,
  0x3cfe12fb312b13fcU, 0x111fb0007f60c07U, 0x1cc617d9c3d3fe26U, 0xfcf8e5e6feb4ae7fU,
  0x2a411ff228142014U, 0x160dc918fb22ebecU, 0x4db9e7211214c5cdU, 0x14add1e43d1112fcU,
  0xe92c1a3af0f215c9U, 0xee4901c0d5f61db3U, 0xc1c2e2e448ca1011U, 0xfa1fb0bfdc3b297fU,
  0xfc0c6242ed28efb2U, 0xf5c34b932613e585U, 0x2cdf4fa040ff4f0U, 0x5dd0fb511f21a7fU,
  0xd000fc0500f3dff2U, 0xf2f7f0fa1af01204U, 0xfffef803ffff07f3U, 0x27120ffa0cecf0feU,
  0x1af6fd02f1e726f6U, 0xf6f9f11a14063207U, 0x113f20ef819294dU, 0xf0f502060cd70a02U,
  0xf8f211290a07ec00U, 0xfed231a8faf9ed06U, 0xfae901e903f301U, 0xd5fabffbab080514U,
  0xfa0538270b1fffb0U, 0xebe629ebec12fad0U, 0xf10517f02b001431U, 0x416ea020aeaedf8U,
  0x613bf10c404f7f1U, 0x3ecdb17bb0e0804U, 0xfdf509fc15f6e60aU, 0x3ef705ff464432f5U,
  0x7fe203fe16011300U, 0xfa0a04f3f2fcf10aU, 0xf82704010316e6f5U, 0xdf0c62fffd10fcU,
  0xf08e80003f40708U, 0xc4f10afc23f7f400U, 0xf5f306ecebfb07ffU, 0x8108e739f7db11fbU,
  0x9defc090390f1fcU, 0xf8f7fffe081bab05U, 0xf6030d05f1ff3742U, 0xe6e810fcf9080310U,
  0x701e90409fe0205U, 0xeccff8a006cb10fcU, 0x1ef0d49307c2bdf0U, 0x1120a20f9f5d70dU,
  0xe507f2d90cf4811bU, 0xc8f6fcf3ea1cce19U, 0xf2f61b17e5d6c91eU, 0x3b9434ff3bdc7eeU,
  0x20183f27b201d823U, 0x320c17222749e802U, 0xece397f9003abe29U, 0x1f33cde754f3e3f3U,
  0xc0b7f3ea0223bad7U, 0x1ff503f1c4c0b918U, 0xe11c25dbbcf225d3U, 0x1518fc7ef15b0581U,
  0x1742ff1a36f1dbe2U, 0x12093dffd804f3ddU, 0xceb102035061de1U, 0xe8f9e94c47f40901U,
  0x363f12e1e92809f3U, 0xf4f60419e0e223cfU, 0xf4fea704511d09e7U, 0x7cae30700090a2bU,
  0xe5d127e4013cbbe1U, 0x2474dc1b0f3fededU, 0x1b2100f6150e185fU, 0xf6cae8ecff0a1d6cU,
  0xed0f729def1d7e2U, 0x28f6c90a05ea300dU, 0x30c0001ea0e270dU, 0x9340110d7f010e9U,
  0x1be2fefce9e7e7fdU, 0x14f9c82404e222fbU, 0x4209c7f1fd320a10U, 0x22811d2a26d0f2f9U,
  0xdcdb0337f6fabef8U, 0xdffb1225ff08ee0eU, 0xda0be7f07ff9f6faU, 0x25f6c2142bf0c3e6U,
  0xff5dff108fdc3ebU, 0x8c3a281809fd00eeU, 0xcd92c72802f30fbcU, 0x2f30d1b0ffe17fbU,
  0x14ca34cde8f40a15U, 0xf622c1032be7f9b4U, 0xf4ccfa590219230aU, 0x1b1ce9f9097d4c09U,
  0xf619f8097af5df09U, 0xfe18f0e803f0f01cU, 0xcb2b00f125db1ff1U, 0xdd8b5113705dceaU,
  0xfce2f9d0e37ff101U, 0x3ceb297816da14d4U, 0x8f3dff43fddc5e8U, 0xf4cf02f8e2f2feb3U,
  0x1231e3c1f4f01a11U, 0x5253f1feebd505f4U, 0xf8f7f62bcef73af9U, 0x83bf4df04590e2dU,
  0x32f1fa05c0f1f3faU, 0xe423f0e9e721f326U, 0xd13194d712192712U, 0x329202e1bbe1eb3U,
  0xf1fc0ed2f1088b4aU, 0xd106e5ea42f5e6e9U, 0x1a03e511d2720aceU, 0xbf0d4c44f9d00318U,
  0x25012c20c1e007e9U, 0xb5eb2644fffa28faU, 0xff03acebf7471209U, 0x816bf7da1b4efe20U,
  0xedb9e8e409e6c1d4U, 0xfe3edd48e11fcefeU, 0x902eae2b4b80ae7U, 0xb7da3decdfdaaef4U,
  0xedcdf2ce0b86f4fcU, 0xd7c3f98c7fdad049U, 0x10f5cfe8d9e6d568U, 0x3e517d7e2dfd12cU,
  0xdae9b5d8ebc85b1aU, 0x1a3705d94cccfd10U, 0xbea8049607e965fdU, 0x171be8f6272cf206U,
  0xd901ea4b07d62bdfU, 0xfeedfacee11fd5e5U, 0xee11f1b94dd506e1U, 0xaf6cefdd92dc706U,
  0xef12e215ea4c25fcU, 0x3252101ffa0ef01aU, 0x8152f191c09ff7fU, 0xfeed0df70ff9fbd1U,
  0xd68c5ce70bfa0232U, 0xf30921c1effcfbecU, 0xdfebdbf11ee822ffU, 0x1704e509fdf40d11U,
  0xe8f3f2fde2fee1f3U, 0xbf31105fe11ee07U, 0x44d400006e9dU, 0xfffff98cffffcd10U,
  0x3d3cffff9e9dU, 0x6684ffffd263U, 0xffffe91700001dadU, 0x494d0000667eU,
  0x318effff9434U, 0xffff5647000078b9U, 0x1f852381a4b82110U, 0x987d2ede2b29bfecU,
  0xf849eaf27b39d068U, 0x47e30b1d7f0acff4U, 0xd518b7094d3c1f81U, 0x644c06c65ac7ff3aU,
  0x514dffd81faf9feU, 0xe1500d1d5ddefabbU, 0xf214812bea02f1f3U, 0xf8dd05e7f139e932U,
  0x8100690f2312fee4U, 0xdad4ede9d7db0eU, 0xc3110f7fd27aceb4U, 0x90f4ab9c1caebf7cU,
  0x6f918d4234510c5U, 0xbf81e5d76bf14fd4U, 0xe9083ddb0323033eU, 0xe6e74c2a1f362d7fU,
  0xb3f94155f67fbaf1U, 0xdf0cc9d3f325ee0bU, 0x81ea5c1526fffafeU, 0x90ddaf9ea17dbf7U,
  0xfbbfeb067f0c080aU, 0xcf14170feefaf8feU, 0xffde4c0cd61581U, 0x483ae7a06a0a081dU,
  0x22f381ecfcf60ef3U, 0xd60e21121ffd1917U, 0xfe24fe031f02f981U, 0x242305241304ff08U,
  0xedfc011365f1cb00U, 0x31815bb8a4f819beU, 0x807fdc7e0140b3eU, 0xedf87fb1e9eb81e1U,
  0x7918de410413c5fcU, 0xf996cbd1dcc4c67fU, 0xe26691282291272eU, 0x6fc1fc1881a1a6e8U,
  0xb810cfa4f2d05c1U, 0xb4f5ecf4ecfb01c8U, 0xdbdc3fe63216c5f1U, 0xfd1de80800813b16U,
  0x8911ccac1d10917U, 0x817025f4290ee9e8U, 0x48130e83bdd30ecU, 0xe6750b0c521f0e06U,
  0x166f97bc02aff4U, 0xb6a14601a87f2536U, 0x7ff5042e064dfbf2U, 0xbf5050afbc0f82bU,
  0xf62df32556f81effU, 0x523412ce7fe5eafdU, 0xfb31d60c07f91f56U, 0x7f12f1e615efd1f2U,
  0xf6c1f61a36e6f2f7U, 0xb36e9ee7f0304f6U, 0x721f3e810f8d5e1U, 0x7f071b0b0405cff8U,
  0xfcf10410ffff0645U, 0x81eb030c0bf818e4U, 0x920981e4ffdd3212U, 0x29277747063e3895U,
  0xe13fe4e4564f5500U, 0x7f18d6ec3ee3d838U, 0xd12bbb05f6e5eef8U, 0xde9bc2b3da06b37fU,
  0xf23bdc1dfdeed9f1U, 0xe19fd1c6deebe77fU, 0x47d181e9250806faU, 0xde3757ebf7f80a04U,
  0x298127cab1f314e3U, 0x990af0deeb00bb11U, 0x8106b7caf1a112eaU, 0xdfb2f6dbf713c331U,
  0x83df0fd81ff0212U, 0x1f021c0f14fbe5e5U, 0x211f1fabc81bb27fU, 0xb9c20444cf3dcdb5U,
  0x25f307e87f08fd0cU, 0x18ecd612c91f2dfcU, 0x54202ff81ed0b14U, 0x17ffebf12d160de2U,
  0xc5555cd1055e19c0U, 0x1fea6de4ec325d7fU, 0x4a206da19e43108U, 0xe025262d7feab7edU,
  0xf38120d8c4f44193U, 0xc17a1e081ff9c50bU, 0x9c8cd07161d0d2fU, 0xeffd9ae108c0c981U,
  0xfed305a8b3fff9e5U, 0x833fb4c8102c706U, 0x4071adecbd901f4U, 0x82e6112c81fa03f4U,
  0x23d6f3f27eba4316U, 0x8f0e929c87fba1bU, 0xcb0f60a7f12ca35U, 0x3c7e2e2a3fb2506U,
  0xf8167f2ef907eaf6U, 0xf12ae10e05feca23U, 0x5441fd81d7d65b65U, 0x3b86edf7cf4ee8dbU,
  0xfc7fe71e31f2f524U, 0xec062e4cf8d9f2e5U, 0x27ee0b1502c51c16U, 0xfaec157f48e3bf11U,
  0x38f2b52b21ee3616U, 0xf2da18eae77fbc04U, 0x5c01cefcbdbe15dU, 0x86810333ed21fad8U,
  0xf633ee163e0a1f90U, 0x7f2c00bcf6031905U, 0xef0d1781d84004fdU, 0x86fdf35ca911c0f8U,
  0x94357f5cf570d135U, 0x59ccd4d7bd0bd301U, 0xecb1d107f0c0b02U, 0xaea1205c322ed01U,
  0x14408f950b70730U, 0xb94f2b7f12dac6e3U, 0xd8f00cf80f3df37cU, 0xd2cbfcc87f113130U,
  0xeb0b1aeafa19eb52U, 0x81c83e410c0c2128U, 0xab4fc8fdf1c104fbU, 0x681e8d7cfefd23fU,
  0x30310c36dbbfe0c8U, 0x157f386823d1bfd7U, 0xa1ff2df7f7d27bU, 0xc096f50a7f0d1af4U,
  0x2bcfa2f07feffef1U, 0xe202150bdcfc3714U, 0x7f29f523c20efe0aU, 0xfb0a00fa1afaf40bU,
  0x67ffb1f41f10c3fU, 0x98f212f018f618e2U, 0xfc017f36f9e91a0fU, 0xe1f2c062dfad7c4U,
  0x131a58fcd3f3df2cU, 0x10a874280547577fU, 0xf7fefffbdac0121U, 0x33ef330422f9c204U,
  0x33ceedd5e431b2eaU, 0xcaaa9feda111c881U, 0x681eb19e7baecceU, 0xc02e2e1ffee3d322U,
  0x12d4dcf17fd91a10U, 0xd01034f0ef20e8f8U, 0xf77f01ea373028f3U, 0xce4deeb7ebee0e00U,
  0x940f8f881fc02f9U, 0x18f501fa241a09e5U, 0x334f10281f9070fU, 0x19fb1c032bfee0eaU,
  0x148104990d2f1f3U, 0xe03c7f5739f4183bU, 0xd3cf7ff059eff9f5U, 0xf823c9ede7d20bfeU,
  0x2bb5bb0a7fca0613U, 0xf81a273dec0a022bU, 0x7f002f671e56de24U, 0x1d12e30421b8d354U,
  0xe9cde2ff0b44097fU, 0xc1b1afc84ee6f9c6U, 0x19110cf506f4e70fU, 0xf10e8104175457f8U,
  0xf31f070b2b203cd8U, 0x7f29f2cd16eb1913U, 0x3743fe0314d7a2deU, 0xbfd6006181ffececU,
  0x7261a2013dd3e23U, 0x7f0e7c73bd1b07a9U, 0xfccc11f2f52005fdU, 0xeddaf32481051e02U,
  0x4a8b9461106e757U, 0xf8fa811507c8e88aU, 0xdedc81f246f81fedU, 0xeed7260be91e0d1eU,
  0x13211cfdd130e918U, 0xda30f2d810d24d5U, 0xed46e320450f0ff0U, 0x3a1011cd7ffaf010U,
  0xc6f9813d4f24d8ddU, 0xab3dff2932d1fc70U, 0x105e219bc04e8eeU, 0x2ad37fe617c3e8e0U,
  0xfc30c8f881f607faU, 0xf90f29f951fa0ae3U, 0xb53f7f53973dd5b5U, 0xf2f4d8d619b20c03U,
  0x7ffa1b26f20afb0aU, 0xdbfcffec18e9b42cU, 0x303300004867U, 0x26e70000167aU,
  0x15670000090cU, 0x2b9000001bcU, 0x1db8fffffe9aU, 0x2629fffffe54U,
  0x10e4fffff40cU, 0x17d9fffffacbU, 0xab500001394U, 0x1e7700001afbU,
  0x3129fffff927U, 0x148e000031a9U, 0x13c000001090U, 0x3bdf00000d4eU,
  0xfffffa0500001197U, 0xfffffe14ffffff64U, 0x1127000010dbU, 0x22d900000311U,
  0x113b0000039cU, 0x159900005b95U, 0x72300000c9aU, 0x2400002ee7U,
  0x6390000009cU, 0xfffff4d300001400U, 0x222a000012ebU, 0xdb30000001dU,
  0x570000003ffU, 0x1bbf000011adU, 0x314000007feU, 0x22ccfffff705U,
  0x47cd00002082U, 0x156a00001157U, 0x139ffffff6cbU, 0x1d61ffffff02U,
  0x6dc00000b86U, 0xbf900000a95U, 0xad7000011a1U, 0xfdb000014d4U,
  0x115c0000168eU, 0x14b200000e16U, 0x2d1400000dd0U, 0xf850000016bU,
  0x12320000029dU, 0xb160000188bU, 0xb9e000019d0U, 0x2b400001478U,
  0x1461fffffef1U, 0xfffffd1500000743U, 0x52e34f578f0b41aU, 0x3921e50ffcf1381U,
  0xc4f809245a2a32f5U, 0x2f2f101409566434U, 0x2cee022bcaab0aedU, 0x181d9f79f428811cU,
  0x6f05e501fbd58a15U, 0xe6343e2bf49a4ed3U, 0xd6fe93e70b81e71aU, 0xd3ea2cff1700f2e0U,
  0xe19351c7f9b1a8fbU, 0x1aaa271304e1a52bU, 0x330de3f32d7d7ff8U, 0xff86316de4812233U,
  0xd4a95c3276814006U, 0x3238294d017f1dcaU, 0xdefbe5362187810bU, 0x28e547cf0b93967fU,
  0xaba1bd2acb818104U, 0x7f5eeee7e8c97f7fU, 0x20d690f9d79d7fe4U, 0x818e81ebef05fda3U,
  0x870877f5ca84f632U, 0x3ba19144074be3deU, 0xfa30e6ebebdbedf1U, 0xfbd0321019ef174bU,
  0x2f3c040befffee03U, 0x2f0b0a0dee10d9e7U, 0xd319f94e13d0e8e8U, 0x1a25a286f81e4007U,
  0xf719f3f406e912e8U, 0x1eebc3cef9a814d2U, 0x43f9bee20db03632U, 0x1817fa17fcfbfadbU,
  0xc65beddf08de3006U, 0x40e40200fc37e1ebU, 0x7f137fe63684266dU, 0x7f81151ef9bd191eU,
  0x816ff53a32517f37U, 0x81353a1759a0197fU, 0xea81ed118aa15ff2U, 0x2429ebd61086ceecU,
  0x77d28126ec83b606U, 0x917ffae5e4e4509bU, 0x81df81eee8a5940fU, 0x937f84a97f1f07f3U,
  0x5c7f59701a81fcb8U, 0x3f867f201be1817fU, 0x4781957f8177ef81U, 0xd0b281e394bb7fccU,
  0x2081817f814ddb7fU, 0xac7f7f81812281c5U, 0x7fdba081fad9197fU, 0x81817f8181a5dea8U,
  0x8181b77f7f125781U, 0xe0847f7f7f7f356bU, 0x297fac8c81ccc37fU, 0x6406e8dc987f9c6cU,
  0x5ff4d67f7fa47f81U, 0x98d7dd7f7f81d2aeU, 0x3714f9d6cc99ff0cU, 0xb6ab162f7fc520fcU,
  0x6fbe0608b7b6c710U, 0xa10508f82533e4d5U, 0xfe7901167f86d6dbU, 0x311bbc0e2d7fe001U,
  0xa0289b0ad8e55151U, 0x5ad502e5c4a614b2U, 0x38cac30beea43ceeU, 0x56b65a7fee15f893U,
  0xdd908176f4bbdceeU, 0x1c81d3fd090ba1deU, 0xfb4711e6f8093208U, 0x10ba3106f9cb1040U,
  0xe53eff06f7d4ee03U, 0x3b181f0b03c6ce17U, 0xb2e70952dfdd09f7U, 0x2b0da18df7103aedU,
  0x76170202fed007ebU, 0x1af6c2d4f2880ad1U, 0xe6f28e250ccb1527U, 0x10ce01fb18fcfeb0U,
  0x7fe00a08efda3318U, 0x7fbcf00402348714U, 0x251cddcac77f92f4U, 0xf2ba0e7fe6ac28f3U,
  0x2431261bc453920fU, 0x42e9f018f68b11f2U, 0x137f26118119c9U, 0x38de490c0b2bffdfU,
  0x94b2d811d39b634bU, 0x96ccfcf2dd98dd6eU, 0xfdbad37fe9b6c5e7U, 0x48705be6e5167f81U,
  0x2004a1d5c9c2e225U, 0x409132060707c4ecU, 0x932ecf1300309fbU, 0xf8f512d51ff603abU,
  0x3afcf61129d0e302U, 0x2a0a0900f6e742f7U, 0x1309041110e808e2U, 0x6129669fe34e2faU,
  0xef2109f4060715ffU, 0x10f9312b009df7f0U, 0x302d50207f9ef17U, 0xef02171dfbfafdbdU,
  0x5160c0203eeddfcU, 0x15eff7f2ffeeedf0U, 0xfffffc6500000841U, 0xffffff79ffffbbc2U,
  0x4f0fffffd80U, 0xffffd6d4000010f8U, 0xffffc75300005fb6U, 0xfffffca500002232U,
  0x14b100000af6U, 0xffffffe30000bce7U, 0x104ffffc83bU, 0xfffffe5500000816U,
  0x702ffffef34U, 0xfffff53d000005b0U, 0xfffffee6fffffe38U, 0xbe4fffff4feU,
  0xfffff45c00000170U, 0x5142ffffe086U, 0x10bfffff8bfU, 0xffffff97000048f5U,
  0xffffffe70000145eU, 0xc500000a03U, 0x8810000000f6U, 0x242200000d2eU,
  0x33080000b200U, 0x3116000008ffU, 0xadffffff28U, 0xfffffbe600010d6fU,
  0x53b6ffffec10U, 0x24cc00003d94U, 0xffffe1e7000039d4U, 0x4694000081cdU,
  0xffffd242ffffcf2eU, 0xfffff135000000bbU, 0x1fd0000060bU, 0x3f0000004d34U,
  0x7b8f000005a9U, 0xfffff791000050a6U, 0x170000bbd0U, 0xdffffcab9U,
  0x619fffffe59U, 0xfffffe4dfffff9d6U, 0xffffd0b500001246U, 0xfffff33d00007068U,
  0xfffffdb8ffffdd67U, 0xffffda80ffffffe1U, 0x458f0000037aU, 0xffffe43efffffee9U,
  0xfffffea6ffffcff8U, 0xfffff4240000959dU, 0xe8e4e2ddc7bd6f0bU, 0x1d1c06f3d00b18b8U,
  0xfaf7ef30cdfbefbdU, 0xec0f42b902cc00f3U, 0x3acad3e05b0800d2U, 0xfcacf0c3200b2ac5U,
  0xb9050b2043a2ed26U, 0x22fa316e26df1e08U, 0xfabbd0effe0fd37fU, 0xdb1c19badb22e892U,
  0x1123ffe9aadb59c7U, 0x3121d7ed2ef407ecU, 0xeb233ced033a2014U, 0x11816ec340a3da0U,
  0x4002d12114fc1101U, 0x351921c8f5372530U, 0x8f9f5120b1c0ff2U, 0xf118eac090e6c5dcU,
  0x2d2af87fd4d011ffU, 0x1108150ca203f79cU, 0x3fa11ad530f2e727U, 0xe6000c2d2dcddcfeU,
  0xc113563f0100cfaU, 0xfa0d10f1f12cfa27U, 0xebf2222103dd1b13U, 0x2ebf2f70ecd9781U,
  0x17d1eee5e7c224ebU, 0x7ddf2909dcff2404U, 0xf9c512cf28c2f5c7U, 0xff2cd3a80ad6e612U,
  0x1339dfe3f0510302U, 0xf3d9ff133a0cf6afU, 0xaf11419e0010a26U, 0xe1b1c1412d4190bU,
  0x2625f01306012107U, 0x15c50bdb0120ee24U, 0x400f4bfe45230005U, 0x381a4acbd3f9d4daU,
  0x40d3e544f5ef17feU, 0xbe040af121e504f9U, 0xcdbe45064239e51cU, 0xee0fa1e6b6e1df05U,
  0x4f5a07f5130213f8U, 0xfbf5f3fa7f7eeedeU, 0xf4d2200b1231ccf2U, 0xddde545bdc4ed7daU,
  0xd0622cb1551f4e9U, 0xeae6dfed09ec2d15U, 0xa415b1a1bf9dc19U, 0x1d18c9e41f07b87fU,
  0x1f24ff17f51627ffU, 0x96ccb5cd49d7d034U, 0x7eddcb30202e20eU, 0x39d2404f344d2fd1U,
  0xd4c8da9b140bda0fU, 0xe4fec2eadc5e0721U, 0x1113f7cde50ee5a7U, 0x6ecf239260fd525U,
  0xc1da20cef70eeed7U, 0x26b5192417ca3b21U, 0xfb47f4a6edfff9f6U, 0x110281100c1be70eU,
  0xe41c0c39e91df3feU, 0x104fcfdf518f702U, 0x2e071fdef8fb0a11U, 0x7a030106ffefcd15U,
  0xf9f3330a0123ab04U, 0x17e42006eb2c5efbU, 0x10e3e70a06fb2307U, 0xfa03f21e0bf70903U,
  0x1c0bef070ceae606U, 0x7e214f4fc1ef3e1U, 0xe0f10c04eb3ee8feU, 0xfacce36ff7defdfdU,
  0xf927f315b0f70af0U, 0xa4e60a0bcdf3f910U, 0xe8ba100652e52b21U, 0xa14ec0de0f5c92dU,
  0x231ffb0c4794dbd2U, 0x519000bfefff8edU, 0x247f0df608ec2c25U, 0xdf7f20a23e607bdU,
  0xfe7e40033fde820U, 0xf4f723f5491dc103U, 0xf903e4fa0c1800f6U, 0x4f95422f4db3212U,
  0xfef7fe09fdf548f8U, 0xf0dcff05f0ff07eeU, 0xf01c1481e50e0dc8U, 0x1407fe12d6100affU,
  0x12f7080df0d80cf8U, 0xfbc20ae8161ff112U, 0xfdc8fee228c2e40aU, 0xf40cfff0fd06f8f1U,
  0xfa040e100a06f00aU, 0x7814f5e72a00f4e2U, 0xd506fd1c811b0600U, 0xd8e90cd100f3070aU,
  0xc852ede5a320da15U, 0x24a715e4f522c440U, 0x4139d816210b6c65U, 0xf105ef0ffacd97c9U,
  0x122be61df6f9abccU, 0x40f32f4d32f8fbe2U, 0x37e3c3de44d33e15U, 0x9e1cb9cfcf17f2f7U,
  0x36fc9115d216df17U, 0xae728d83b2b0f27U, 0xecca2618e1f2e211U, 0xf0549175203f22dU,
  0xfe2604cbd31ee40dU, 0xe11fe4e625efda32U, 0xdb31df82aeae7b9U, 0xe1e61f1c1815e139U,
  0xdde519b8071ef6f1U, 0xbd0020681eed801U, 0x2223f0fbc30b28ebU, 0xf614d76d6ada2ff7U,
  0x8edf4e011d3e9e9U, 0x6221b02ce040249U, 0x141cd66e99f9ebddU, 0xd5dfdcf0f10ad30dU,
  0xab142244b7f1b01dU, 0xd3330e2add13e2e9U, 0x1f0066120e1c1fbeU, 0xf5fafc1710f5d77fU,
  0xefe9bbfb0705e9d1U, 0x46b93415c978e529U, 0xf8d3cf0f103e1729U, 0xaf7feee7260826c2U,
  0x40f8fd0617d2e429U, 0x5c22f22cc27f4dfU, 0x62f90aebfc1509f0U, 0xda100bb021ff2cf2U,
  0x2de3e4e9fe13e836U, 0xd520f3fa2304e20aU, 0xf9ed42fa150cdbcaU, 0xfdcda3eafba0ff48U,
  0xf5321029cf0ef519U, 0xf6e21134e2d2e4e7U, 0x267fe9e32aee1fd6U, 0x1215ff31383e161eU,
  0x2eecd109ee3518edU, 0x1e042b42fce73611U, 0x2ee2e3fde8d4e2c1U, 0xc130fb320f060d0cU,
  0x6ddda0aff1cd525U, 0x3741f403db19e0e6U, 0xddf6f2f9f403cdb6U, 0xdf91231c8c51005U,
  0xe6e016fe07fce7fcU, 0xe8d210dc7ffdfd0eU, 0x100bfffe521c03e1U, 0xf208da0e124f0734U,
  0xcec0e25bf3ccdf1U, 0xf814fc22e9e639f6U, 0x11d1ee0af9fbf8f0U, 0x611935fcd2f20b23U,
  0xd93008f7df41c5a2U, 0x1c41f107fd39db0aU, 0x4c0db5040af911c2U, 0xe619fbfcf4d581dfU,
  0x8fd08f3f4e9cf29U, 0x47d11e0b29c7e3d6U, 0x25e1c800dd1347fcU, 0xc320f3e1ade8e41cU,
  0x2711e9dd1e2cc3faU, 0x2266d22ee2d00ecU, 0xe1f502c8e47f2920U, 0xb0c22ce6fb2ff403U,
  0xa163410e1d1f11dU, 0xf62e3de82feffad8U, 0x1c4eddbc071cf3d9U, 0xfe130518583c03b0U,
  0x3c4f130d2acfdeb9U, 0xe6af032c02d715f3U, 0x131819cbfe3fe638U, 0xecdbe1c2c308d5adU,
  0xef0713e1ed0617bbU, 0x17fef3d07e0df209U, 0xc6e54310d437061dU, 0xe5ebd2cf020312f7U,
  0xf7eece2dcc0dfdc3U, 0xc415ee4d15caf124U, 0x1ad6c5e27fffd3e2U, 0x2820c40c11000decU,
  0x376a1feef2e0ffe7U, 0xfacfc21536fa13f8U, 0xebc5fdf3ec06d4ccU, 0xe3f618c71234ce02U,
  0xe7de12c13cf6f8cfU, 0x1c27cd2fe404ed20U, 0xaa920000a815U, 0xfffffb97fffffeacU,
  0xffffe641ffffb4d6U, 0x107b000055efU, 0x8400000249dU, 0xfffff8ff00003854U,
  0x25b2ffffa595U, 0x5f9900000eeeU, 0xff53138138943122U, 0x3af1c7d8f40310fdU,
  0xf6d7f2f67f22d8fcU, 0x12e4d91cc0091f29U, 0x6d60d05fa051681U, 0xa8b5f9ec761d40d4U,
  0xf1f4ffd6000aa0ddU, 0x3e1ee060a815f18U, 0x231781e3eff213f2U, 0x18db282004241df3U,
  0x4ede7093530bec1U, 0x7f8f5ce3f302e6e7U, 0xeb810a07b4d8dde1U, 0xb9adeb75201beef6U,
  0xfaa4ef5c0ecd81ffU, 0x60736dfb71016eaU, 0xecce0a37fbc8bdc9U, 0xcaa30f7f5af922d4U,
  0xd5082d11052eee20U, 0xfaf355322c2f427fU, 0xf409e7fd28151e1dU, 0xfd1918e77ffefa08U,
  0xb32c0c159cf8f301U, 0x7fa90215ec0c0adcU, 0xfcc0d10c0a22064cU, 0x3dcabdbf7d0e081U,
  0xeb3d09068101e913U, 0xe717e4054f0dd708U, 0x7ff695090520d905U, 0xfaef33231ad73e0fU,
  0xe40e011c380002efU, 0x1ec16047ff0f2f4U, 0xeed9f4042808d642U, 0x2be200e67f00f207U,
  0x54f5027f0efa2dU, 0x7dc15e9c3eb0ef5U, 0x6e1d8021b16f527U, 0x2c1b9f3edcad081U,
  0xb72b120742601209U, 0x7fff3ffa57073b77U, 0xae09ec383f0df447U, 0x2813db3c6e23adeU,
  0xc918107f05ddf6U, 0xdfb9f0d0c1ddee4eU, 0xf21706ddea36f907U, 0xcdd9faf9810111f2U,
  0x137f02f821fdf3f1U, 0x2130f5241ef8d606U, 0xebc1f167fe3efdbU, 0xffd701ffcb1311f9U,
  0xea110ddbda50e618U, 0x9bc5e711810305f9U, 0xf81f702a80608daU, 0xc3420d993ef8ee0bU,
  0xd6bbed4729e2385aU, 0x472afb7f27db1b18U, 0x1853c5b9458af00dU, 0xb6e2f97981fbed10U,
  0xdd811101c9da31b1U, 0x92445d9724ddc3e8U, 0xe6f0fee42426c578U, 0x44cef3de7f16df0bU,
  0x459f3ff3927e40bU, 0x6496c27fea072f11U, 0x26e08105faf7f7f2U, 0xd9080cec13331122U,
  0x1f1ffdba05f381e5U, 0xcae0f65a0a31b3f2U, 0xedfdc613cde8876eU, 0x7f4826379df98137U,
  0xd4e9eb24180a15f2U, 0x7f1703891af52512U, 0xd78f9ee3cffe981U, 0x395bfbf83508d605U,
  0xeddb0205fc21aff2U, 0x113ab10b7f28111dU, 0xfa07db5306c9e62cU, 0x2840077fffd4ee1eU,
  0xc8f9d92528210df3U, 0x7f3f07961af21b1aU, 0xd249f6ec143bac48U, 0x145afb81be0d1606U,
  0xb12781bc95f0f7daU, 0xbe34c0a34b743e7U, 0xe827e72281e0fb04U, 0x14f359e523dddcd2U,
  0x7fd038292924ecf3U, 0xfbf0ec401105f51aU, 0xef230ea1ff5f7f01U, 0xe91cef284cf7d00eU,
  0x2a117f3f14020d13U, 0x1df8e2ffeb1dcfedU, 0xd68b39f6d275f2ddU, 0xafd81091d63cdU,
  0xc20ab5195a761803U, 0x7f02a6c123a8e2b1U, 0xdd2ee132ef28a37fU, 0x3831fd07e0fb070eU,
  0xef1b1ac5d268c9e5U, 0x81cbfe388c12ede2U, 0xec00140ced1ff6e1U, 0x101f281d2193febU,
  0xf1fffd140eff02faU, 0xf2c8237f2fd2d604U, 0xfd108108f217e9f0U, 0xdedd0bf7fa040a35U,
  0xf933e01f81f9ef0bU, 0xc0c4f0619c0d4ebU, 0xdec981c0fbffdfd9U, 0xfce3380811c74f08U,
  0xe7ca2846027f4b0dU, 0x19e4e69028f474f8U, 0xff270703d61900faU, 0xe41cf82681fd11fbU,
  0xdb338720cbf0f4c9U, 0xb086d9b30a04d07fU, 0xe74449edf41efee7U, 0x6f15e21e8383a7fU,
  0xf51ff900f808f581U, 0xe2c0901bcfd0604U, 0xeba70320d507027fU, 0xa7ae0b13e6f22cf8U,
  0xd11f24ffde181f3U, 0x4cd026daa9123be1U, 0x191a25a4d43dcaebU, 0x9dc405e0812fffd9U,
  0x7fa2ec9de03c6faU, 0x16fde9ec02812f17U, 0x9e61392f811fd8e8U, 0xfdc3f5e817dcc30fU,
  0x95f981dcecc202e0U, 0xd9830cd2e5f90631U, 0xefff4ff1d8130247U, 0x3e35ffe194f507fU,
  0xf012152f032919d2U, 0x6b3b603191b7fe7U, 0xbdebe66622167f05U, 0x6b5bfc0e3ba92141U,
  0xc444ecd2811cdd08U, 0x46cd9dda07385c02U, 0x3f6facceff08119U, 0xff32ed440520b20bU,
  0xf38100ffb6050adbU, 0x41d9050df90b0607U, 0xfaf6fa7b09d6619dU, 0xabb8f87fd1ea56f4U,
  0xe7f021c2050ebce8U, 0x9ff3187fff06ebbfU, 0xfeede84deace8105U, 0x3becfeebca1845f3U,
  0xe085f607d70803b0U, 0x4c9bf17f6e1e23f4U, 0x92fc82ef09be06eaU, 0x98116dff4e40f37U,
  0x381d5b96e430b1b3U, 0xa8810181bc6ae8beU, 0xe1c0f6281bcfaa1bU, 0x2f0737b481130af1U,
  0xef780a23030edf3eU, 0x4c810fde8311fae2U, 0xd7cdac362354f83aU, 0xecec9a0e1bb0df81U,
  0x33ec8119100517fbU, 0xe8edf1e4fc670c23U, 0x6a0fdff810612e2U, 0xe522fecb32030006U,
  0xdf242f6f3c3eb4bU, 0xe4ef6a23432efd7fU, 0x3360a0615f7fdf2U, 0x810202340fe607eeU,
  0x81f359712752a5e1U, 0x8d7ec1cf12fd2f6U, 0xf04059e0ef5228d8U, 0xc26c87bf5b717fU,
  0x81e2e7de2fd103edU, 0xeee0f70ffb040efbU, 0xab63b3e9813cca20U, 0x6ba4f6e1e14c5ac3U,
  0xef7fe8353814dc3dU, 0xb5d931f6f8f102e6U, 0x28ef538187c5f9U, 0xdf309a2b77312d04U,
  0xf9dedb150b03e31aU, 0xd44c7f0d02cd8c03U, 0xd7d91e185d00e5f0U, 0x32135259df3f2881U,
  0xf6c505e87f5009feU, 0xf4da3deac6e5e706U, 0xfa65061441fcb106U, 0x811c031c240045caU,
  0x5e42f4178112e9fdU, 0xeec28de2fe0df03U, 0xfffffeba000017bbU, 0xfffffda8fffffa80U,
  0x139800000d7aU, 0xffffed5000001c93U, 0xfffff7e4fffff92dU, 0xa69000014d6U,
  0x1452000001e6U, 0xfffffd27ffffff7aU, 0x11a7fffffb23U, 0x66f000008edU,
  0xa7600001682U, 0x132c00000cd0U, 0x1546fffffa69U, 0x1331000018d6U,
  0x26c0000ffccU, 0x340000002a6U, 0x3dbfffff8c7U, 0x9180000072aU,
  0x1baa00000593U, 0x1c9fffffbcfU, 0xca700000278U, 0xfffffae50000043fU,
  0x58a00000200U, 0xaa8fffff3b4U, 0xfffffa6a00000322U, 0x14a00000332U,
  0xfffffa780000043bU, 0x15bfffffb9aU, 0xabd0000071aU, 0xffffffd500000a05U,
  0x716fffffe28U, 0xfc000000740U, 0x89500000e56U, 0x4ad0000017fU,
  0xa97000002c9U, 0xffffff7afffff9d6U, 0x183800000425U, 0xfffffdcefffffebdU,
  0x1be30000109bU, 0x1bf6fffffae7U, 0x1128fffff77eU, 0xf630000137fU,
  0xfffffb3ffffffc88U, 0xffffff9700001080U, 0xac1fffffb7cU, 0xfffffb10ffffef90U,
  0xfffffc9d000001ccU, 0x91efffffc86U, 0x586749a74f4440bbU, 0x53a058a9625a5458U,
  0x5b81448888917f4dU, 0x57b33e50b3607f3eU, 0xadb1bbb88151a36dU, 0x334ea92faf91c543U,
  0xba536281c43037b1U, 0xb2b9aa49570cb1a4U, 0x4e3db94282b37743U, 0x5098998bb2c29accU,
  0x4704b265a0619645U, 0xae61244844504ebeU, 0x6dd15b81636558a7U, 0x70917fa3bcc7656eU,
  0x7f926581ecaada69U, 0x679a55a996ce7558U, 0x939baaa48361987fU, 0xa567a453968cb35cU,
  0x975c6988ae4d439aU, 0xa3c0875a676eaa9fU, 0x665ca76381997f5fU, 0x7f9192339ba201aaU,
  0x4b929d73ac7f8752U, 0x9f6e44646067619cU, 0x36df25b226292ae0U, 0x2cd735d6cfe0182bU,
  0x30b433c034f4d028U, 0x2bd21febadcf4828U, 0xcbd7e9d9a21fdd3cU, 0x982ada29becbd522U,
  0xc7292098e02021d0U, 0xf3eac527215bdcddU, 0x323cce34b2d22931U, 0x4abce92ec3d62bd6U,
  0x258cc32de830d71eU, 0xd6332a3c2c212ad0U, 0x6e7f6430685a649eU, 0x6290e0b17f7f5964U,
  0xb4395621b3af7d5cU, 0x6aa55779157fc46aU, 0x9b96999d8d6e9474U, 0x7f6d98488c8b9959U,
  0x94707290a6476e97U, 0x8e86846372688d88U, 0x6b549a5a87a4bd5dU, 0xc78390819ca9b4abU,
  0x7f81877db7d78b4fU, 0x9e714e62646860adU, 0x7fbd7f337f7f7f81U, 0x7f81d981beb77f7fU,
  0xa3177f344c81b47fU, 0x7f817f812bb7da7fU, 0x81818181a77f817eU, 0xf37f817f8181817fU,
  0x817f7fa4817f7f81U, 0x8181817f7f7f8181U, 0x7f7f817f95819e7fU, 0xca81814381817581U,
  0x7c82817f81d8817fU, 0x817f7f7f7f7f7f81U, 0x40bf300e312f3bd1U, 0x31ccebb8c6cc3531U,
  0xcf263f147fa1af2cU, 0x31b3310813c5cf3eU, 0xc1c8ddcf9625d338U, 0xb036c640b6d0b831U,
  0x8f342ba3c93432c1U, 0xe5d2b6352c1cccd3U, 0x3754bc4888b9d13fU, 0xf3aad246a5c77fc8U,
  0x31d7bf33bceadf2dU, 0xc73c474c3d2932bfU, 0x383d2c3032293cd3U, 0x2dc7bcdf454b1c23U,
  0xec5b272ef4e72b20U, 0x2bc524395231ae39U, 0xd6d8ced5c72acc33U, 0x5431d423bfdac923U,
  0xa83524b1d0182bd0U, 0xe5adc22f3354cbcfU, 0x442ec919b5dedd2cU, 0xa4c296c5bee1e2e0U,
  0x3c96b42bedb5e027U, 0xd62931372a2529e7U, 0x3dca364a473749c7U, 0x3ac39fc0e2d5392eU,
  0xec5a393e4ca7e12cU, 0x34b237c07fdccf3dU, 0xc4cfc6ceb52ec135U, 0xa36c43fbcd5c72dU,
  0x843f28abbc352dc4U, 0xe1a0a6383b2ac2c8U, 0x493eb725aebeaf3aU, 0xa2ba831799cd3dc5U,
  0x3de0b32cc4b0de3fU, 0xca385142312933d2U, 0x1ae019311e1422eaU, 0x16e9d0eddcd81f12U,
  0xf42b202343cbe707U, 0x16d0190636efc919U, 0xeee6f1e9e10ae51aU, 0xe216e220d3ecdc11U,
  0xbc1e10c8e41610f0U, 0x7dedf1a12fee9ecU, 0x2326ec18c2e3d81dU, 0xdddbf61ecae83ee2U,
  0x17ffdc0dd5e10012U, 0xea17282a1b0919e2U, 0x2ea900018d34U, 0xfffffe7afffffeb9U,
  0xfffff7c7ffffff58U, 0xffffffaafffff8daU, 0xffffff9c0000077cU, 0xfffffd91fffff914U,
  0x7f6c0000dd3bU, 0xc07000076d4U, 0x2f5ffffff53U, 0x8d110000bbbeU,
  0x141500000225U, 0xfffffc5bfffffed1U, 0xfffffa1100001939U, 0xffffdb33ffffff42U,
  0x460000007ddU, 0x11820001218eU, 0x2106bffffff4cU, 0x75d1000008b5U,
  0x1d254000291cbU, 0xc7f100010546U, 0x14594fffffdd4U, 0x115900000b39eU,
  0x133b5000013bcU, 0xdf2b00000fbdU, 0x3b6000085c7U, 0xebd4fffffe1bU,
  0x1fcd0000c7d3U, 0x8d6100000444U, 0x1442600037050U, 0xfffff68100000c07U,
  0xa374fffffd0bU, 0xce0d000148beU, 0x8c0000038aU, 0xdabc0000f22bU,
  0xa8250000037fU, 0xc7fffffefebU, 0xffffce7c0001215cU, 0x7aed0000b568U,
  0x149defffffca7U, 0x1fe6000049b1U, 0xeb3efffffefaU, 0x33a8c000003a6U,
  0x11c0300001347U, 0x8c00008ef4U, 0x10b0000f0eeU, 0x18f4ffffffafU,
  0x32c700005118U, 0x1735400001128U, 0xb00d70b0e39c4f7U, 0xdf7e6300b04d614U,
  0xf90290faf10a02c0U, 0x191df909ff0a0801U, 0xfb2dd3b7f8cbf108U, 0xf7f8fc15e6f8eee5U,
  0x6f80ffd110c0413U, 0xf4def59e360bd900U, 0xedf4e8f2f332087fU, 0x17070106de0b08d6U,
  0xfd0c00fd10131cecU, 0xd02a04e8cc072504U, 0x60f385fed307e0d1U, 0x1de810d41b30fe3fU,
  0x3cbeaf0551cbfd9dU, 0xe5211d59d91a18e1U, 0xe78127fdc4a42200U, 0x266e4911e4cbdeb4U,
  0x942314e33af2bde4U, 0xbef5e8bcdbf4ec1dU, 0x1135f1f5d4fc108dU, 0xbedfde3f1094ca35U,
  0x54f4444a270af255U, 0xb196536f07b531fU, 0xee51181c22e01620U, 0x87d4d41817eb2d16U,
  0xfa531d36f9dd341bU, 0x2ee87fe90008c051U, 0xdefc6de182fb8b0U, 0xa3ed0a378bffcc0bU,
  0xd02c01f50af7f5f2U, 0xfc1c08066dd20cfeU, 0x8c10f1f011ffddcU, 0xed14f40a107cb2d1U,
  0xd1f10f82914c582cU, 0xdf10b71d2ec008f4U, 0xc3f5e6eaf7b7c2ccU, 0x130026f1eced511dU,
  0x810f7010218cc06U, 0xea0fb3fd11d0e9ebU, 0xcac1e3e3ed04e4eaU, 0xe13fefe0fd0211ceU,
  0xd7f01302cd133a0cU, 0xe3b227ee1c28e0e9U, 0xf31bdbfff9c80d25U, 0xd626eaf12211f157U,
  0x4feb0f02e5dd1b08U, 0x1bd00be2250a81f8U, 0xd5f23a1b1df738c7U, 0x10fde51405dc6214U,
  0xf5f0db21052afbe1U, 0x12270afb24050d35U, 0xf42675e907abd0d0U, 0x1b097ab62106d6fdU,
  0xb5b0de1f36e3221U, 0xfee70dda2031350cU, 0xc6fde627e5d31581U, 0x110bfb0df31b17f9U,
  0x11d4091ac51317e7U, 0xf8f8d82f06d31ec4U, 0x3af9f7e5c5f3d98eU, 0xf51aea221416e9f3U,
  0xe921e90ebbf5f20dU, 0xe713e2f3fdefc27fU, 0x6274e1502f0f2ddU, 0xc3f60b1de9162ddaU,
  0x9d60b04ce390528U, 0x102f208deeecc55U, 0xd9f3c2ef1e2501ffU, 0x16bdf30af6d616f6U,
  0xfb13430eebe1f1f8U, 0x5dbbc1935dce8abU, 0x1c1af6f8bb29de2aU, 0xe932fb312a3811f2U,
  0x922b0c8f03f0d36U, 0x13d2c52be112da0cU, 0xdff33411ddfb7ffbU, 0xe3fa17482f1af72bU,
  0x70bda0f1aafb5f8U, 0x171b1a324d4e07bcU, 0x2ff91676ece1f240U, 0x5f62e25ec4bf1c7U,
  0xf8e0e53207f4edbbU, 0x65011b2fd40800faU, 0x1ff4c0f0e7ee2d51U, 0x5fe7ff9341ef0e7U,
  0xf60110dfe92032f3U, 0x342ff912ff2ee421U, 0x1c0613f211d9ec17U, 0xfe14f71f15ede4e8U,
  0x1e1329e3fbced5f0U, 0xcb211402e6c92de3U, 0xc1521e8e6ef0627U, 0xef00c0e0f00217eU,
  0x1f13dfebf11af9c3U, 0x104072205e211f0U, 0x303f5f40dff14abU, 0x480112ee160f0fcbU,
  0xe16310b030d1c40U, 0xacd53d09f609fcf2U, 0xcb0a16c8d3134b06U, 0xebe7c4fd1becfd7fU,
  0xaf9f31771350fdbU, 0xe9eefc1712f206daU, 0x230df1fa07d10318U, 0x11edeb0006f8e54cU,
  0xcbe9ee1f32060604U, 0xd8eb03fe031707e5U, 0xc3ecf3f0151636f9U, 0x80606eff7e504f9U,
  0xea3aedd78ff907e7U, 0x140520f2f10aa9b9U, 0x1f7e64303eb0302U, 0x810121ad06d2eb0aU,
  0xf1130d1102f4d9ecU, 0x3fd09e6f91c24faU, 0x506081ffa08fcd9U, 0xf2f01ff0cc4fd0cU,
  0xfa0f14eff3e71215U, 0xf51236ecfa1b1c10U, 0xf6fdecf6fc0e16ecU, 0x7ea02fafe05050aU,
  0x2031cfbfffdfffbU, 0x2407f50aff020014U, 0xfd01ff0001e0fcf6U, 0xf909cef6f52316edU,
  0xf0bcdd25f90b0b0eU, 0xeef002f712007f07U, 0xfaff0111f002eb0aU, 0x409fde4020303fcU,
  0xea020d000c071f19U, 0xe40d081cfd06ef11U, 0xee00c9f9034ae7f0U, 0x4f14fad7e7ff11fbU,
  0xf9f90af4fe0a064cU, 0x8adb39f806f60802U, 0x418871804860402U, 0x1fb0f2902060403U,
  0x71bd718e0f0e819U, 0xc103844f8f8e77fU, 0xf1f30ae909ce10f2U, 0x40c0b06db691502U,
  0x30020118fff41cfdU, 0x61c0edff509f82aU, 0x1906e5ef0c2913efU, 0x17df0b2af717f0f4U,
  0x50421ee0527080fU, 0xa02effbedfe0909U, 0x615ece902271102U, 0xe5402bf41dfa19U,
  0x180cf1f116c702e9U, 0xe100fc151a3315e3U, 0x18010ad61705fa99U, 0x1f20cf5fffaf6fbU,
  0xcb033bfd08ff01c4U, 0x810d12d9e61bd50aU, 0x3b0c4fe11dd3a93cU, 0x1f70b13e403d33eU,
  0xf9142e05f2ffddd4U, 0x9e0481f3eac8fd03U, 0xd710241df3f62fc1U, 0xf0093b0ef51dda2cU,
  0xf24d1dfad080ed1U, 0xc6e4f0f1d4eb3de6U, 0xa2dc0be0f8130101U, 0xd9d4f0f9f00ff612U,
  0xf906061d0ec629ddU, 0xf6e60af0f7ee4b18U, 0x7026bfbf6f6fa29U, 0xfd0e032305f5e708U,
  0x2eaf2f801f602d7U, 0xb42a25fa07fc09fbU, 0xf3fce3e7f4f70debU, 0xb0e06ed04d306f6U,
  0xf2041311022cec02U, 0xff0ff6baf2e90c19U, 0x2df50104fd2ffaeaU, 0xf4f000fee7d800fcU,
  0x502ffe5ddf60beaU, 0x15dcfd1f0aff8111U, 0x5f681020bf5f72cU, 0xf60d0001ff0207eeU,
  0x3031c05f30206deU, 0xa7323bfe090001fdU, 0xcff25170aebe80cU, 0x90beaf0fdecfd0eU,
  0xf3f90618fb1a21ffU, 0xffea0afc090b14cbU, 0x81100f2050605feU, 0x8f4f4fdfeef0bffU,
  0x11fdf719fbfe0502U, 0x14f701041d04f002U, 0x33ee5325a0270979U, 0x3fe90b1af00f1af7U,
  0x1324d0ffd126edebU, 0xe9080ef4ddf4f1ebU, 0x1c36a9c5fe02cb40U, 0xaa0bb03e250a43ebU,
  0x2f9bcdd1efd481bU, 0x399dede12551cbedU, 0x1c232d81fae506cdU, 0xcf7bce101e4f530U,
  0xefe8b5170a1992d7U, 0x4b251a54f2166336U, 0x2be1810b23bfbb65U, 0xf3ebe0ee15161fdbU,
  0xf8f9cc05f5f8fb10U, 0x1007ce0f0f03f937U, 0xeadc82feeff0f912U, 0x91a09170c4ee6eaU,
  0xe933d8e4fa5bf41cU, 0xb11e7000af6fdfaU, 0xfb04b52cd3f1f0d6U, 0xeafa08f800d01318U,
  0xcef1fbff0cfcd71dU, 0xdefd8e3222cff8a8U, 0xdbef1ffeecd91751U, 0xf3b017fdfff5410eU,
  0xf9f651f7fa05e7ecU, 0xfc17f42416fce5f7U, 0xd9c57c27dcc50a26U, 0x24caed6daef20b1U,
  0xbdf023eee061c615U, 0x16ff10cff607c021U, 0xd70c106adde1f9dfU, 0x50607131b050cfbU,
  0xdcdcf141dee0c010U, 0x81dd07e31e03f428U, 0x1207b450cef20235U, 0xe4d996f52b10170dU,
  0x3cf91ffad2eb5f01U, 0x5e2041127461fd5U, 0x2e8f8ae07e52e09U, 0xf91ff206d3e20f39U,
  0x8d41ff0d5ae03ccU, 0xcf2214cbf5cd09ecU, 0x1af903e5e10428d4U, 0x7ff1d319bf383f0fU,
  0x53f3f0dfc366f103U, 0xfaf62b35ce09fae0U, 0x47fbcf1237150c02U, 0xed11e13b1c0a4217U,
  0xaeb3a0a191c10d0U, 0x21011f03f1130907U, 0x2bfac43712e11603U, 0x24fad3f2d01c05f9U,
  0xfcedc4151c0ccfefU, 0xbf32c4f39a5ae726U, 0x19efeee2eede0c6bU, 0xf3dff50ae38bf3f4U,
  0x36c1eed9901b3481U, 0x171afbd8e9120d00U, 0x1fb0ef2fad9baf7U, 0xf9f606f6f449ebU,
  0xf2de81152518040eU, 0xcef22def140408dbU, 0xce8e005f831d0ebU, 0x2bf2e1fa0cacfaecU,
  0x1e7671dec06ed07U, 0x3d14fd05c937743cU, 0xd90b0af030d6d8feU, 0xfdfe0bd60cf5fb0cU,
  0xbfe307f5bc04f5d9U, 0xeaf7f25332f46e1eU, 0xd655b418cc072eedU, 0xe5fa541b06dada3fU,
  0xdb0bcb0845f716dfU, 0xe6e602d9e9df03e7U, 0xe939e00a00ee0e20U, 0x3caecc2edf5437fU,
  0x14c2faf0f80ee9dcU, 0xf2b08d2cfeee2dfU, 0xd2b8cde0ff0df6f0U, 0xfb1ffbefe80dc3e9U,
  0xe1f50ae5e4f9c8c1U, 0x26c93208d815f39fU, 0x1f83309e73eff14U, 0x2e2e8c50dfb0f32U,
  0x815b30402eef73cU, 0xfc4ecfbf0f8fffeU, 0x2b322d6c1deb08e6U, 0xf5ee1bf81105fb01U,
  0xfd1feaf025ff2b08U, 0x1eb027fc40516f6U, 0x5decf5bfefc1fd2eU, 0x15f9ddf4cd03ef05U,
  0xc9fd080b16fd0612U, 0xbdf70c25c209bce6U, 0x3e6c0000a081U, 0xf4af00008292U,
  0xa40cffff9e87U, 0xffff7313fffef47cU, 0x542cfffff37fU, 0xffff9280ffffb8e4U,
  0xffff754400000b53U, 0x2e1600000f09U, 0x10fbb000024daU, 0xbe3200006f32U,
  0xffffe043000064d7U, 0xffff899c000090f2U, 0x2208c04ba21329c2U, 0xe00cb547d88128ebU,
  0xafcffad04234019U, 0x7f2012ecfee1df31U, 0xb6ff2d0cdf213d42U, 0xaefd20fe2221fcc3U,
  0xef3da66975f9c5a9U, 0xfece1fea62d70338U, 0x5a2f597f46330316U, 0xcd01ffcb34e4cacaU,
  0xc2eedea0de6ff81U, 0x291bf7fcdbfd2e14U, 0xdc0bf222f00a1cedU, 0xfc2519fddd7f26ebU,
  0x42095af819cb14faU, 0x41391df4e77f390dU, 0xb5112cef3ee8e40cU, 0xd08fb17d6081b1dU,
  0x572edf2bee28c981U, 0xeef14ae1ef0ed42fU, 0xf9eecebd3d22ad31U, 0x812c11e7f9a2cef6U,
  0xbaee0905d3041be1U, 0xe7000a000b000ad2U, 0x9dff3cf72706e10bU, 0xfecdf6fe01f47422U,
  0x1e5eff27f09f922U, 0x90eee60feeda2d16U, 0xd4d4fbe6a203327fU, 0xdeebe04402eaf538U,
  0x52f65c69a50b1f9bU, 0xed089ecd827ffc40U, 0x4f82ee7db1c940dU, 0xd581f7bae43a300eU,
  0x8de1097251fe811U, 0x56db898245ff17e1U, 0x2c0ded442c33ef03U, 0xcd6fafe2ddae212U,
  0x3ae80b7f1d382a18U, 0xff14081610fd10f9U, 0x50903ef1f81fff3U, 0xdffbcff3e8e0f20fU,
  0xe2e3ed35d5e6ebd1U, 0x12eafdd7afd4eb21U, 0x3001c3217f2ae9feU, 0x42f6ec294f153504U,
  0x4eef1c17e0078146U, 0x6410ade3f0f7fe20U, 0x251e157f0dbdf657U, 0xc2f5279a350dd695U,
  0x77d991076c6d28f7U, 0x440b1b43e1cffdb6U, 0x81cdedd197311c1fU, 0xd4ebdc3a4751d3e4U,
  0x2e4ef574561cf335U, 0x53da13ab0532db36U, 0xe0f187810f5b3efeU, 0x1a21f514ea0a1404U,
  0xb1d2008007f12fbU, 0x1f0557e81bd51ef5U, 0x9e37d816d1c6df4aU, 0xf24aeb3281f4c160U,
  0xa02bd8f313dbade7U, 0xb568c2f18f5cd22U, 0x934667add22aedfeU, 0x4eff61a2a3815f7cU,
  0x24affed5ef25ff20U, 0xd7d50472e6380406U, 0x2802c828297f0de8U, 0xddf1b3b8b67ff0dcU,
  0x1eddfc2febcae25cU, 0x10effe2367ed2a26U, 0x7fed1145ca2403c3U, 0xede90df1ce06ec30U,
  0xf8d2e0f5ed1cb50eU, 0xecb5be81d943b7eeU, 0xccefe63f1320e3cU, 0xf317e52af65f0237U,
  0x234ccff906582a14U, 0x2d700eb2313e888U, 0x505f0fd7ffa0bebU, 0xd8f6fe1b04f6fdf6U,
  0xf0e900fd15810ee9U, 0xe9fcbbffee14080fU, 0xf41b02960e12af19U, 0x1bead98113a4dd0bU,
  0xd2f9dd3d0219fa4fU, 0xe306c01de80421ffU, 0xf70af30101104316U, 0xbdfe744f481f8ddU,
  0xd10129090cd0fd90U, 0xefd3f1f15f0cef10U, 0x7fe83c11f61bfdd0U, 0x74671c2eb02b3ffdU,
  0x4b248ce547f9223dU, 0xa3fec1157f4435bbU, 0xbf3dfb0f421cf410U, 0xff04314706cd2181U,
  0x951c63112c17ed1fU, 0xcb131411f3d30cfcU, 0x9d811fdaaf0906d9U, 0xae2a2ff843e6cffdU,
  0x76eeb4f82a236121U, 0xcf8153e0f618ec16U, 0x87da42127beb2528U, 0x3624fef6152209fbU,
  0xeb1ceeef1d143214U, 0x10dfe9f57f040e36U, 0xebfecd3ff3c1c24U, 0x21ef38502fce0715U,
  0x160924f34c7f09edU, 0x7f013d63ca4221adU, 0xba0301fcc252de60U, 0xc5bcb11682109bf3U,
  0xd04b35131697223bU, 0x458157e15521e7cdU, 0xd9310bbd103ae61cU, 0x50e9e7cb041328caU,
  0x9bda0b8629060a56U, 0x34efd6d37f4840eaU, 0xcbcbf549f61ef0d8U, 0xe3c9eef58124c218U,
  0x2fe8b91f7df7d3feU, 0x7afe31ea24f4f27fU, 0x111dc2e7f6d8f24dU, 0x5c0355ecea28d5c1U,
  0x32fd3f5efb095009U, 0xd6153051ff8126edU, 0x1d0fe8da15f9f0fbU, 0xa2f5f83dc2e613e3U,
  0xe4fffe232cb1e2cbU, 0x5adac9f5810f0df6U, 0xd0cfe0d608f4e1ebU, 0x7f00e11b162009aaU,
  0xf6091de6b5dbd002U, 0x513ee17ee2ffff6U, 0x1a3b16250f7f24f0U, 0x1bee4dddf7d6fae4U,
  0x794ef91de6fcff0dU, 0xfa3d20ef6131f97fU, 0xeffde4ef181d3514U, 0xf16da9202ff9efbU,
  0x370ccb81e32bd126U, 0xd904f72de644c356U, 0xf207d1f2f2fcefU, 0xff1f0f2e47fe615U,
  0xf9102a231a14001bU, 0xc9da0557b6190681U, 0xe204130ee32cee01U, 0xffcfec07e503b00eU,
  0x7fa12196d5da34b6U, 0x21e4eed244013bd1U, 0x2511272713fb0be5U, 0xaee328a04119e60eU,
  0xffdf16c81b81bd2dU, 0xccd88e653260dbf7U, 0x7f5126df0405eddcU, 0xbe29e42718f350e9U,
  0xab1b3e61cb2b16eeU, 0xc913fce65516f5e7U, 0xa37ff8150ef6f7dfU, 0x7809a21f5d0aefdbU,
  0x4fb5e3bc7db1781U, 0xb5efd14702ffd7a8U, 0xcd56c8a25038116cU, 0x901d7ffe10cae3ccU,
  0x2909e33bec39c21fU, 0xbc045baa68e6abd7U, 0xc5943875b54af9a5U, 0xb34ed3813e611ec0U,
  0xeec8c725d72aca43U, 0xbf0fe1e2d90c3cf4U, 0xb116f5f8dbe68118U, 0xeffe0d1f82fcf6e8U,
  0xe3cc02fd1d26ed2cU, 0x3ce1bf1feced021U, 0x2f0df6167fd21e0eU, 0x7f2442fdfff331f9U,
  0x73d6c8fe13062738U, 0x32d8a6f827e2df2bU, 0x880edd2c0f27ea05U, 0x7fdd0f15d4f7dc0bU,
  0x52d9ced537f10114U, 0xb4ceefdb41052e2aU, 0x7f032f3c59e606adU, 0xd6f73ee21cc43852U,
  0x4cecdffbf7c11ae3U, 0xe2e4e0eff100f681U, 0xe1ff26f9df1a01fbU, 0x46b71699c9081be0U,
  0xe2db09e2370d0404U, 0x2109da81a7f609d2U, 0x47f05e041cee1412U, 0xc2111007f0852bbU,
  0xb24f0a02c9510fe9U, 0x3d123e0c16a7377fU, 0xcef8b439dcff1af3U, 0x674c3eccf3f019b9U,
  0xa4071eb93219d4c9U, 0xb57fbe24030010a3U, 0x64f6f5fa28f1d9e0U, 0x330f0f15e90eff22U,
  0x453c16027f02dcc3U, 0xe0ce1f1de2fd81bU, 0x7fe30ae1f9d6f9bcU, 0x15dee5133efa12d1U,
  0x66073f60dfd01U, 0xbbd2fb3ee3f2f883U, 0x10fe0328263f12cdU, 0xba04811244fa2346U,
  0x4050066ef1c36f2U, 0xe1f81613068109e8U, 0x9deddeec6cf19e6U, 0x9a3ecd0f228f50e3U,
  0x2efae8fa7ff3ebf6U, 0x39f302e03ce1f8ffU, 0x4456d4e7f92c1acaU, 0x7fb80efa9dfb08b1U,
  0x3f17e7f80f2b08c5U, 0xbce7137f0609e20fU, 0x73c9d666e5d3e60aU, 0x24d96753a9f1e958U,
  0xf7ea1a31fa001cf7U, 0xeef3e711ee81ff01U, 0xfa07dde9fafc1408U, 0xe42755f4edbe0a15U,
  0xd908b705c90004ebU, 0x337f26ccfe0f0a50U, 0x1922e9fe2dfc131eU, 0xcede581020f1d11U,
  0xe9e1e156f2a8dac2U, 0x271adfdffc70eaedU, 0x397f990e1bd91e11U, 0x5416cd0e7ce7fce3U,
  0x9d2515fd53bbdf56U, 0xb67f1b27c33cb4ffU, 0x9be5e1b719d5132cU, 0x5ae0ddcf6192097U,
  0xc0d81db157da00cbU, 0x7f252b575407eff3U, 0xd74707c8070a23d5U, 0x7fe30c27ea1614a4U,
  0xbdeff2e81e0cf9d3U, 0x6b18ef290a0c18f4U, 0x161a09dc3d8102f5U, 0xdbf4ba03d9eff9efU,
  0xc922dc4635d9d51fU, 0x7f29040a81f7bdf4U, 0x5aff93dd0ae1cd16U, 0xfa0400b1e00d0ce1U,
  0x260e114d81dcfb0bU, 0xe5fb1d14a7fe27d6U, 0xaeeef912ecb5f00dU, 0xf3121506ee0009fbU,
  0xb0ffd127ffddff0U, 0x8a327adf087f2313U, 0xfdf564e2c8fd1031U, 0x1acecf3e5cf32b4eU,
  0x33f90435efbaedf0U, 0xd1d738d7d3e6157fU, 0xe80df516763b0de5U, 0xf31c1717220ce2d1U,
  0x1081024953dbf6d7U, 0x550a4c5e0100071dU, 0x1f28d806816fc3eaU, 0xe3824eddbede61cU,
  0x3aa465cbdd31a8fdU, 0xcf1cf4fd2029ed19U, 0x81341c0a19fbdb4dU, 0xdf20fcd312eef718U,
  0x26c44bd0ca3f1eefU, 0xafdf9200a1ab2be4U, 0xc518fa7f1629affaU, 0x15c922fbcb31f003U,
  0xebe81e6cf432def8U, 0x2bfcfae1207f251aU, 0xadd1f1190027f823U, 0xaffb0bfaed18f281U,
  0x435f1250beb21ebU, 0xcb71ce15fe81fcf8U, 0xad4112ef27444b5fU, 0xbcf5e2dd3d2713fdU,
  0x2bff10b0ab51503U, 0xa94e0097ff8f424U, 0xcef81fe4e0fce826U, 0xd83dbbfee4fa2b1dU,
  0x814d0f0b231ac125U, 0x9e170102a7f501daU, 0x3414ab3917edf6d6U, 0xd0c0381f8bd080dU,
  0xf8aefc0581b12507U, 0x3ff7da23b029cd6fU, 0xed21cdc00fc30c81U, 0x48b66efaa425b6d9U,
  0x8109da44bf5c0811U, 0xf724c4f7f90b3aU, 0x2818010b4eebdc25U, 0x32972501bea73fecU,
  0x5432e1a7a3e035b5U, 0xe804027fb030382aU, 0xf2d704d530fe2d7fU, 0x7cbd6f7ceb3fb25U,
  0x5d181a2a522306f4U, 0x51d98f041a21df51U, 0x1df7020aea61536fU, 0xd9cb97dd9b92481U,
  0xce9f7c7609bfd08U, 0x9c32f45241410f6U, 0xa95d903f3bbe7f04U, 0x2183ffde04e3a2e8U,
  0xdcf9072734edf8adU, 0x17ef501a1081e151U, 0x81f60cd3ed0b1514U, 0x5103a0f0301199cU,
  0xb6f3158b2f070df8U, 0xf90812e52ea5d9c6U, 0x7f62052a5c000dc4U, 0xf10d19d6dfc70efaU,
  0x23f3eb0ce70b0e24U, 0xe6811fd9bf1e1020U, 0xb4d93505fcfcff09U, 0x5af809f62103097fU,
  0x152de20b28a20d2fU, 0x68f966daf92dfdcbU, 0x1e9a1f02f6fbea1cU, 0xd3e50b68f308f6dfU,
  0x2a07edf6227ffae4U, 0xa2c3e7f8e42c2b81U, 0x512f7e4451242f1U, 0xdbfa192573d8eb54U,
  0x98925230d1df00d9U, 0x3afa7fedcbd30c78U, 0x75730248c3f335fdU, 0x94142c9220d6e5c7U,
  0x2b05f4d2f74ee619U, 0xe83838dd2851247fU, 0x58da50fb4cd01659U, 0xbcce81c69cf70648U,
  0x1e1d181247291ac4U, 0xec1a02e0fbebece8U, 0xf5f0c7d5f781e0c4U, 0xe32bd6ec0a133070U,
  0xd31c6ca278c4f1abU, 0xc65e7fc049ead791U, 0x54041821ff1c00caU, 0x7f12e007f6f40b02U,
  0xbf2c11ff1613edf6U, 0xea25f60997ff0cddU, 0xf4cd27024e94851bU, 0x14214571116c0e81U,
  0xbdf056072bb390f4U, 0x7f1ce3f6170ff849U, 0x151de40de408fd48U, 0x79c56ab0e91e35e1U,
  0x7f00fb2001de0d0dU, 0x39374d8091d0dd6U, 0x821c45d0ce461ae6U, 0xf1e3e87fce1e44e1U,
  0xdcfbfc67f39445cfU, 0x25fb00b102f53bf0U, 0xe40e2bc9531ae4bdU, 0xdd7fccedd5e5f592U,
  0x58eedf174b1709f0U, 0x20e0171efde7f3a2U, 0x2305d0f83a62fd1aU, 0xb9138132e5f51226U,
  0xc0311c00899a2027U, 0x133b50597ffbf35dU, 0x5df3b131c427d544U, 0xfced05f6e829fafaU,
  0xda4c2cf90b271681U, 0x1cedd4190830de29U, 0x4c2a2f7db0dbdd5aU, 0xca033d81e5280da4U,
  0x63d7ad2c2e51c7feU, 0x46f6d9150e5efa21U, 0x37c866e337adeb21U, 0xb381d144bad4f38fU,
  0x3b22077fd30d5002U, 0xc10efd25d4a6ffd2U, 0x2e2e1cbe27ae26feU, 0xc9fe2919818b061bU,
  0x28a37b3357050f7eU, 0xc855251dc4bdc307U, 0x2ef81417cb150ff6U, 0xdee843ccd6ec0e7fU,
  0xdb41f611e72304ecU, 0x8fd8f211cdea0a7eU, 0x397ff304b6184587U, 0x9416c9481b15d03dU,
  0x819ce52413130917U, 0x9ead2f71206f305U, 0xcf108065202e71dU, 0xe10e41de21f2106fU,
  0xe2e181f6d4120303U, 0x463b32f217f51bebU, 0x78092981c2f11decU, 0xab42f9d5130a45f9U,
  0xa727dbd7c61a20adU, 0xbe1442ccfaf6edb4U, 0x157fde4324f1f2f2U, 0x6230c31cedfaf7c6U,
  0x12f9cdfc0643f881U, 0x211952e62f4bf8f1U, 0xb2dbcd2c22dce722U, 0x81ddf6ca06f3f610U,
  0x3739d7340feefee7U, 0xe50c31ea5cff0cf4U, 0xe021f9a83d0ae19cU, 0xe075b2f7c9e0fce9U,
  0x7fd5d6262e0801f6U, 0x1cf4fad5eb591634U, 0x7f61e5047dd2067aU, 0x45ee5703fdf43518U,
  0x81ef210de109283aU, 0x108454e31508041fU, 0x9e025205e4e3f210U, 0x43f1dcbc1e0d0327U,
  0x415f2a337fed46c1U, 0xef2e32e559d84725U, 0xbc0a8e0437812f00U, 0x532590a251d522cU,
  0x1713f6fa341bfcfbU, 0xf5442122bcdc197aU, 0x44c23c0a7f32f60dU, 0xe304d21cc62b0edfU,
  0xf81db6d3b03e226U, 0xebdeeeb9dd29fc47U, 0x3ffbd90f4e0b0713U, 0x5b0df232cbd233b1U,
  0xcf20fdc9ed361118U, 0xb19812dc823feddU, 0xec400001825U, 0x140e00000de1U,
  0x209900001868U, 0x3dd000008acU, 0xfffff630000013e3U, 0x1219000024d2U,
  0x58900001595U, 0x430c000031f1U, 0x360000002b96U, 0x2929000016e7U,
  0x2b8cffffffc7U, 0xcf000010fbU, 0x167700002628U, 0x143ffffff37dU,
  0x91500001fe1U, 0x4162000010caU, 0x28130001044eU, 0x17c8fffff300U,
  0x496f00000021U, 0x3eda000021feU, 0x1ae700002bbeU, 0x7fd3000014ddU,
  0xfffffd7400002218U, 0x206500002b44U, 0x173a00000ebaU, 0x1ea300000f9dU,
  0x182cfffff962U, 0x2d85ffffefa7U, 0x1b95fffff204U, 0x95bd00001ea6U,
  0x13b33000023b6U, 0xfffff18f0000004dU, 0xfffff488ffffedbdU, 0xfffff0b100000628U,
  0x252000001f00U, 0x9d700000ee6U, 0x281400000866U, 0x2bf00000d56U,
  0xffffe0eb000019c1U, 0x689000022a3U, 0xfffffd7600002be1U, 0x27c000023f4U,
  0xfffffdc3000000adU, 0xd080000538cU, 0x10a800000a9aU, 0x999000025e3U,
  0x3d03ffffff65U, 0x8c400001e8aU, 0x1e00001447U, 0x42400000bdaU,
  0x1fc900004932U, 0xfffff5d6fffff65aU, 0x352500009323U, 0x3dbe0000237eU,
  0x1e9b00000e7fU, 0xfffff7ea00003ae6U, 0x143400001b7cU, 0xef200002718U,
  0xffffe7cf00006a09U, 0x199f0000090aU, 0x1ef400000166U, 0x3a7300000c76U,
  0x3fc00003831U, 0x189a00001565U, 0xffffffa700002829U, 0x10d40000533eU,
  0x1e66fffff342U, 0x29f900001eeaU, 0x367b00001765U, 0x66da00002995U,
  0x21ce00001c2bU, 0x2e8300001495U, 0xef0c1607ff1b011bU, 0x1003e60501ea0f02U,
  0x11e2f7fc13fd0323U, 0xf3e0e2ffd111f30cU, 0x9f0ee06e82a171eU, 0xffd08f0facb0700U,
  0x2190800e2d916f9U, 0x10d8ff08f90e2001U, 0xfd9ff120120f307U, 0xe40616e4b7f4432aU,
  0xb09b3a2fa15f631U, 0xe720b19b0f07f5f8U, 0x30013051ef21704U, 0x1f2a070a061010e5U,
  0x1e0506ef0014fa0aU, 0x1204f70e06e105f5U, 0xf1fe11d92be60d21U, 0xf8f9f0190c100300U,
  0x8bf6e8d0f1a5fd7fU, 0x7ffcabd1c7fe0d81U, 0x230088817f950c7fU, 0xfdf8194b426817fU,
  0xec03980dd35e7f03U, 0x7ffb26fc31aaf22dU, 0xd61eb643e11502e3U, 0xa4e742e1f17f4307U,
  0x4304fe0e1f400eeeU, 0x810673e9bda4a07fU, 0xfce2a58103ff11bcU, 0x3c7fdeb695270717U,
  0x34077f0a3dbf1c9eU, 0x7f57af7ff903f6e1U, 0xdba1bf17ff7e6c2U, 0xaae10ff1fe83fdcbU,
  0xb0fb7f3d143d30f5U, 0x4adb106fb59f1d0U, 0xde0c01fdf4c2fb21U, 0xc01e2fffa140ff1U,
  0xd19e8110f01f713U, 0xe6e1ecddcb0cdd15U, 0xff0ef10aec3519deU, 0x26050a1107460b06U,
  0xff280bd4e41c2af9U, 0xf6c2f80704101b0cU, 0x143e04e30422fc08U, 0xebfb0a28aaec0521U,
  0x5016a1bdf5ef1624U, 0xe813ba9faa16e601U, 0x104130216ec1307U, 0x5921fe2c05eef738U,
  0xe0f20ced18f5140dU, 0x6eb010103ee00ecU, 0xbf0510fe2aed0bf8U, 0x801ea11f51f0a02U,
  0xfc0b7fd40382f8f8U, 0xe6d5addcd28c0bf8U, 0x2281e619efaf0fe9U, 0xc9f09da7c928dff1U,
  0x7f81ea08d444f30aU, 0x1e14cbfaa57f03U, 0xe809c510d61611deU, 0xb6fcd8eafae3e315U,
  0x1c81ef16150c2e04U, 0xcc816481d8e0e7e0U, 0xf1fb81851b7f0e7dU, 0x22da6e8c86c6c50eU,
  0x3619fa1652e221ddU, 0x43dfb5fafd7f7ff4U, 0x7f810e290b7f8acfU, 0xccf80b7ffa907fe5U,
  0x1f81f5080e1f367fU, 0x8112ef2a7ff781baU, 0x7f7fa2b17fd6a5c6U, 0x8c817f7f7ff77f68U,
  0x7f1510d3ab825393U, 0x7f7f8cc47f7ffa99U, 0x8111d37f7f81f87fU, 0xae818194817fcc42U,
  0xc781df7f7f7f8181U, 0x7f7f81817f90817fU, 0x7f04817f7f817f7fU, 0x8e0b4a1181decbcdU,
  0xfd8fce397fdd7f81U, 0x71e656c181c1817fU, 0x7f7fe94d7f7f7f81U, 0x748116da8ff3967fU,
  0xdac87f9e91e4f6c0U, 0x81817f9c81e6d87fU, 0x7f0dd47f817f7f8aU, 0x647fda8190810881U,
  0xf610f0e80181f1daU, 0xf0d6b6bde27f01ffU, 0x1766ff1defc681fdU, 0xb2f2968acb190aedU,
  0xfd74ea0ee241f5feU, 0xe05a167f045cb0ffU, 0xf51bc80bd31414d7U, 0xed00e7dffde5e620U,
  0x1b71ec0f0c053500U, 0xd2746270d1fe27d9U, 0x7f7fa2d51c9e1260U, 0x2adc7f818f7fe219U,
  0x4012f5113adb24daU, 0x5ee2bbde7f8bf7faU, 0x9d901e7ff4937fd5U, 0xcdea0aeef895a0f0U,
  0xa78f40a150233feU, 0xfe05fc2ef7f07db6U, 0xfb030c1feea709e5U, 0x417f307fbeffff8U,
  0xfde91c1efae106f8U, 0xfadcfafcc20b2301U, 0xce92b17e629f5d4U, 0xed0007db1a2f0ffdU,
  0xe2a22e8ee1b33cbU, 0xe119fa09f60afb13U, 0x17d813e6fd011bfeU, 0xfaf9eef0d9208104U,
  0x502d3d5fd0f1e30U, 0xf2f9caf8b3d9f6fdU, 0x805eeed06e613e2U, 0x3d020ff906140727U,
  0x14fbf7edfa10f41eU, 0xecea011404db15e2U, 0xe3eefc1113f40005U, 0xf7fd12130dfff719U,
  0x8f19f87f049d7fb7U, 0xf66ca6dbd60105f9U, 0x19157fdbd9810aeeU, 0x15d49081d4247be9U,
  0xf7017f0ae6478601U, 0xb3e113fc4f3cec81U, 0x7f1e7f22d61212c9U, 0xf1386cd504f2030dU,
  0x47087d1420d94afeU, 0x9ff57f25c17f4a9cU, 0xb8d9d8fd1ef514caU, 0x8197d1a3898cfa2fU,
  0x6129d8109c501beU, 0x4bfb7f9cfbfaf8faU, 0xe1b73bef09fbfb7fU, 0xade1f6edf681f9f3U,
  0x21f0aa23e24a1b03U, 0x138b7f06f009fac9U, 0xf103fa16e71a0dfbU, 0xfb15e219ff1007faU,
  0xee04192fffedf8f2U, 0xfbdbfe0ecf0618fbU, 0xfa1621fff52cf21eU, 0xf513041b09b707fcU,
  0xe15111cdaed20e5U, 0xfd14f407dd07fc0eU, 0xfcfc140805fe0ef7U, 0xb07efffd21a2002U,
  0xc325daf5fbfbf723U, 0xf200daf11f25e808U, 0x1103ecf307ed0c11U, 0xd070fe600f502ccU,
  0xfef0010ff4f2151aU, 0xdc03f10109dcf1d0U, 0x81ffae915effef6U, 0x7050e0cfdfc0d1eU,
  0x15000002ecU, 0xffffe348000047ebU, 0xfffff721fffffa04U, 0x6ac6ffffe660U,
  0xffffe9ba000010e2U, 0xfffffd5ffffffdf0U, 0x3d7cfffff97fU, 0x4c600000866U,
  0xfffff441ffffff47U, 0xf10000473dU, 0xfffffcbbffffffe4U, 0xffffcf1700000081U,
  0x66a00000161U, 0x294cffffff34U, 0x74ba00007a44U, 0xffffde5bffffff04U,
  0x19affffccebU, 0x41ffffffff77U, 0x69dffffddf6U, 0x654fffffb18U,
  0xffffff60fffff2f6U, 0xfffffd70ffffec8aU, 0x2fbffffe799U, 0x6f700000676U,
  0x1e5000030dbU, 0xb45ffffcaafU, 0xffffffc4ffffe555U, 0xfffff7f1fffffc9eU,
  0xb0effffe901U, 0xffffd84000000120U, 0x18b500002e9fU, 0x3904ffffe6beU,
  0xffffe9eefffff5d0U, 0xffffe78bfffff521U, 0xffffff7dffffcf16U, 0xffffd30900000087U,
  0x383fffffdcdU, 0x33b1fffffd89U, 0xffffffbefffffb31U, 0x5569ffffff10U,
  0xffffcd0d0000119dU, 0xffffcd2e000001e8U, 0x7d5d0000d7bdU, 0xffffd0fefffffe26U,
  0x3e2affffda52U, 0x55c600000761U, 0xffffd7d40000557fU, 0xfffffd3d00000a7eU,
  0xfffff14800004545U, 0xffffd6a500006e7fU, 0xfffffe100000028cU, 0xffffe30afffff2e3U,
  0xffffec0affffcff0U, 0xfffff986ffffff2fU, 0xfffffdb1000000b5U, 0xffffe599000004f1U,
  0xcfffffea5U, 0xfffff5a20000017bU, 0xfffffcfa00000879U, 0xffffffeb00006267U,
  0x2f4fffffea2U, 0x22510000533cU, 0xffffe1ecffffff73U, 0x5927000031e3U,
  0xffffe07effffff67U, 0xffffef16ffffd042U, 0x23affffef10U, 0xffffe9eafffffe90U,
  0xfffffe92000041f7U, 0x4c200000b95U, 0x12c00000a45U, 0xfffff492fffff66fU,
  0xe6d7241bf53d0602U, 0xf7dae6d8d918d8f4U, 0xf2efeb21f8dfdffcU, 0x1b8d1381621f0c2U,
  0xb6d82d2ff8e4f2d4U, 0x51b0a15e81f1cf0U, 0x22f4f8dc1ade860fU, 0xd30bdcd51021401cU,
  0x40fadef4e60e8aebU, 0x7fe3b904ef03eff3U, 0xcd03eee215d216cfU, 0xfaf3f3a7edfaa328U,
  0x27f7d5f217cf02ebU, 0xf0cf8ec400627ccU, 0xd5fefed11e3d6feU, 0xa728324fe31235faU,
  0xbd6519e727eb51f1U, 0xb6eabdcc0ef5db02U, 0x5ea1151aec0b21e0U, 0x31f8181027cc4d1bU,
  0xf009fdf221f9d118U, 0x32afef01e050bddU, 0x1f01abe6e9c0f90eU, 0xee4a002e0a1b0100U,
  0xf2d52ae20dedc3ffU, 0x29b87fe212e12bf0U, 0xeefaf3c9fc09e247U, 0xcce41d040a12e0cfU,
  0x9cb2dbf9efe9a79U, 0xf0c08e3fefe3fc0U, 0x98f1f72aa238d3ddU, 0xcddc19e61925d836U,
  0xfc213718e414f70bU, 0xebe6c6e9f9f5f6e8U, 0xf1f90c0b05d7e2cfU, 0xf6d32057e0c8f8d1U,
  0x3621040d271b28f6U, 0x1ffefb161803f8f7U, 0x1311162c2a2016f6U, 0x330fd8061bda2141U,
  0xc0ee45c1ae044b19U, 0x1a28fdf181e8f4ebU, 0x220118e906f51bf1U, 0xc720200f0eb8f3ecU,
  0x520823ff29de02eaU, 0x2906f1f80a25e4eaU, 0x34ee2fbff3f2e9ffU, 0xf812ab080709f7f9U,
  0xf7092d241d3bfd0cU, 0x6dee23ef408d913U, 0xe9e7087613f116feU, 0xe5f80eeffc2f06f2U,
  0x8ef07e0f7ec0f03U, 0x619fcc716c40b37U, 0xdbf2f24efecf4309U, 0x319f910f9caf5dcU,
  0x8ee0de927e006ffU, 0xdbf50dfdff0640b1U, 0x906c9f58f2e2717U, 0xbeb0f21f8dae601U,
  0xf07250b11e0810eU, 0xf2145fbee51bedfeU, 0xf9fde120e3e4d927U, 0xd3f74ffaff05cbf8U,
  0x36da0dd5ff0030d4U, 0x490b1c0c0233e0faU, 0x140116450559c3e1U, 0xcb02020d1208f4e0U,
  0xdbd730270025f4f3U, 0x19cad7ea08e9e0fdU, 0xf600fdd7043211c8U, 0xec1b455ce5e3f4dcU,
  0xf525dce5e8e403deU, 0x1c3e472dec0326dfU, 0x1901f50eebf94515U, 0x9f9e6bd4a0ff44bU,
  0xdff53dfc9d36e9ebU, 0xfd0ecff72df7dd0aU, 0x10aaf412bdc16d00U, 0xc3fce622cb09dad9U,
  0xec55e266df212014U, 0x1cffe9e81917dbf3U, 0x2204b6363ac58189U, 0xe81aebe7ff30c7b4U,
  0x1dcd03f618c128e0U, 0xfb17f01f99022e8eU, 0xe81b0e211feceddcU, 0xd4d7dd5dd81cf5f2U,
  0x64041bbc2516f926U, 0x1041cc192004050bU, 0xc13603fe09070cf3U, 0xaf0a15f4fef9f736U,
  0x1b010fee05f8ebffU, 0x6f3fb4804cb000cU, 0xf207f3217fff1a1aU, 0xeff001f0fcfadce0U,
  0xe30a0a0115011210U, 0xfe102f0d2dfc55e7U, 0x2be5c50a25f91624U, 0x1317ef07f9030f03U,
  0xe9fde007122331eaU, 0x3510fcfe20022bdbU, 0x4f70b3afb052432U, 0xdd17ff09c914f927U,
  0xef184119320f1614U, 0xe0fed7040007fa09U, 0xf05fc0efbfef714U, 0xc8f507cd70efdf1eU,
  0xeee12cddfafa0cf0U, 0x35052601d30626fdU, 0xf90a19fdd1e5d60eU, 0xa1d1a3e1746e1e9U,
  0xe411f3fad1baf64cU, 0xd872f7e710b503f1U, 0xba26f47af8d7e733U, 0xf6ef81fbb1c820e6U,
  0x522e35a38f83e0fU, 0x471efe2617fa0307U, 0x1b27040642f1e840U, 0xf2fc2df52857d3f7U,
  0xcef90b2fcbca37f5U, 0xd7d214c0fff1cfcaU, 0x150b1c0ada0ff60eU, 0x2321f02b02ea002eU,
  0xd1dbf22c0b321102U, 0xdecddffa04e5ddd4U, 0x12000cf2fffcf8f7U, 0xf1f8f8fcfc591505U,
  0xf54fe7faecfbbaf9U, 0x2f00f8f80a09fbf2U, 0x1e5bf6fbf4f3ea09U, 0xf80ef9e503084613U,
  0xeefce6f7fffbfeffU, 0xff0bb505f9fcee00U, 0xfb3bf1fcfbfef405U, 0xf330095402f803ffU,
  0xf514f905f843081cU, 0xf5e8f4eff215f7f8U, 0xf5f9e6fae916edf7U, 0xfaf4e7f9227fde08U,
  0x4508fe13094349efU, 0xfafdfd2703fa71fcU, 0x83af0f2f807fe0dU, 0xdeeef2f22cfb5ef2U,
  0xf203232ac7efcf0bU, 0x2966bbf508e02cfdU, 0xfefdf1ed12f6c9adU, 0xfe1de01bfc0603feU,
  0x5000a151eedc0d6U, 0xf93d151be6e3c2f0U, 0xef2707192825ec0aU, 0xedf711f159fdfadeU,
  0xdaf4cdf4d909b65aU, 0x2903d500e2d1f4f6U, 0x274b0827de1423b8U, 0xdeb0f350219a6bcU,
  0x3c9d024c1d9f5edU, 0xec41dbfdc609eefaU, 0xf9b82c0ae5f4fcf9U, 0x9cf6f694f309ceebU,
  0x46deed242718ee7fU, 0xe5e8fc3c0e10d4e3U, 0xd6b3eb35f9f30ff2U, 0x8113f8dff31dda29U,
  0xc1eebf9de08f7d9U, 0xf9d613e5001723eaU, 0xd104e6f333120508U, 0xd8dbe40653152726U,
  0xfbdf1418fffe0e03U, 0xfbd4bef528ee2037U, 0x241f110eb6f4f008U, 0x292de91900262201U,
  0xfbdd74caf30fe2ddU, 0x5f010711f8ea080eU, 0x2421f1ff3fcfc807U, 0x100cf3fe3a1c19f7U,
  0xce70713bb14f50eU, 0xde0028fcfcf82bf6U, 0xdbf90c12f010c8f4U, 0x10ffe2fde01ffd6U,
  0xf1fcf722f7fdef1aU, 0x190ecffeff05ec07U, 0x4090f03dbe01603U, 0xf2f4ff7f8dfff314U,
  0xfffffab8f9f30be9U, 0xd00df02dcf50a12U, 0xe0201804e9051ea8U, 0xfbefd8f80bed09f0U,
  0x8e3fce9f0f9350cU, 0xcff1cf8e0ed0afdU, 0x1fa01ed2709f300U, 0x80911f0ff06fbffU,
  0xf707eede040826feU, 0xf908f3f20207U, 0x1c271ef9fd0c1711U, 0xff50ec08f7fd09ffU,
  0x2e2f616e9f702eaU, 0x140ffefff1f820fdU, 0x810af9feeadb2c07U, 0xdfc7ee2c132d1bd9U,
  0xeffff9fd03f6dc1aU, 0xfa384405061a0303U, 0x27ec231eb2bcfeffU, 0xf21502d5ec1021cfU,
  0xf6f3f42a0930eb22U, 0x1a000d523d001326U, 0x2e171e391616e73cU, 0xe8118f1e0b072d20U,
  0x3e5e1ee231af8f9U, 0xbcd6e7d1061ecdecU, 0xe4090816f2e5fa2cU, 0x3b5edf0211ae3edU,
  0x85a0420261a14efU, 0xf11b1f2217e12f14U, 0xc9ef0729b92abfdfU, 0xd317d4e4e50dec2dU,
  0x1acd341a03271001U, 0x1af9acd7c2fbdb22U, 0xd0cddfaf239cee9U, 0xc00030d60b04e914U,
  0xc51911f00b02fc47U, 0xeb05df002df10607U, 0xc7be0b35ffb913d8U, 0xb6f97fb01e033ee5U,
  0x1733294321f6c60aU, 0x70ef1d01e32db17U, 0xf617cd02fe50dd30U, 0x90ef6dfcc03db18U,
  0x1415e6290a290d59U, 0x25ed141d211201e6U, 0xd5d924141e07ed1bU, 0xf0722e608e90817U,
  0x2036caf5edef4501U, 0xa3ee1bfb0f39f90aU, 0xc3ffe002d0ead8e5U, 0xe315f7e1f6f5f638U,
  0xca0404f3c4d4b903U, 0xea06ccc72cb90425U, 0x51407fb3b79dfd8U, 0xe50bff1d00efcbdcU,
  0x3fbeac7061cfae9U, 0xee90df9bb1cf8c4U, 0xd925d610be26f1e0U, 0xf4cdf8ef38efe4dfU,
  0xfb32d5f6cfe21c37U, 0x12d3fa14e20deb9fU, 0xd6b8ee06d6f5c8f6U, 0xcf0e1cf1aeedf6e1U,
  0xde2bbd131ed3e2d2U, 0x86ec8d22d812fbf9U, 0xeb02fed2010ddd2aU, 0xe4f4047fdbfbcfd9U,
  0xf337150fd933efeaU, 0xfdd80fccdf0d24ebU, 0xdfb241e1504aefcU, 0xdaaa02470cf5f2beU,
  0xca2009adfd6f24feU, 0x1330b503ed032aeaU, 0x3f080fcf069e51dcU, 0xb22e0a47f7e808e0U,
  0xcfc46a65ae32c25U, 0x11d0efeb0903fde2U, 0x1bdf0fa4e50bbb1fU, 0xe239c50520f51ae8U,
  0xd2df16dc01250beaU, 0x31fe19112d15d018U, 0xfbb4ecdc0f201b1dU, 0x283c19e93eba224eU,
  0xb9f681daff243a00U, 0xf90a0813ba4d0d4cU, 0xb91bd30f080d421bU, 0x2118f1ff031523c9U,
  0xdf404fc08f1b8f0U, 0x39f90633ebd0fb1bU, 0xe6fb18eef4d910e9U, 0x16efeebce6f907c1U,
  0x81e0be30fff1814U, 0xfb1d278e071c1dd2U, 0x33e62303f024f90cU, 0x3a16cf0ff6f3dffcU,
  0x4f8ebf006fb0e7fU, 0x4f1f1b2a12104404U, 0xd241014ec28dcfeU, 0x1a12f30225edbcfdU,
  0xfcd041e431a21f7U, 0xc2491e16f9e70e04U, 0x1d15f3dcf4fff81bU, 0xf3f70c1816320c05U,
  0x9f3073620f738d2U, 0x8e114f3f6f7173aU, 0xc0042ae72b12f90eU, 0xecf3d4cffff91d0aU,
  0xcc05c707c4b4fa33U, 0x20073734fabe3216U, 0x185cfedd02d4bafaU, 0xea0e71b64fef562dU,
  0xe6f82a2822ec47fcU, 0x25ffd0e7ee33c1e2U, 0xe9d17ff9d70feeafU, 0x58d2eef1f90be3bdU,
  0x39d040e7e81eeadbU, 0xd3cfe31c0e2e1008U, 0x18169f04f315f702U, 0xe9ceeaef16fb08e2U,
  0xe0fd26bbe0b431c5U, 0xd8e12213d3f21313U, 0xeb7437f609fdf2f3U, 0xfed5162212052424U,
  0xc4262bf5ff0a0a01U, 0x1f08dfe71e1bfbfcU, 0x140e18f363361cb8U, 0xf41415fbe8f9df00U,
  0x48faf2f7f114c4e5U, 0x70ae124bffa01ecU, 0x2c03c6fc0c1025d2U, 0x50f07fbf31321f3U,
  0x7e4a17f0114cd12U, 0x191acafdf1070d07U, 0xea000a5bd541080cU, 0xd818ee20e90408dcU,
  0xec3c910171212d9U, 0x601faf6e61df2dbU, 0xed0af9060e1aca2dU, 0x170b01d20ceafed5U,
  0xfbeee70c1fcfd8ecU, 0xdd6c813e0bea58cbU, 0xd9390d000ef852ecU, 0x13f09589dc0c1deaU,
  0xffeadf24faed2b31U, 0x234ffbcfd8c1faefU, 0xf22b412729dcf2c7U, 0xd835e94085c9d902U,
  0x13f1cdfef210ea03U, 0xe2a33c4c1e7ebeeU, 0x52db0e9904c05321U, 0x2901f219891a24f2U,
  0x9cdaf81611560935U, 0xb734250adee62114U, 0x395e8e1be824ecf2U, 0x1aba04382dc0d7deU,
  0x12d50c0efd3fe1c9U, 0x3a3dee4713b3f1eeU, 0xe5f8f036e4e30d5aU, 0x2727e802f71008feU,
  0xdc056fec54d6ea4aU, 0xf6fae7fd0e185f46U, 0x21107911e50c7fecU, 0x5fec08f801090abaU,
  0x3908350003f6020aU, 0x7fb14ef15251a04U, 0xdd1047f6d71df625U, 0xe8072604fd6a0c3fU,
  0xfe104080908eeU, 0x115604f0ed0703dbU, 0xeeeb54a9d3c2e6d8U, 0xdb284a40050a01e3U,
  0x162104d8f610f465U, 0xe8f3f112fbda0d1cU, 0xf80f5501f5bed00dU, 0xf31e54f3ff25fce6U,
  0x240bebe0eeeecb2aU, 0xfcd2ff41f905e741U, 0xdaf4dffc19281a14U, 0x191a0a1903ece7fdU,
  0xdb040ddc7f080161U, 0x24033605dac4f120U, 0x2013f60d309e20fcU, 0xeaeef72002f6f2faU,
  0x72be2660612e1e9U, 0xe4e90cf9f0ece3edU, 0xfbe41a1edee32e3dU, 0xe10ad6e7f90d6a06U,
  0xe604e7e7e8d903e4U, 0xe1305f005f110cbU, 0x231b09ebf005ecf8U, 0xbf50308ec0111faU,
  0x3d11dd98ffd5d314U, 0xfe4e201131710faU, 0xf2bee0e13e0bcedU, 0xefc8fa28f90f0ec4U,
  0x2bdb1311d30ac110U, 0xf22de7a81f8d9f0U, 0xf6f606ea47e9e840U, 0x14e5a0ebf6c716c4U,
  0xfa0df636cec4f20bU, 0xfffb4842e835eb34U, 0xb7e71043c3044806U, 0xaa2416e3efe3e70eU,
  0x2f0fe8edc11bc2edU, 0xff00ea410621eb1dU, 0xd8fff714fe280103U, 0x13eb06f320e90ad6U,
  0xfdf3bbf904fbff12U, 0xe87e13d90639fad1U, 0xd81248d825e3dafbU, 0xb4fa2bc5e3c9ec04U,
  0xb4d3cbe6fb080beeU, 0x10e1203f7efdab6U, 0xeffa0127e50007dcU, 0x21fb09250cc9fde5U,
  0xdd0504225122070bU, 0xfae20620dae1e830U, 0xff0b17f0f9fadff4U, 0xf93bd62fea1fd320U,
  0xcfc0406dc180ef1U, 0x21effdfade06f2f7U, 0xfe54ffab12d447f9U, 0xd8cfe8e0191f0a06U,
  0xd9f80fb706908110U, 0xbb36fefcf706e7fdU, 0xee091f2be8d31a28U, 0xafdcfafdc7350001U,
  0x1f03d8e7f422cf47U, 0xe00dc28ed2eeb22U, 0xeed4cff3bcdc18e4U, 0xe181c342fee4128U,
  0xfbfa0becf915f0e5U, 0xea67f0f414fe16deU, 0x1ae7ee068117f30fU, 0x414e93f180aec26U,
  0x6e9f8e1d51df0f2U, 0x4b1b3301130be11fU, 0xabffc50133eee52fU, 0xb91316de0dfcecf7U,
  0xf7f00e0d1dd5b3feU, 0xfe1218d3fd1d4ce8U, 0xeaa2be0ee7c21dfcU, 0xf90e070ffaeb060eU,
  0xfb101304ebe6d7d3U, 0x2bfcce172ce5f93aU, 0x2e2eb0e13fedb2d4U, 0x17eeeb10fa490e1cU,
  0xffffcedd00009049U, 0x42cffffffcbaU, 0xffffb022000052d8U, 0xffffb9ba00002d99U,
  0x161e00003f06U, 0x4cec00002174U, 0x4bd8ffffd34cU, 0xffffcb5f000028aeU,
  0xffff7f9c00000a95U, 0xffffcfd800003af7U, 0x15caffffbc61U, 0x3a41000083d0U,
  0x6d0d5eeb457fc9fbU, 0x22d1042788eef1a9U, 0xe83025adaec6e1faU, 0xfc0106cb29e404e9U,
  0xd6e1201009f10f81U, 0xdf3b090acef009d9U, 0x111cfecf57f3ccccU, 0xea7fc30ed4fcfab2U,
  0x43d1d7e9ea1128f8U, 0xfc1dac6fdee28bfU, 0xe7e0218f5d05d735U, 0x6900d281f8ea0ac5U,
  0x2d7ff3ead7f6dd0eU, 0x9703480205e613e3U, 0x814dcefb20ef8fbU, 0x14bae6c906fdf7d6U,
  0x15dd1cd62017f815U, 0x1de8d981f1d204d4U, 0xebe150ee43f5e7bdU, 0x81c0daf48d51bbb5U,
  0xa7f5fdfaf3becc1cU, 0x429533e88c819ff9U, 0xa5a651a9ffceeaf8U, 0x111d8b37d0ceb84U,
  0x14470e2cab3a132bU, 0x445fad057f08ea43U, 0x35d1eaf9f8dfe2ecU, 0x2b440b7154b2bc05U,
  0x3bc74927b4bffc00U, 0x48e44e6a77fde87fU, 0x4f020a26652c0d1dU, 0x75032a2314fa19b9U,
  0xd231f7a4924077fU, 0xdfffd34071a31ffU, 0x81ea2ee2e7190825U, 0xf9340b193508a403U,
  0xf4f716e22e13f642U, 0xcaf5dd461c4cfac2U, 0x81fd24cee1e6e504U, 0xe6111c7bded2cabbU,
  0xc8bec919ab1d0e20U, 0x1dbeead63d1cd881U, 0x61cccaf1e1e88eU, 0x36fdfe3b81db0c09U,
  0x1e00f8fc02cbf9c1U, 0x15ee13f40fdbfa7fU, 0xd3b101dcc8b1f31eU, 0x682828072f27dee8U,
  0xfcc6181dde182b1eU, 0xb9811de0ea330e46U, 0x8d286a1523080e07U, 0xf02a31f620f718efU,
  0xbc5bf1e7f1bdfe1U, 0xfbe91ebbe6ecf4efU, 0x920fe1cd2c531d0U, 0x811709cc53f32f23U,
  0x5f6152e221c03caU, 0xf0ecc81dceb14329U, 0x6ee2399ee018158U, 0xfd38a9857dfcf1b1U,
  0x2f41e38b81018eeU, 0x308154d2e1e52a6eU, 0xcf543e0939eef9e8U, 0x1b1df3c82b0ec55aU,
  0x2824d981131b164eU, 0x30f1335303b2c7beU, 0x618ad16e5f6c02dU, 0xec557fbefa0319ceU,
  0x6beeee2602dd0819U, 0xf2f7f600dd35271cU, 0x7f49065038bf144aU, 0x110340e60aab05e9U,
  0xbb9df530c55a1f93U, 0x81fd01d5aaec8e3dU, 0x109155c081ab0a7U, 0xf816d6c9f0f51aecU,
  0x2a967ff3f5d30b6bU, 0xde5123fd27e519d5U, 0x81a01212be02763U, 0x7f8e0603b5111120U,
  0x49e9a1d00a03bf24U, 0x7d31f0d21fffb35U, 0x8d8b47fdd2f2f281U, 0xfdf7fcf71b2ffd0aU,
  0xf37fc44f4f53de3U, 0xa8ed229af301027fU, 0x36afcf2a135c2b0aU, 0xe8e8a5bec9178a8eU,
  0x36c718810a6cd3f5U, 0xa1caa4680c65a76cU, 0xefae130bee0b1449U, 0x81eefbfecb27ef3dU,
  0xd2fd3e1e04a7a74bU, 0x12ed372320ca2598U, 0x2f158106075deeffU, 0xbd6995060ae6461dU,
  0x3ee4bf833e5007fU, 0xd4e0ace8cdfeeb2eU, 0x441c1e0ff8fb21bfU, 0xf61aebab7f9a417aU,
  0x1dfdebe83cc6f810U, 0x3d3525f7fa135920U, 0x83c0ee061f20dfeeU, 0xded809ef81eeeb0cU,
  0xf40f201ff9b8fd0fU, 0xfe261bfbe618d834U, 0xc1708eaf8d7e328U, 0xfad7ffde102f981U,
  0xf92002d9e0a40de8U, 0xd8c724d02626d381U, 0xcc58620eb8bbf2deU, 0x9ee041979fb0204U,
  0x21e6f0e3599f2018U, 0x83ec81330cd5b5b1U, 0xe2a903041048b546U, 0x76c7a57f8e4010ecU,
  0xb4ec30f8cee10a4bU, 0x15e20608d82d0854U, 0x421b36c4c7ee247fU, 0x2dfd60044616e8faU,
  0x1083bd513f6117fU, 0xff06c3f3dbc8f720U, 0x591557f0fd29fed2U, 0x1ab931c2ded9000cU,
  0x18b512d3601521f8U, 0x76d9c68121b4011aU, 0x120de2de49eccdc1U, 0xf9a5813da2050fe4U,
  0xb8c21c93150609faU, 0x8d60cea85f249fdU, 0xb21145889f047f5eU, 0x2028909a230ba2f0U,
  0xd7ddcd4405a8b537U, 0xcd51adfefeb3a7fU, 0x114f08e5381ec0a8U, 0x9d09e824471e3901U,
  0x2d7f78545723cac9U, 0x19012aea428930fdU, 0x131a06ec217fdc1eU, 0x2cfc020b091c74ffU,
  0xc503e5db89f1e22bU, 0xf03a1ac74e382110U, 0x241c162f64cd1d81U, 0xf0f92816bbf812f5U,
  0x8c717c4ee291bc1U, 0xd7a319c081030ad2U, 0x1ee5fc2601f407d1U, 0x22d80b2a0519df14U,
  0x29d118cfa51f1c81U, 0x3bfdf42027ddd60aU, 0x2f0107bf39b7fdedU, 0xb8ec26e8da52d981U,
  0xe4e447f9232aa211U, 0x1004dfe1e3061311U, 0x7f5b2d0c38c71234U, 0x2ae53800e605fcf4U,
  0x515998ccc13811fU, 0x39f81892e026ee34U, 0xe8e6f64805341341U, 0x7f140df7071f22fdU,
  0x4f3cf91f2ff105eeU, 0xea0005e30bfcfc03U, 0xea4c3131f3dcc7d8U, 0x8c271f174def2a04U,
  0x1705527fe63151dfU, 0xf714d6be15fc9f13U, 0x2ffc23810857eb21U, 0xd3f4cd6400e8e715U,
  0xd05431d0cae4fe0eU, 0xf5e5d233cac90c2bU, 0x6cc7fe5db9ce2e6U, 0xf62303d72e06da07U,
  0xe0fa007f4ec61faeU, 0xe3fd4f54da0e1cfeU, 0xe817bed905ee05f7U, 0x7f1dda462c108eb6U,
  0x35bed801e1e1072aU, 0xc4f1180dcafdb615U, 0xc5ed39c85be84981U, 0x324f4a1adcbd15e5U,
  0xb2ef0b161b3a2cccU, 0x1a21231e150e16bdU, 0xcc1020f90681361eU, 0xeda02db19df00a1aU,
  0x62d8f40f92fdf321U, 0xfefe9a818f8ee1d4U, 0x14e9ec14450ab3bbU, 0xfc2fdff181b24ecU,
  0x7fe5e4c737c6c71dU, 0xd3e82645afcc171cU, 0x1281cad731103a35U, 0xacfd4ffae812c1ebU,
  0x25b40ff8b40ce309U, 0x6e3ea3035b185f60U, 0x137f1551179ea411U, 0x36f12d7f04d855f4U,
  0x4fac0b1ae360215U, 0x7838edff1401c108U, 0xd7f5ffe210fbede4U, 0x7534016067f0af91U,
  0x6a3d35688140539fU, 0xc7fbbf90f41f83dU, 0xd23b100aeefbe348U, 0xb005e6cbf11e23daU,
  0x25e8e9b2a9ffcbfdU, 0xe4d3d2f03e90c2afU, 0xc14a1beb2f35f07fU, 0x4d3a211cb013fad3U,
  0xce5f030b4d814ce9U, 0xd23bcbe2be2d4b02U, 0xffd2cac094b628d6U, 0xd607eab44d1181cdU,
  0x41901ee2eed348aU, 0x12e0c28c21bfaa4U, 0xff200eb9dd03ecefU, 0x10f2faccf82fe37fU,
  0xec430fdf05ee392cU, 0x817a699a572249feU, 0x2d36dc2627eb11fdU, 0xd28101d3dd172d35U,
  0x750eddf0a314e3f0U, 0xf8e5e098f8cfe6f0U, 0xc719bf1916811df2U, 0x1a4e260e493d23eeU,
  0xa3e40aebf8f020e0U, 0x29ffbae0d2fb032eU, 0xa1da2e087fea2fd0U, 0x2cfd3cfdfed9b021U,
  0x15e8114db8da0adfU, 0x48135c8f9ec225aU, 0xea3a4cf6320ef8d0U, 0x8476df4d02bcc91dU,
  0x679c96781fcc63fU, 0x96d6317aa2c5c725U, 0xf3320431130a13f5U, 0x95ca33c9e0dcb602U,
  0x2f594a7f6b3efdeaU, 0xf2ae46da08fcebf5U, 0xbc3cf1f2381e003U, 0xbbeb923afa55a5c4U,
  0x715511a272b15f8U, 0xe2e541b708e37f4dU, 0x70add4122729024dU, 0xd1e18fa9ef125adU,
  0x1335cbd7bb7ff111U, 0xa0862f6f9eb1376U, 0xda4f33f5db7fb19U, 0x1a204036fae90d05U,
  0x37312d5225dbd87fU, 0x134ee1437ffdb295U, 0x2db3184953e40321U, 0x20e4604cf700f41dU,
  0x16fef01d03f6112fU, 0x818f10bed21ff5e5U, 0xe7ea3af412f3f5f6U, 0x27362755102131fcU,
  0xe8482cb735b555f0U, 0x31e8d20e118188dbU, 0xf4d4db0103f607f4U, 0xd724d30b7ffd0b0aU,
  0xfb191ee70cf0ef0dU, 0x58bcf4cc2ca7de0cU, 0x43d7ffc41ef58107U, 0xf6e4d08e47d452cbU,
  0x3d2fa332f12be77U, 0xe70c0c25c41ce743U, 0xa0ecffacfcbaec7fU, 0x1f348124e49a33cdU,
  0xf03066045aec2e32U, 0x17fbe4fd1bf10e00U, 0x1d8e01d1c18ee6cU, 0x7f04fd3dc614f4d9U,
  0xe610d7b1eaf1e64cU, 0xb03b90dbda4c9d7U, 0xb9fcdbeb40f381efU, 0xdb2500250ee638a3U,
  0x3f3e30fe7ff528d3U, 0xec2d20eea210f31U, 0xd5afe8d2e64f2c9fU, 0x960c11e6811df81U,
  0xfeb0e82d7600f509U, 0x18066c29cb2f092bU, 0xfea50add08fbf705U, 0xd9c4ff5808d105ffU,
  0xfbfdc319fe7ff8e5U, 0x81c7cfe30ee6d0f1U, 0x160b256fef0b4bf7U, 0xbdfa00fb81a00422U,
  0x1ec3e20adcd01506U, 0xd3e6ee60f6e11d05U, 0x2328f6c9127f4311U, 0xe8fec8816d3a2b3dU,
  0x6e28fa446bf54081U, 0xf90c30f6c1b34030U, 0xe41075eedcb00c02U, 0xda0a4c091b0ea39dU,
  0x10cfd763d7b57f1eU, 0xedf71dea322be913U, 0x7f07ea2614e73df0U, 0xbf229e3f1d423fcU,
  0xd82b1764bc05f581U, 0xfe33eeea202cc2e2U, 0xe3bfaedae81abd4fU, 0xfbe8f755f5f30681U,
  0xfe1302082e6703f7U, 0xcc008123fbeffc23U, 0x3e0026dd14f92ddfU, 0x727481550ef10465U,
  0xe07daff27ee08e0U, 0xe3f633e022bb001bU, 0xb89f810a9f02f007U, 0xeb56c11df5f42a11U,
  0x1cdd4e5581191bcbU, 0xf14d6ef5c401a30dU, 0x13b3c83ae2f5dfc3U, 0xb2f33781bee40accU,
  0x8c1319a756086402U, 0x2811f5be17e138b8U, 0x31fe0c906fadff2U, 0x33237ff93790f8ffU,
  0xdbe8ef09071613fcU, 0xcd0616f2f93af554U, 0x4a7fb055e519daaaU, 0xbefed205bdb6e51dU,
  0x34dddcfdf31c0c7fU, 0x7b44cdeb19be1a5dU, 0x67ee76d40234dcceU, 0x2f53def28ea077fU,
  0xd6c6c8e8ce0cf232U, 0x363f0d270bec43cbU, 0xdc0c149d1d232214U, 0x210d1d1052e51c81U,
  0xdff20bcec9e32de3U, 0xd31cb2a8e7c62528U, 0xfe772b122f1edef2U, 0x26f6dcc881f44be9U,
  0xf010084ee7f1f981U, 0xdbe5e30eaa6d01fdU, 0xf5dbc220f2ffdaf7U, 0x42c1ef0e1abbef3cU,
  0xfa2edc45b3f7f11dU, 0x81db2bc9f2cd143eU, 0xe9f103dbe60e1415U, 0x6f042e274535f2d1U,
  0xd6227fe0ebcc100aU, 0xd6f16c2ad527ba1fU, 0x3bd75531810418f7U, 0xf5dcf3f233a8b12cU,
  0xd29a4891fbf5bef9U, 0xfbcba4d3d81c60dU, 0xb44cdf17d665e5f7U, 0x1d7fcb61d4a5f6a7U,
  0xbce8ff000518266eU, 0xfc0811554f6ad6dcU, 0xf34a2a11e0fd24f7U, 0xdc18cd1cb47d2381U,
  0xf3c60c30ad54be1U, 0x1224e27f02c8f817U, 0x9d91102e2fddc2cU, 0x730ed3a3c19e602U,
  0x193b07e7cf07e1ffU, 0x4c49d3a3062a1ac8U, 0x237c7cbd20f44a7fU, 0xf981dd3225b1033aU,
  0xe5ecdb7402e48beU, 0xed212c27083154fdU, 0xeb40b0cd24d8d9f8U, 0xcb7f962955fb0191U,
  0x4abdc6e7de0ef54aU, 0xff8106e705ca1610U, 0x1c1d2cf7ee0cff05U, 0x1c21dcda0acdea2dU,
  0xeb293fadf90ee1U, 0x208143caf7ee1e63U, 0xd84f2c142b0513e4U, 0x1929ed17c881f9edU,
  0xe0391ee1e2f4f60fU, 0x5224c73522fcdb18U, 0xdb7c3ceceffbd5e1U, 0xa7012a595af326ccU,
  0xf904627f28f81601U, 0xd18ab0eecfd27eaU, 0xc02fb063df881a9U, 0x857205c080debedU,
  0xee2abae215140a0cU, 0x3c6eae1b4d02f432U, 0x4b81fde30ede0e37U, 0x14ebf7fbdc111900U,
  0x7fe1f4ddebfa1fc5U, 0xf1232521ff1310eaU, 0xec2cfe1708ece7d6U, 0x7fe70500c2d7ecf1U,
  0x4909cdea131016dbU, 0xdc147f0e4cad41cU, 0xf685d708f3014ba5U, 0x81b56db6e1eed1ffU,
  0xe909cdfcd0f2ed99U, 0x76f352271ee3081U, 0xbfdfe9ede4c1084bU, 0xdb28e92ee2e20aebU,
  0xe3050a1435e681f0U, 0xdf344a78f3483995U, 0x70b5216ef823df2U, 0xdc0d81eddb9ce0eeU,
  0x25781ac70958055aU, 0x93251af0f2bd8eeU, 0x4806d88116f3aa2aU, 0xaa26d24006fbf230U,
  0xdbe937c0ea2ff8U, 0xe6e0f77a158121e2U, 0x1f162d931e675726U, 0x2a457fc115d9f3fbU,
  0x451450d1f752d610U, 0x15753dc6411e0f6cU, 0xfa2c08edf003db11U, 0xe0dcbf1f3631fc81U,
  0xa0a0cdde9d6fbfeU, 0xf78a05ee9ed6113dU, 0x277f2fc88ff4c693U, 0xf936246408092130U,
  0x18f7df810cfaa61bU, 0x18f40191fc67de55U, 0xeb11eb5dfa54f71bU, 0x1daeff1df099eb0aU,
  0xfa64cb3c6f5080dU, 0x74d68e9c7fedde24U, 0xd730c9f0fefd14c7U, 0xf16ed5397f02fbc5U,
  0xaefb1febe1fc23c3U, 0xfed1e0ace50415cfU, 0x1c5d4ca5113e1fdU, 0x2d05f981e1030acbU,
  0x103f00009287U, 0xc7affffffa8U, 0x6784000000acU, 0x4ab700000759U,
  0x7ca600003467U, 0x30c500000f73U, 0x3153fffff07eU, 0x327e00001a01U,
  0xfffff5ea0000410aU, 0x3a69000038e3U, 0x27de00002fcbU, 0xffffffb900001cfbU,
  0x307d00003126U, 0x282d00001ff0U, 0x43be00001fe9U, 0x1be5000020b5U,
  0x152500001bfdU, 0xf83ffffffdfU, 0xfffff619fffff50eU, 0x1c2e00002d0aU,
  0x145c00002026U, 0x5de500000c4bU, 0x1358f0000103fU, 0x365600002ce7U,
  0x24f5000017fbU, 0x87cfffff45eU, 0x73b400001409U, 0x19b700000657U,
  0xcd400001cebU, 0x165d00002757U, 0x399700000ceeU, 0x2841000011ebU,
  0x1ca4ffffe58aU, 0xfffff5040000171eU, 0xffffffebfffffa73U, 0x2c1ffffef6eU,
  0x2ca400000a25U, 0xd100000320bU, 0x41de000025bfU, 0x29c5000032abU,
  0xd6000029e6U, 0x401900002997U, 0x19ce000027ffU, 0x1df800001e16U,
  0x3851fffff083U, 0xb6900001483U, 0x133000023f5U, 0x8bb00000c9fU,
  0x6b55000019a0U, 0x1cc8fffffddbU, 0x26ed00002e42U, 0x2e6fffffd2b1U,
  0xfffff7d70000057bU, 0x3ad000019baU, 0x1f3500002458U, 0x38a200003593U,
  0x114400001865U, 0x38bc0000196bU, 0x41fa00000024U, 0x319c00002951U,
  0xfffff67dfffff38dU, 0x139300002c50U, 0x266a00002e84U, 0xfffff1effffff5a5U,
  0xfffff86300003764U, 0x1c4a00001dd5U, 0xfffff4dd00001d12U, 0x3e0000001defU,
  0xfffff476fffff927U, 0xfffffda7fffff96dU, 0x49e7000021a5U, 0xaa70000340cU,
  0xf808dd3685fd00fcU, 0xdf48cfe2db5fdf2U, 0xf602f609ee0b0bffU, 0x1f08da0914f2eff6U,
  0x4150ade0b181f0eU, 0x11d2ea9306ec2e0cU, 0xac70614ebfd08aeU, 0xa001f8f8f1fbe9f4U,
  0xa1d0fa150a301218U, 0x958ecfad5d9ed2bU, 0x81fd1610f50cee0aU, 0xefe17fe9d30502e8U,
  0xff130df0b1280104U, 0xdfefa0ffd182715U, 0x100504fe190a0114U, 0xd3bd1114dc06060fU,
  0xfa28e022f51af8fdU, 0xf10180427052015U, 0x1de2722c97f7f10U, 0xdf03ce32c5982aabU,
  0x28e8aee7c5060eecU, 0x7ff992e1c01117b5U, 0xe5fa11d17ff42403U, 0xe48181dbdaf9fa7fU,
  0xbd81fefb292debefU, 0x9d46a8f4e717dbe3U, 0x93ce8133517ffd05U, 0x59c7fdfb8e10a20U,
  0x3f057fef18e03113U, 0xd3e949f7810df581U, 0xfb06fadc8106fcdaU, 0x7fc606ba1c7f8122U,
  0xe104fbd87fcdd0f2U, 0x79bf7ff1f27f1213U, 0xffcd109f35b65a05U, 0x437f6ae04d11392cU,
  0x170efe2c1dfefeefU, 0xc0ea2fef80a72e4U, 0xf815d01820f509feU, 0x1bfcaf090ae8ffecU,
  0xef020df011529f8U, 0xfdcfe78f01ee0418U, 0xf80303e3eb021035U, 0xa6040b06f1e61be6U,
  0x812af70ef3f9fc1bU, 0xeffa26fcf6d704f0U, 0xafc2407e5eae70aU, 0xe3e410e8d0f30ee2U,
  0xfe1901f0b91f031bU, 0x142c0a0e0717b1cdU, 0x4f8fbe614fbdeb8U, 0x212b0f04090cfb10U,
  0xf6f8cf140614f5fbU, 0x7f0a0519190b2631U, 0x7fc03016b72cf9e9U, 0xf58ed0257b741381U,
  0x36cabed60ce61300U, 0xef7fd5afcfdbae18U, 0xd17f11eef37f24ccU, 0xb70ea4dff6057ff3U,
  0xd0e9cc7f360e4d1dU, 0x8cb05b49e844f6e5U, 0xaec149344975c404U, 0x7b7f69eeeefbe77fU,
  0x5cbcf0da221b17fcU, 0x81e54a8f30bc7f92U, 0xf227efea622cfad8U, 0xa82e7fd020ec7051U,
  0x236c7cc6d7cf12f6U, 0x818ece7917ff1e02U, 0x47f7f8181d1596dU, 0xcc02f5dcad1e2e24U,
  0xc07f7f2fd4daa17fU, 0x95edfa8181248160U, 0x81c77f9181878181U, 0xd2ea447fb47f7f7fU,
  0x7fa3817fbc8581aaU, 0x9e70fc58a17feeb7U, 0xb4f27fd77f7f817fU, 0x7f0faa817f667f7fU,
  0x3bf4627f7fa0ae7fU, 0x9e3ef81817fb29dU, 0x21ccb49b7f7f7f7fU, 0x697f2e3c58dbb29dU,
  0x817f8a7f0f7f9584U, 0xdfbf92be81d04748U, 0x8110817fc97f7f7fU, 0x1356be817f097f7fU,
  0x81c7d2042ecc7f14U, 0x3cac819b62817f81U, 0xd3ca4829a43af5dfU, 0xf57fb8230081dc9aU,
  0x377f997f5c7f17f7U, 0xed92b09be2ccb119U, 0xd7fe0efdd07e1f7fU, 0x3316a2f27f13faecU,
  0xfc59aca429194af1U, 0x90a6ba6ef149e9fbU, 0xad7f414f2ca27f05U, 0x81f59bececfb4d17U,
  0xd87fd77f2a140bf5U, 0x8fe6f281287fd88aU, 0xf3287fd3542e7f7fU, 0x4698e9d326e80194U,
  0xfe810dd7e0c43b13U, 0x4f7fd9ed12f20ff9U, 0xf4bce8972dd55d81U, 0x46fcfa7f081c1702U,
  0x1603febd111b06efU, 0x8fc810433dcfad5U, 0xf802d50dec0a0cfaU, 0xf503c80e14ebfee3U,
  0x20fd26e8df1d43fcU, 0xaf8de8a13f5b409U, 0x19eb030ff0091737U, 0xb10b32f9e6c617d9U,
  0xb4c1ff0fedfc110cU, 0x12bded0ad9d9070dU, 0xf0e8e60c00dbeff1U, 0xede709e9020a0e0cU,
  0x717fe06fe0900fdU, 0x291f1f07f963f6U, 0x32091df40df9e5bbU, 0xe6f20c1c03ea0018U,
  0xec126030e4201214U, 0xacf0f8f8b609fe59U, 0xdff97c81a679d420U, 0x7ffc921dd069f7a2U,
  0x10ecb0d829f629f3U, 0x9f0381d57f1f23b6U, 0x9f040abbfbeffde8U, 0x7fff9c0ddc24dcb7U,
  0x7f5d04e41bffd8e1U, 0x957f7fe7c181e8d5U, 0xd138921c33b50102U, 0xfb3d877fb6d481c2U,
  0xeafca7ed77e20e9eU, 0xf1cea0e10506f5c2U, 0xf2fee7eb2c1dd4faU, 0xc07fdf7f17ac4981U,
  0x2300f7e5c6cdd9f0U, 0xb10decdbe2951a24U, 0xedeb21990a7f6b09U, 0x89ee060881120222U,
  0xf70001c681290ae8U, 0x30a8f04f852fce9U, 0xf513e3190b0409f9U, 0xf5f4ee1414e4fae8U,
  0x10f209f3f82e251eU, 0x2df2ef810eedec04U, 0x196300faf90614cbU, 0xd71ce40fe6bfe9d6U,
  0xba19f7f5e90ff402U, 0xebece20ed9d945eaU, 0x1a1cef0d1506eef6U, 0xc8eba6def2f5000cU,
  0x3141bf40ef72610U, 0xe70eff210dffccd2U, 0xf0f301f80e00eb1aU, 0x1c1d0406e9eafa16U,
  0xfd04bb2c042216deU, 0x18ed0002ae09f610U, 0x5ffffcc2cU, 0x3539ffffe1e7U,
  0xffff8cd800003ebaU, 0xffffffa200000042U, 0x468000053a5U, 0xffffff37fffffb37U,
  0x669e0000001fU, 0xffffff0bfffffe2fU, 0x3d000027c8U, 0xfffffadffffffecdU,
  0x358bfffff24eU, 0x12a2fffff5d1U, 0xfffff91700000631U, 0x261fffff24eU,
  0x78e7000002fcU, 0x12b000001d5U, 0xadfffffff14U, 0x39600003a11U,
  0xfffffdb400003c8dU, 0xffffff8ffffff148U, 0xffffdc4c00000086U, 0x7dbffffcb14U,
  0xe95800003007U, 0xffffed9d00002441U, 0xffffeacfffffd9cbU, 0xffffcba1fffff1e8U,
  0x14100000102U, 0xffffff08ffffffafU, 0xffffedc8000026c8U, 0x3035fffff028U,
  0xfffff548000005e6U, 0x6d9800000ce4U, 0xfffffd14fffff2b6U, 0xfffffc2affffeee2U,
  0x6224ffffd679U, 0x298100001451U, 0xb23ffffdc89U, 0x546f000071f5U,
  0x76cfffff527U, 0x1aaffffefa1U, 0xffffd987fffff4fcU, 0xffff953effffe18bU,
  0xfffffbaaffffff40U, 0xffffee2ffffffeb7U, 0xfffffd7200016fe3U, 0xd9dffffeecaU,
  0xffffda9200004046U, 0xf631fffff9d2U, 0xfffffd990000038cU, 0xffffec57ffffd448U,
  0xffffff5700000ee7U, 0x199cfffff9e8U, 0x4100000002U, 0x11dc0000032cU,
  0xfffffe8bffffffd4U, 0xfffff28affffee85U, 0xffffce0effffef1bU, 0xfffff798000012dfU,
  0x466000047baU, 0xd00000129U, 0xffffec68ffffe465U, 0xffffdc7f00000b71U,
  0xfffff648fffff0efU, 0x45ff0000778aU, 0xfffff349fffffff6U, 0xfffff8fbfffffd3dU,
  0xfffffe56000050e2U, 0x2d0ffffffc90U, 0xffffe286ffffff50U, 0x2cfffffff1U,
  0x494ffffff3bU, 0xffffd5dfffffe9f1U, 0xed5d001f252bf8U, 0x5004fdc901f6f7eeU,
  0x2af41b030cf9e4f8U, 0x140acb07fc34e4f8U, 0xe6d4f7fcdeee1c11U, 0xfdf532eb0610ecf0U,
  0xb0e20112510dde8U, 0x2604ec1ac71adff4U, 0xffdf2f9bf1fdfc9U, 0xc00e1f21d0feef4U,
  0xf20bfa1c760a00fbU, 0x150e4f0209c82064U, 0x22290c81f6f5fd06U, 0xd7fd381ccef90bf9U,
  0xf2efefe703d71116U, 0xfeeff5051d042aeeU, 0x1f30efae6e6ed18U, 0x3bfd061520efe203U,
  0xb338c8250b2d3a03U, 0xbe204319daf5c809U, 0x23f2e9bdf2510edbU, 0xcbcc03fff108ee25U,
  0xd11541c08012cebU, 0x12ed7c26f2e506e5U, 0xec0eff0f07f21205U, 0x310bf6024ae925a5U,
  0xad21d9fd0e11f2U, 0x4aa020d60de4e6e9U, 0x373fd0f60596013cU, 0xc50d0ad912374809U,
  0x27e97f24351227U, 0xbec211be927d2ecU, 0xd611caf2d10a27f3U, 0x2dfc07c0cb12e911U,
  0xcefa3dbf3e1caf4U, 0xe5e8ee42dc35095dU, 0xafc00f022141956U, 0x14f61003202ac0b7U,
  0x1914fc38121feafdU, 0x18d9022234cc0bf4U, 0x24d701f13429dbd4U, 0x378121fefbb92913U,
  0x28d2eb08f5cadd09U, 0xe5bc0127991bfac1U, 0xfd3ee30901e52609U, 0x3151a3b373bd529U,
  0xdddcf3f405e9e9efU, 0x301be21fedefcb00U, 0xa34ffe5f2e72e0aU, 0xea37d62d532cdd0cU,
  0xfc14c6d33baeeef4U, 0xdafe3134f5540520U, 0xd5e934eb21fd3b26U, 0xd5ccba0bf91e0a23U,
  0xc6c6ece6c9e464U, 0x1e16ce0b8451541U, 0xb9161be30249230cU, 0x6e1131530f3ce23U,
  0x2bda00f322417fbbU, 0x7e23f0bc90b2afeU, 0x1418affff80c0831U, 0xcc140ceb1103fc95U,
  0xe11919da2dc566ddU, 0xf251f2ecd230bfaU, 0xdeebf5e38c443bdbU, 0xe308cffc6224e957U,
  0xe439b45ffb17caf8U, 0x3936dcdc2132e0c7U, 0x3efeee201e331b45U, 0xbc3ebc00006cdb4U,
  0xecff2c00e7d5b8f7U, 0x18e6c313dff028caU, 0xe70a40da09351807U, 0x2f2f8ed1504312dU,
  0xe801f8ffe702eb02U, 0xe1f7c7020c0eee0bU, 0xf8ef4803181681e2U, 0xe6eb20e5cc0b04deU,
  0xea14f4f1f0f8e6f3U, 0x2ef30af5ade2e7f9U, 0xc72a2de7210914feU, 0x23dffbfcd71afaU,
  0xced7fae9fb33f504U, 0x7f9e82209ddeb40U, 0x3717d3e7edee06f3U, 0x3925eae5f305232fU,
  0x2ced09da0015effaU, 0xeb041bfdf81e25f3U, 0x2d070e0810d81319U, 0x280ce4dd00e3094cU,
  0xfbc8fe4c04360233U, 0x2f1c07e0ed0af5f6U, 0xa617d63a00e3c8ebU, 0xf50f1100e61bf7c3U,
  0xef3e10c8e4566d1bU, 0x18f2c5e42adff9fdU, 0xfbf1cc152921fcf0U, 0x24d2fd24a1ecf7e0U,
  0x700fc2743f8245cU, 0x822242b0481280aU, 0xf52be6d3fcf6dae5U, 0x980229fcc713e9cfU,
  0x154da721e8192ff5U, 0x4103ddaef2eb8fbU, 0x1511ecf0fa02f4e7U, 0xf6991843f52dfd0cU,
  0xe257eedb2b0efdf6U, 0x1d02ebe13c181f13U, 0xccda210c0eefd5eaU, 0xde021a161f0515edU,
  0x1a1e21f60e22e817U, 0xd4e91302ce1f39b2U, 0xd61a3d08ed242d0cU, 0xdd16fdfee903fee7U,
  0xe1d52417181605dfU, 0xea1028076704f423U, 0xd0a0eeb81e0f60cU, 0x3509edb8f51d3beeU,
  0xe32bf202c9ede00dU, 0xb0ca06ebfb120befU, 0x17fb0d1716de1c12U, 0xff0f0bf3daede6d5U,
  0x2bf456f700cdeefbU, 0x5f80eeabadad627U, 0xfc06f41f27480dd0U, 0x501cc72c0febf5f1U,
  0x61400fbfafff1deU, 0x23800f9fc0900ffU, 0x125050c0217fd01U, 0xf32cfe15f00bf9fbU,
  0xf7ecf8f4f6ff0233U, 0x1f4e0f5030afeefU, 0xecfa8132fdffebfcU, 0xfbe90a02f4fbfbeaU,
  0xfe02faf6fe02210aU, 0x49030ef9f6f00110U, 0x433f530fffafbf5U, 0xecfe01dfff0b31f3U,
  0xfafc2fff05f71929U, 0xa0321f6fbf0fd0eU, 0xfb4411f6ed0dfe01U, 0xfb01f507fde9f9f7U,
  0x22407fe05050d44U, 0xfd07fb320102f700U, 0xbd12c01ae57f1be8U, 0x50bc6ff40eed958U,
  0x7f924fa063227aaU, 0xe3d128e9eb203b09U, 0x1efadc9be6f2eee5U, 0x53e3e73a25f12bb3U,
  0xf2e8eb1c14901de7U, 0x102bff1c4b2408ddU, 0xfa1af1cccc03f212U, 0x14e410f5d2e2fb0eU,
  0xefd002d7c2f00addU, 0xc5fc14382825f874U, 0xc109c9000c033df7U, 0x124d03df09eed30aU,
  0x124d21541de7f3dcU, 0xe2f2d8f8ef3acffeU, 0xe3ebed8e1cf0c50bU, 0x15f2de020139efdcU,
  0x93ac87f010b12b8U, 0x28eb0b15f326bc01U, 0x10dcf8ec36013403U, 0x150eff10230202eaU,
  0x11ef12042fd2f1fcU, 0xef1ffae66902fe3cU, 0x37e5090fca0bd707U, 0xf12608ec234b0d07U,
  0xfdf5fc2efdfec5U, 0x142c162302eff8f6U, 0xdfefea01cb143223U, 0x76041e0cb9e60ad0U,
  0xf9f210ecdf1de50fU, 0x5ebfa270314a9e5U, 0x2f1059fc1114ec12U, 0x1b0d3fb0f120b25U,
  0xefb061df8eae52bU, 0x19e7c60913f1f91bU, 0x1007faf8eaf0fef5U, 0xdaf3fcdb00fde4e4U,
  0x12f615eb1116e0fcU, 0xf1097f040b32e9e4U, 0xf2ef821e22350506U, 0x170e460616f1f712U,
  0x150cee1ff61d0e13U, 0xdffbf306fc0d04a8U, 0x3cfeb10b05090c0aU, 0x2a05faf2e521fa12U,
  0xdfcfd001704010fU, 0xf60817f32106e20eU, 0x172bef1c0d0cf902U, 0xde022c1dd1240b07U,
  0xfdeb2297faf600f4U, 0xf10816ee09302c0aU, 0xfc05ff0be7eae919U, 0x10f5073503d812c0U,
  0x39f6afb0bf4933acU, 0xe136a9020d19fd20U, 0xddf3fd2d072faa81U, 0xea60fe10f2cf0cbfU,
